#version: 0.2 - Trained by `huggingface/tokenizers`
t h
i n
Ġ \
Ġ $
o n
Ġ a
Ġ th
Ġ Ġ
t i
r e
e n
Ġth e
a l
e r
_ {
Ġ s
m a
o r
l e
i s
Ġ o
Ġ c
ti on
t e
t a
b e
Ġ f
r a
n d
Ġo f
Ġ w
Ġ$ \
Ġ (
r o
l a
i g
d e
{ \
Ġ p
e s
Ġ in
a r
Ġ t
e q
ĠĠ ĠĠ
a t
Ġ is
s e
^ {
Ġa nd
} \
s i
in g
o m
( \
Ġ e
Ġ b
i c
v e
h a
o l
h e
ma th
s u
) $
en d
} $
Ġ n
t s
Ġt o
c e
Ġth at
Ġ d
m e
Ċ Ċ
Ġ i
re f
g in
Ġf or
be gin
, \
ra c
a n
f t
Ġ =
l o
l y
a tion
eq u
} }
ig h
_{ \
Ġw e
Ġ T
v er
Ġ re
Ġ g
Ġc on
s t
f rac
} {
c al
l l
i te
m b
Ġ )
$ .
e d
Ġ u
Ġ &
Ġ be
p h
i t
o u
c tion
c h
c t
r igh
$ ,
en t
Ġ on
g a
i th
i m
e t
) \
Ġb y
o t
m ma
Ġ -
Ġ m
r i
Ġp ro
Ġs u
Ġ 1
ĠĠ Ġ
Ċ Ġ
Ġ de
p a
Ġa s
} )
} (
le ft
righ t
equ ation
Ġa n
} ,
h o
Ġ A
Ġ 0
d a
o re
Ċ ĠĠĠĠ
in e
Ġw ith
be l
g e
q u
p ro
la bel
p ha
Ġ S
m u
^ {\
Ġ ha
al pha
e ta
Ġ ma
t o
= \
_ \
m p
Ġ I
Ġe x
in t
mb da
Ġ +
math b
b le
Ġ C
Ġ L
math cal
o f
Ġ h
Ġ F
te d
i r
a d
- \
Ġa re
Ġ x
p si
l ine
i v
p er
Ġ v
t er
lo w
ti m
} .
re s
c ite
d o
d u
te x
0 0
u n
i f
u r
Ġc om
e c
u s
p o
ĠT he
l ta
Ċ ĠĠĠ
Ġ B
la mbda
su b
Ġ 2
} ^
ig n
$ \
le q
ph i
} ^{
tim es
Ġa l
u p
a s
ig ma
Ġw h
} _
he re
om e
la r
it y
* }
do ts
W e
f in
Ġ |
ti ve
ti al
ĊĊ ĊĊ
a p
ra n
l on
Ġth is
T he
su m
Ġ P
) }
ĠĠĠĠ ĠĠĠĠ
en ce
Ġ R
$ $
ti c
Ġ M
t r
ft y
in fty
+ \
i l
u t
Ġha ve
ti l
Ġ H
\ \
d s
Ġs e
b ig
al ign
^{ -
f or
Ġp o
se t
ro m
$ -
ta r
} _{
ore m
Ġc an
n e
^ \
Ġ( \
mathb b
Ċ ĉ
p i
p ar
ic h
d i
Ġ or
Ġ N
tex t
v ar
u m
p l
til de
ro w
eq ref
t ri
i d
ol low
~ \
be ta
ĠT h
si on
n o
| \
i de
Ġ\ \
d er
Ġi f
a b
d ot
r m
Ġ `
} {\
s igma
x i
psi lon
Ġf ollow
i z
Ġ le
a te
u re
th e
Ġ [
tion s
ga mma
o ver
a se
Ġf rom
ta u
Ġ k
) ,
} (\
Ġn o
th eta
/ \
Ġ {
Ġ y
Ġth en
Ġa t
un ction
r ho
g le
D e
Ġ l
qu ad
) .
n t
de lta
en er
Ġ G
Ġi t
Ġ E
Ġs a
c on
e x
)$ .
Ġ me
i e
p e
h at
Ġsu ch
Ġa ll
Ġwh ich
c om
ou nd
p le
s s
Ġ$ (
e ll
u l
s o
c dot
Ġ X
}$ .
th er
o d
ĊĠĠĠĠ Ġ
Ġ {\
c k
m s
Ġf unction
al l
i es
t y
pa ce
^ *
de f
ta in
Ġp a
Ġ r
le m
ite m
b ar
Ġs et
par tial
Ġu n
) =
b f
a nd
Ġo b
c es
Ġ D
ho w
p s
1 2
Ġsu b
pro of
Ġd is
ra y
tar row
Ġ\ <
}$ ,
i ll
Ġ }
)$ ,
ome ga
Ġn ot
Ġc o
Ġm o
n u
s ta
mathb f
g eq
mb er
i a
Ġa p
a ch
1 0
& \
or m
se ction
ct or
) )
i al
me ga
m in
Ġ :
O mega
G a
y s
ar ray
o te
f f
- -
a re
Ġ /\
Ġ Ċ
Ġ <
po si
c l
Ġs ta
2 0
Ġ 3
b ra
Ġ We
i an
Ġthe re
Ġ z
ro up
Ġde fin
Ġg ener
Ġan y
T h
s c
g ra
Ġu s
u mber
Ġon e
righ tarrow
h i
en ts
Ga mma
] {
or ph
Ġf in
r u
u lar
Ġp ar
in ce
e m
Ġ K
w e
m o
p on
Ġf a
Ġw here
r t
s f
b o
Ġs how
Ġha s
e re
ol u
Ġb ound
L et
ou s
\ <
su l
se d
w o
if f
k e
Ġs im
\ |
o g
Ġ .
ĠI n
w ide
I n
Ġ| -
ir c
Ġg iv
De lta
posi tion
tri x
s q
c o
var phi
Ġc ase
l d
Ġ "
re e
ic al
[ \
Ġ V
Ġ W
at or
c ap
1 1
e psilon
Ġn on
u nd
Ġ U
^{ (
Ġre sul
o p
} }\
l dots
p ec
Ġfollow ing
al u
g f
d ing
mp le
Ġ equ
Ġn e
ta tion
sq rt
Ġ lo
re d
f ig
Ġd en
is t
Ġ j
Ġs ome
en sion
ol ds
o times
p gf
eq n
Ġcon t
Ġt wo
i tion
\ [
p res
ir st
ge bra
i p
over line
B ig
w here
c c
Ġ ver
) ^
} [
om orph
tr ic
la n
Ġal so
Ġa d
Ġ ra
Ġw ill
} ^{\
e mma
math rm
Ġ ,
} ,\
1 9
} _{\
Ġin te
ĠThe orem
t ing
l im
Ġe ach
L a
1 3
Ġon ly
Ġ- >
Ġ\ ,
si der
n ab
Ġ qu
\ ]
\ !
Ġpro of
i x
Ġle t
nab la
Ġa r
Ġfollow s
a u
Ġ O
f ra
Ġd o
ĊĊĊĊ ĊĊĊĊ
Ġi mp
p t
le mma
v are
c irc
Ġc la
Ġ 4
\ ,
vare psilon
Ġgiv en
Ġas su
p p
1 5
ĠTh en
g or
Ġcom ple
Ġob tain
ĉ ĉ
Ġs o
Ġd iff
cl u
ĠL et
Ġs pace
c ol
1 4
al ly
ar y
} =
di tion
is ts
Ġg roup
m ent
es s
P hi
Ġn umber
a st
fra k
per ator
lo g
Ġc or
Ġre s
Ġc ha
ti sf
ver y
ra w
ne w
al ity
1 6
o th
ĊĠĠĠĠ ĠĠĠ
a mple
) =\
) (
j e
sub set
) ;
p end
v es
line ar
La mbda
n a
Ġg ra
ar d
im ension
Ġf irst
de l
Ġin ter
n ce
th m
is m
Ġfin ite
is e
r k
Ġs t
du ce
ran gle
Ġsa tisf
Ċ ĠĠ
Ġo ver
Ġ Y
Ġ la
\ {
p ut
ĠF or
Ġfor m
ti es
1 8
k ap
i ts
ran s
ĠL emma
Ġ ta
2 5
Ġ equation
' '
b u
Ġv ar
ch i
pl ic
d raw
kap pa
c ent
Ġs olu
ol d
. .
Ġ q
s pace
lan gle
ĠTh is
ys te
em ph
Ġp er
Ġpro ve
Ġus ing
9 9
F or
ma in
Ġ Z
st ru
eqn array
Ġe very
Ġ es
p la
g er
g h
Ġre la
math frak
ve ctor
iz e
Ġdefin ed
1 7
g es
} )$
Ġo p
Ġpo int
Ġs tr
m all
c dots
S igma
ma trix
ff ic
um er
il ity
wide tilde
Ġt er
ol y
Ġ Q
} ;
Ġ J
) }\
s er
) ^{
z eta
equ ence
Ġ >
Ġma p
Ġor der
Ġal gebra
Ġe lem
Ġpro ble
n on
Ġse e
ĠĠĠĠĠĠĠĠ ĠĠĠĠĠĠĠĠ
in d
Ġcon sider
s si
Ġdiff ere
ti ma
ti me
te s
er o
the orem
Ġden ote
on g
se c
Ġs y
si m
ation s
e ps
Ġo ther
Ġpro per
pro p
| ^
ol og
Ġgener al
pe ct
le d
res pon
r ic
ĠP ro
o x
} -
' s
igh t
Ġi ts
p u
, -
or k
ri me
Ġs yste
c or
a su
Ġ$ (\
r y
ma rk
}) .
nd er
f ine
as es
Ġun i
Ġwh en
7 5
u st
Ġ\ {
le s
in u
ra me
fin ition
Ġu se
id th
a k
ĊĠĠĠĠ ĠĠĠĠ
ma n
t en
le t
Ġex ists
ct ure
c up
in ts
r al
ma nd
Ġo ur
sub section
or d
p ly
Ġ 5
no w
c re
ou t
f a
iv al
2 3
er t
v i
Ġv alu
gra ph
Ġassu me
bo ve
d en
Ġsa me
n ot
ou r
a y
Ġa bove
po se
ĠI f
\< ^
ti cal
} +
o w
] $
clu de
Ġcor respon
Ġo perator
P ro
mu la
Ġp re
i re
2 4
ffic i
com mand
a ted
Ġ en
ti t
s h
Ġ vector
p m
} )\
Ġt rans
tri bu
m me
Ġresul t
an t
ĊĊ Ċ
; \
Ġthe se
c i
Ġin de
q quad
3 3
new command
u e
{ (
Ġmo del
ref ore
v en
Ġgra ph
Ġre pres
j ec
Ġpo si
Ġ\ |
d is
a si
te q
l i
ĊĠĠĠĠ ĠĠ
w h
sc ri
Ġpar tic
n orm
b b
Ġc lo
ver t
] \
Ġu p
Ġcon sta
Ġma n
ou ld
Ġbe t
Ġproble m
Ġre g
s ing
b m
Ġu nder
Ġimp l
Ġes tima
} =\
Ġ _
ma x
) -
m i
Ġ time
Ġme asu
Ġ- -
on d
mb ol
ma p
Ċĉ ĉ
c he
ĠS e
Ġc ur
omorph ism
om ial
n eq
su p
i i
R e
Ġfunction s
Ġc ho
Ġm ul
Ġm ore
k ip
fig ure
Ġp oly
00 00
a ble
c m
Ġde fine
wide hat
}) ,
Ġthe orem
ve c
6 0
iz ation
we en
) {
Ġcom pa
Ġex t
pl it
Ġse ction
Ġma trix
i ed
Ġsolu tion
Ġs ince
cent er
i ve
var ian
ie ld
for ma
Ġb ut
Ġp res
de d
Ġcon tain
2 2
Ġap pro
. ,
Ġh olds
w idth
on e
v alu
lon g
}} {
Ġequ ival
Ġcon dition
Ġcon stru
Ġs h
Ġresul ts
Ġp h
Ġan al
Ġ linear
3 0
Ġlo cal
& =
}^ \
tive ly
Ġcla ss
or y
i j
mb ox
u la
Ġbet ween
Ġex ample
ta b
Ġ$ {\
Ġcont inu
pl us
Ġc al
4 5
Ġma y
' $
Ġimpl ies
se teq
b in
m m
Ġt y
Ġ: =
c y
i lar
p rime
) ]
umer ate
( -
6 6
Ġs equence
Ġ ro
2 8
b s
Ġpartic ular
\ }$
en umerate
Ġt ri
ic s
i b
. }
Ġn orm
Ġmul ti
Th is
} }$
9 0
no de
ĠI t
se e
Ġm in
Ġstr u
Ġ /
Ġsta te
Ġsyste m
Ġno w
Ġc ol
4 0
P si
3 5
^ +
ta ble
sub seteq
Ġcon ver
2 7
Ġcom pu
i on
o se
mu l
duce d
t ro
Ġpo ints
Ġe d
Ġfor mula
und er
ex t
Ġf ix
Ġcomple x
min us
Ġh om
) |
Ġth an
w ith
) {\
gor ith
en g
) +
} |
er s
ate gor
} ]
< \
C on
Ġconsta nt
I f
Ġposi tive
for m
) ,\
a ct
c ha
n omial
non umber
Ġrepres en
en tial
) }{
Ġh ence
Ġi den
Ġfa ct
Ġ& \
v ing
8 0
o plus
Ġk now
qu e
pro d
{ -
Ġ 6
}\ \
du ct
iz ed
Ġin to
ia ble
Ġg et
Th en
ec ond
set minus
e e
text bf
a m
Ġ$\ {
Ġwe ll
V ert
n g
is h
y mbol
Ġ& =
Ġd imension
Ġre al
ed ge
d d
ĠA s
bo x
9 5
} :
o v
fin ite
Ġ lar
lar y
. \
Ġ ref
p re
st o
mp ty
Ġme th
ĠPro position
ol lary
k z
$ $\
rame ter
Ġh y
2 6
Ġd er
Ġpa per
v al
} +\
mo oth
olog y
Ġcon s
im al
Ġbound ed
Ġde g
ind ent
Ġin equ
eng th
8 5
a ck
Ġdefin ition
ti kz
rac ter
u b
ĠSe ction
g roup
A s
7 0
Ġ end
be d
ex p
Ġex ist
ab ility
Ġw as
A C
Ġsu r
Ġap ply
ĠB y
ĠS ince
Ġme an
Ġdis tribu
om et
Ġo ut
Ġd ire
~ $
Ġpoly nomial
Ġno de
b olds
B y
d y
ces s
Ġa u
s tar
bolds ymbol
Ġw r
Ġiden ti
Ġb oth
Ġcorrespon ding
equ iv
Ġz ero
Ġs econd
l f
b it
m on
}^{ (
ne l
pa ces
Ġu sed
ent ly
Ġ *
6 5
} &\
E N
z e
jec tive
3 4
) :
te p
_ *
}} (
^{ -\
Ġl im
Ġ- \
or t
ĠR e
} -\
ĊĠĠĠĠ ĠĠĠĠĠĠĠĠ
s plit
p r
na me
2 00
) }$
gorith m
du ction
c us
9 8
nd om
no indent
n ec
big g
ur ther
or s
_{ (
Ġf ield
Ġpro b
p lo
Ġstru cture
Ġd ia
Ġsatisf y
_ +
so c
Ġpa ir
m id
Ġter ms
ic e
di tions
b y
Ġ( -
R E
Ġin tro
Ġ$ $
a g
Ġdo es
Ġ$ [
Ġw ork
o k
Ġs mall
Ġ te
w edge
Ġma x
col on
b ound
Ġty pe
Ġ right
Ġvar iable
Ġs ing
\| _{
Ġmeasu re
Ġst u
a ta
Ġcontinu ous
o int
I t
}\ ,
Ġmo du
Ġpa rameter
Ġ ran
i o
varian t
7 8
s mall
cal l
Ġde scri
ig en
u ll
Ġg e
n i
Ġde pend
\ }
Ċĉ ĉĉ
n er
wh ich
item ize
d imension
Ġto p
for all
d im
4 8
v ial
e l
Ġcha racter
Ġi de
de finition
f ill
tion al
h om
omorph ic
w er
col or
at ur
Ġ @
9 6
w ise
3 8
xi ma
st y
Ġ _{
sc r
2 1
P i
ou gh
Ġbound ary
ro u
g ral
a c
d ic
S ince
n s
le ss
soc ia
ft er
3 6
au se
in ate
ie l
Ġthe ory
Ġra ndom
b ul
) ^{\
map sto
Ġs mooth
= {
: \
st ric
Ġ$ |
Ġcon ditions
si ty
Ġinequ ality
sty le
} _\
ĠTh us
Ġclo sed
c s
Ġs pec
Ġelem ent
Ġex act
Ġsatisf ies
p ic
The orem
er r
Ġsy mme
ve d
Ġcompa ct
Ġinte ger
pec tively
ti ce
) _{
ore over
ĊĊĊĊĊĊĊĊ ĊĊĊĊĊĊĊĊ
Ġde ter
Ġdiffere nt
pla y
ategor y
forma tion
9 7
al s
lim its
en s
up pose
um ent
5 0
pa ra
tic es
| _{
$ }
}} }
Ġpro duct
ĠC on
Ġne ed
Ġ â
' \
Ġcom pon
The ta
Ġres pect
Ġ| \
00 0
}} {\
Ġth us
h line
Ġop tim
vi ous
g y
= (
9 4
s in
if orm
e mpty
bul let
mp tion
iel ds
ou n
st ra
c lo
Ġ left
nec ted
Ġelem ents
d x
' _
mo du
ve x
re mark
v ide
Ġobtain ed
Ġcha n
Ġ he
ta tions
~ ~
dimension al
Ġsim ilar
t ure
' (
T AC
p an
s kip
ord inate
Ġlar ge
Ġfix ed
on al
Ġob ser
Ġsim ple
& &
3 7
Ġas socia
to p
Ġp la
g ence
Ġar g
De finition
c ases
pend ent
) }(
si de
con g
ic ation
Ġle mma
Ġ 7
Ġuni que
Ġe igen
Ġthe ir
Ġprob ability
al gebra
Ġs ol
in k
Ġm on
Ġsu m
) ^{-
s la
- >
-- --
je ction
Ġ 8
Ġa ction
at ure
Ġ` `
a ge
Ġpro cess
e ffici
Ġbe ing
Ġdeg ree
Ġvalu e
Ġb ase
' ,
in clude
Ġw ho
cap tion
Ġpo ssi
if old
je ct
Ġshow s
ar row
m c
dis play
Ġd ata
pro position
^ -
as is
Ġse ts
A L
Ġproper ty
ver se
Ġop en
c r
Ġgiv es
graph ics
la tion
E x
in f
,\ ,
co s
Ġappro xima
Ġn atur
-- (
Ġfin d
le ar
4 4
Ġme tric
Ġcal led
Ġ\ (
include graphics
ic k
T o
Ġbe c
Ġequival ent
)$ -
ical ly
)\ ,
. $
Ġs paces
Ġter m
Ġpar t
Ġ ĊĠ
ve l
3 2
Ġha nd
Ġlim it
b ility
Ġres pectively
a x
I T
Ġre qu
under line
Ġc y
cal e
Ġmeth od
S T
math scr
w ork
Ġequation s
Ġcom mu
Ġp r
Ġmo st
i tial
Ġc irc
c ur
I N
fa ce
Ġfa ctor
Ġpa th
Ġinte gral
L E
u al
nd ard
rou gh
Ġassocia ted
0 5
an g
ĠĠĠĠ Ġ
Ġed ge
Ġdiffere n
t t
}^{ -
Ġpro vide
he d
Ġa b
z ero
rac t
is tic
in c
$ )
n ess
Ġbe en
O N
ti v
i le
Ġ low
Ġvalu es
Ġ }\
Ġma in
Ġ ^
t ra
Ġl i
Ġg o
) /
Ġd om
ĠF ig
tex tit
Ġe ven
H EN
Ġs ign
$ (
4 7
A T
o we
at ing
Ġproper ties
Ġnorm al
de g
Ġl ength
s y
Ġthe y
Ġvar i
Ġ\ ;
Ġver tex
Ġ1 0
Ġd iv
owe ver
im um
c la
man n
ĠR R
] ,
Ġs che
Ġw ay
Ġcomple te
N ow
d t
Ġex pres
Ġ line
) )\
Ġco effici
Ġsolu tions
ta n
Ġw ould
] :
Ġt ra
Ġsu pp
Ġcla ssi
ĠH ence
Ġta k
) )$
Ġre stric
Ġver tices
Ġh igh
Ġdeter min
an gle
olu tion
la t
h space
l n
Ġdistribu tion
p matrix
6 8
Ġ$ .
Ġm ust
th at
y mp
r r
is ms
Ġhy per
a me
u res
Ġequ al
Ġa c
ing s
align ed
2 9
\ {\
un ctor
\! :
S E
Ġb i
Ġa cc
Ġun iform
a tive
d f
N ote
gra m
m ents
Ġwr ite
Ġ+ \
j oint
Ġ how
Ġla t
\!: \!
Ġle ast
)} {\
Ġwe ak
Ġgroup s
) -\
M P
mi ly
c ted
la ck
6 7
b ack
~ $\
Ġs ide
Ġbec ause
Ġth ree
si ze
th es
Ġal gorithm
Ġsub set
{ {\
( (
Ġma ps
Ġc ases
ie w
_{ -
po int
Ġconstru ction
Ġcon nected
Ġi ma
E E
Ġder iv
ith er
Ġinde pendent
)\ \
Ġrepresen tation
qu are
pgf math
Ġestima te
Ġm orph
ĠThe refore
lo or
= -
' )
Ġgener ated
Ġman y
Ġin finite
ĊĠĠĠĠĠĠĠĠ ĠĠĠ
si mp
k er
Ġe m
5 5
Ġ ?
err or
Ġsta ndard
t ur
Ġnatur al
s te
Ġno te
f ul
k s
Ġsa y
du c
L emma
es t
Ġdo main
Ġb und
Ġsub group
su me
f o
ad d
Ġc ategory
Ġ here
int er
Ġst ra
Ġdis cus
ab s
Ġb asis
Ġs er
\ ,\
m is
Ġin itial
ĠT HEN
Ġcont ra
na m
lo b
Ġreg ular
o perator
sta ck
o b
C C
6 4
t on
Ġ= \
ĊĠĠĠĠĠĠĠĠ Ġ
) +\
) _
[ (
h en
ĠT o
Ġcont ro
: =
l u
Ġshow n
* *
on t
Ġis omorphism
Ġco ordinate
w a
Ġappro ach
Ġad d
ro und
ga tive
}} ,
Ġde com
Ġs tar
ver s
bit ra
Ġg ive
Ġext ension
ol ic
Ġne w
F F
7 7
Ġknow n
Pro of
b l
e p
Ġdire ct
Ġpossi ble
ta nce
Ġd y
8 8
op en
s p
s ign
Ġstu dy
\ '
a us
no te
Ġcon vex
iv en
ru e
igh b
x y
Ġs pect
c le
}$ -
pic ture
ĠS o
9 3
Ġcontain s
ener gy
Ġsu p
Ġ\ ]
ymp to
ĠA l
t in
ga in
ta g
re g
ĠN ote
en e
Ġta ke
Ġge omet
re m
Ġwho se
lo ck
R R
or ollary
re l
Ġsu ffici
Ġth rough
mo st
big l
$ ;
su re
n ing
* {
c ise
Ġ ent
, $
big r
i ties
ĠĠĠĠ ĠĠĠ
Ġar bitra
an ce
} )$.
Ġf ree
D E
cre te
Ġvariable s
l in
) "
Ġre main
en ces
0 1
Ġfa mily
Ġs ize
Ġassu mption
Th us
in ally
Ġbe low
\ "
Ġla st
en ted
math sf
Ġ ~
tric es
po sed
o ted
plic it
Ġmean s
an ti
clu sion
ve e
Ġconver gence
Ġs en
Ġsim p
Ġoperator s
ĠM oreover
ve lo
Ġprove d
Ġad dition
Ġin v
Ġno tation
d frac
d iff
c a
t or
du ci
s on
f i
display style
w n
olog ical
Ġcontro l
Ġab out
Ġf unctor
pa th
\ }$.
Ġcur ve
u ra
: =\
\ |\
v space
d iv
es e
Ġcal c
I I
Ġcirc le
Ġe v
th or
ĠN N
Ġsymme tric
si an
S e
i od
tar y
_ -
st ract
Ġsub s
Ġpre vious
Ġcon clude
Ġs tep
it er
Ġ De
Ġtri vial
] $.
}} (\
C om
Ġsatisfy ing
ou nt
Ġrela tion
. $$
e ed
4 3
) },
ys is
s tic
b lack
io ta
Ġi r
Ġinte gra
w ard
al le
Ġe ither
Ġs p
A l
> \<^
Ġeigen valu
pa nd
Ġn ext
long rightarrow
Ġin variant
a f
ote s
} &
or der
Ġanal y
ĠL ie
Ġ #
}^ *
fo ot
Ġinde x
ĠH owever
m ore
Ġc h
con t
ĊĠĠĠĠ ĠĠĠĠĠĠĠĠĠĠĠĠĠĠĠĠ
P P
Ġc ent
re st
le ction
] ]
S S
clo se
as ing
ri er
duci ble
Ġin cre
Ġal low
Ġ. ..
f ore
s k
Ġlow er
ta tive
me ds
Ġpo wer
Ġt rue
modu le
. ~
' }
Ġr ing
$ };
0 8
Ġs cal
Ġarg ument
foot note
et work
s cale
um n
Ġman ifold
Ġma trices
ig in
meds kip
tr m
\ /
Ġcom bin
Ġinter val
ĠĠĠĠ ĠĠ
lob al
> \<
Ġran k
Ġun it
en tation
4 6
Ġnumber s
Ġne ighb
t frac
Ġwh ile
n al
Ġli ke
es tion
if ied
Ġn ec
b i
Ġ error
o de
,\ \
Ġed ges
s en
ot op
plo ts
tab ular
tex trm
o ther
f unction
Ġidenti ty
^* \
plic ation
Ġset ting
}{ }&\
H om
empty set
o ds
Ġver y
operator name
Ġem bed
Ġdenote s
c at
as y
igh tarrow
ex ample
Ġoptim al
in de
Ġthe refore
Ġc he
3 9
Ġc lear
Ġ energy
or ds
R ightarrow
Ġcoeffici ents
Ġup per
com ple
Ġa bs
Ġas ympto
center ing
ru le
w t
e ver
o id
e ct
g ener
{ {
] $,
m it
Ġre ad
) }}
thes is
Ġsyste ms
Ġre c
Ġdifferen tial
j u
| _
me d
Ġcho ice
du ces
Ġsen se
re la
| ^{
ti ble
Ġstr ong
Ġc over
^* $
m od
Ġbase d
Ġexist ence
Ċĉ Ċ
Ġbund le
bra ce
\ }\
Ġra te
st r
ro p
Ġarbitra ry
de t
ma t
ĊĊ Ġ
Ġpro jection
Ġidenti f
Ġspec ial
je cture
ax is
u ch
re ducible
Ġ 9
Ġex pon
ti tion
Ġex plicit
h y
Ġle ad
mul t
Ġau to
Ġt or
on ical
tit le
an ish
S uppose
Ġsur face
{ }
ta il
Ġt ran
] {\
Ġal ong
Ġi ter
) })
ro ss
pla ce
Ġa m
Ġin sta
a ction
Ġlo g
Ġser ies
4 9
s pec
per p
Ġder ive
\! \!
Ġap pe
Ġnec ess
l er
b olic
0 7
{ $
ap pro
po s
& =\
k et
ant um
Ġthe m
ar ch
Ġcon stra
Ġ ]
Ġcompon ent
Ġsche me
3 1
Ġima ge
Ġpre cise
( {\
pgf plots
Ġmorph ism
Ġf urther
Ġequival ence
Ġcon ne
) --(
or ding
Ġen ough
tical ly
ĠFig ure
Ġy ields
th en
Ġto t
er g
Ġco de
}} _{
$ ).
a ve
Ġcalc ula
Ġn umer
da g
ens or
Ġanal ysis
8 7
Ġche ck
C T
} )$,
Ġclassi cal
1 00
+ (
er tain
re al
Ġexpres sion
if y
Ġn etwork
pp ing
ĠL e
Ġcontra dic
c d
Ġor igin
norm al
Ġdy nam
Ġsup pose
ma tic
H ence
}{ (
se ts
er nel
Ġmax imal
Ġparameter s
Ġdia gram
en cy
Ġsh ould
o is
Ġ$ |\
Ġdis tance
Ġide al
re nt
ma ke
^* (
o ti
ĠM a
ly ing
Ġalgebra ic
w r
Ġle vel
Ġqu anti
Ġconstru ct
less sim
Ġgraph s
cor ollary
Ġcla im
Ġcho ose
Ġlocal ly
] }
\ }$,
o o
hi ft
tiv ity
Ġcompon ents
ab stract
Ġwith out
Ġin duced
si ve
di ate
Ġh old
,\ ,\
r f
n n
Ġm od
ge ther
it u
ĠS uppose
nd eed
Ġpres ent
Ġ[ [
Ġf e
g et
Ġrela tions
. )
}} ^{
tric t
Ġmin imal
Ġd ual
tab l
Ġth ose
Ġor th
Ġ[ \
Ġv ia
Ġ quad
ot ential
4 2
ty le
sim eq
Ġext end
b matrix
Ġ$ -
b old
Â ĵ
ri es
Ġd x
$ :
Ġj ust
lem ent
Ġrequ i
The refore
it ten
Ġsing ular
tikz picture
ta nt
} /
Ġk ernel
og ene
Ġa gain
] (
ar t
Ġf ib
) ^\
A R
c ity
0 3
bin om
a fter
c f
Ġdecom position
Ġf low
Ġstate ment
5 7
Ġcompu tation
Ġre call
Ġc oun
Ġ ĊĠĠĠ
Ġqu asi
p ed
o s
Ġa ct
Ġver sion
ere nce
Ġv iew
u ally
ĠĠ Ċ
ĠE x
Ġ{ $
ĠC orollary
Ġproble ms
0 6
al f
Ġir reducible
side red
de fin
Ġde c
Ġanal og
Ġ '
p tion
if ic
Ġimp or
ĠN ow
ri d
e y
Ġa ff
Ġwh at
Ġsu per
ex pand
Ġ ĊĊ
or ted
Ġs trict
Ġc s
Ġchan nel
Ġclass es
Ġse para
im ilar
ĠThe re
sla nt
Ġe asy
Ġe asi
Ġin formation
al g
wa ys
Ġes tabl
Ġin dic
omorph isms
t rans
Ġd ue
bel ian
Ġe ff
du al
Ġo per
i or
il b
Ġdiv is
Ġalgebra s
Ġ Î
Ġp rime
lo cal
urther more
Ġpro ce
Ġ< ->
ĠC C
s a
Ġqu estion
Ġob ject
Ġestima tes
\ )
ate s
Ġal most
asi c
Ġs equ
} '
Ġb lock
Ġden sity
Ġo dd
Ġte ch
Ġinte rest
Ġc ertain
b x
Ġmeth ods
tr y
Ġcompu te
tri vial
le v
text width
Pro position
G L
{ #
Ġ\ |\
0 4
ar p
r d
Ġbound s
mul ti
---- ----
Ġ- .
Ġ1 2
Ġpolynomial s
. ~\
Ġden oted
0 2
) (\
ĠĠĠĠĠĠĠĠ Ġ
5 8
\| _
Ġwe ight
Ġmodel s
ti f
Ġcon sidered
}) =
otop y
Ġc ar
it z
)} _{
pa ge
, ..
F rom
Ġdis crete
in v
Ġwe re
H ere
m es
L e
Ġy ou
Ġexact ly
Ġt ensor
ĠR E
Ġcan onical
5 6
ad y
le ct
er n
7 6
Ġrela ted
Ġ ;
re es
au to
ogene ous
al e
Ġis omorphic
Ġ( $
si ble
ri tical
Ġt ur
lo c
| _{\
Ġasympto tic
Ġs he
E q
iod ic
Ġ\ [
Ġqu antum
ĊĊĊĊ Ċ
Ġsing le
Ġv anish
O n
Ġal ways
Ġ$\ {\
Ġpar tial
in te
Ġap pl
Ġappe ar
n ts
Ġ\ (\
Ġs quare
) >
ty pe
ĠO n
q ed
Ġ$ ,
Ġr u
if olds
z ation
ie mann
Ġf ound
ere n
big cup
hom ology
ti ves
=\ {
M a
Ġintro duce
com p
9 2
Â İ
A n
Ġma ke
Ġapproxima tion
sla sh
^{ (\
}} _
Ġdire ction
Ġsta tes
il ton
U N
Ġa fter
et y
Ġbe ha
I nt
Ġdescri bed
}{ |
par t
s is
b ase
b a
C H
Ġcha in
Ġcons ist
Ġcur ves
cha n
mp tions
p df
Ġbe long
Ġvector s
S et
in es
circ le
v a
c ref
Ġde tail
8 6
Ġsh all
Ġcontain ed
ti ll
Ġcoordinate s
jec ts
c ase
Ġp otential
oti ent
Ġs plit
un c
Ġsu mma
Ġexample s
Ġ" \<
m f
}) }
Ġ row
com pa
L L
Â į
Ġ ^{
Ġwe igh
Ġu su
$ &
( [
Ġpar tition
Ġtot al
Ġw idth
Ġequ ality
i er
al se
F ig
Ġgener ator
ll ip
Ġimpor tant
Ġ(\ <
a ves
res s
Ġf rame
Ġcan not
ment al
\ }.
c ument
L ong
Ġf ields
Ġto gether
Ġra di
su ch
&= &
g g
Ġuniform ly
Ġc all
no tag
ho od
r on
Ġs te
Ġdia g
/ =
Ġreg ion
Ġconne ction
Ġcharacter istic
Ġra tional
{ $\
S U
I ON
mult line
def n
Ġin f
Ġo cc
k ov
O O
Ġchan ge
Ġref er
/ (
vers al
g en
Z Z
ilb ert
und a
Ġobser v
in ary
ste ad
te ly
} |\
tex ts
Ġ2 0
7 4
g r
\ [\
Ġcor re
not in
Ġeasi ly
Ġinter section
i ver
) }_
ra ble
Ġs to
Ġor i
l ength
appro x
Ġ\ !
Ġex ce
| |
Ġ$ $\
ul t
cl ic
Ġf ull
re at
og onal
che ck
Con sider
p oly
Ġf il
Ġ. .
Ġsuffici ently
ne gative
x x
am ilton
Ġpres er
Ġi m
Ġintro duced
res p
Ġex pec
ch o
su r
\| ^
Ġre place
Ġc ould
ĠG aus
Ġmin im
Ġ= /=
A B
p ts
di ent
f ree
ex ists
( -\
U E
M oreover
Ġty p
Ġsta ble
Ġf our
S o
ra tic
pan sion
Ġembed ding
e v
0 9
Ġm om
Ġcon ven
h box
Ġhy po
} [\
ar i
Ġin verse
U sing
s g
k now
d ist
v ature
ĠC om
ĠZ Z
^{ *
var theta
Ġtak ing
ch ie
Ġlat tice
}$ $
0000 0000
Ġstu di
f rom
Ġn ame
ga te
> \
Ġtop ological
as on
Ġpro posed
unda mental
Ġneighb or
con d
) }.
alle l
do cument
Ġb ack
P L
/ .
Ġ|- >
imilar ly
m y
)} (\
Ġpro jective
Ġh ol
S p
Â ĳ
ĠĠĠĠĠĠĠĠĠĠĠĠĠĠĠĠ ĠĠĠĠĠĠĠĠĠĠĠĠĠĠĠĠ
k k
mme diate
inde x
Ġnumer ical
Ġs till
Ġfor ms
T here
Ġa ut
E R
Ġgeneral ized
Ġtop ology
or th
ten ded
8 4
Ġt ree
N N
_{ [
Ġinv ol
en tion
Ġfinite ly
x t
B bb
mp l
Ġtran si
Ġex pansion
ble m
Ġi mmediate
Ġ ,\
back slash
expand after
\ ;
Ġsy mbol
{ |
Ġa chie
pre c
ĠH ere
Ġinsta nce
g o
Ġsupp ort
ou ble
Ġcontradic tion
Ġ Ċĉ
ess ential
int ro
c an
ver al
}} .
Ġprecise ly
in variant
O P
ula ri
Ġse m
Ġg lobal
ha nd
Ġc ell
ch ar
Ġsub space
ĠL i
Ġ< _
Ġper mu
Ġdescri be
}\ |
Ġcons equence
k es
Ġinteger s
ct ures
in ed
Ġcon ju
fa ces
Ġde velo
be q
t wo
99 99
ra t
Ġbeha vi
b re
\| _{\
Ġro ot
iz ing
dag ger
ĠR iemann
se lf
se u
ĠB ase
Ġspect ral
Ġma t
ĠA n
as s
l p
Ġcorrespon d
c ing
Ġw ords
Ġmax imum
ode si
c oun
od ing
Ġb all
is ion
z ed
g l
ide s
Ġdis tin
Ġan other
ta te
r ing
Ġuni on
u a
5 4
Ġsim ply
Ġ times
Ġaff ine
Ġrestric tion
Ġv al
Ġconver ges
) [
Ġdetermin ed
tit u
ga ther
Long rightarrow
Ġsim plic
su mption
re ady
re n
)= (
b ib
' _{
Ġeigenvalu es
Ġthe sis
i k
} }$.
Ġse lf
) |\
Ġcho sen
Ġs ha
X i
Ġp ha
lf loor
Ġassu mptions
Ġde si
N o
Ġclo se
) _{\
cha stic
5 3
re sul
olu me
Ġsim pl
know n
] .
Ġa ver
Ġse mi
Ġsa mple
F inally
Ġas sum
Ġp ri
ter n
su pp
Ġlo ss
Ġwr itten
Ġcorrespon ds
- (
Ġconsta nts
rf loor
Ġre ason
6 3
Ġt w
IT E
tan gle
Ġl ink
7 3
Ġ$ {
is hed
ĠM ar
RE AL
6 9
com es
Ġle ss
Ġin duction
Ġdiag onal
Ġc l
Ġe llip
c A
Ġobser ve
da te
ĠI ndeed
Ġsu ffic
Ġcon jecture
Ġqu otient
Ġre duced
< _
}\ ,\
Ġ& &
Ġad j
l b
7 9
e ma
stack rel
c C
ian t
a a
Se ction
Ġ Definition
Ġ< .
] ^
c tic
8 9
sub subsection
ii i
Ġcur vature
en ess
Ġocc ur
ni ver
S L
M M
rop y
il d
ce il
cont inu
ti s
\ }_{
Ġ< =
ĠH amilton
ĠS ch
}) ^
Ġrela tive
te mp
Ġ$\ |
Ġ> .
plo t
cla ss
ĠN o
Ġob jects
O R
ĊĠĠĠĠĠĠĠĠĠĠĠĠ ĠĠĠ
ch ing
ategor ies
Ġal ready
ĠB ut
Ġsatisf ied
Ġte st
I S
ĊĊĊĊĊĊĊĊĊĊĊĊĊĊĊĊ ĊĊĊĊĊĊĊĊĊĊĊĊĊĊĊĊ
in s
or i
Ġdepend s
,.. .,
Ġdistin ct
}} ^
Ġbe fore
Ġ }{
| $
Ġ{ };
co de
Ġhigh er
Ġexpon ential
W R
Ġsupp orted
defin ed
ĠS ub
ĉĉ ĉĉ
l t
Ġrequ ire
â Ĥ
| =
Ġ&= &
ĠAs sume
di ag
r g
As sume
sy mme
Ġcy cle
] )
Ġtri angle
8 3
u se
Ġ eq
| }
;\ ;\
ĠH ilbert
valu ed
Ġ\ }
Ġderiv ative
Ġhom otopy
\ },
s ol
Ġco homology
f ol
plic ations
b r
B B
}{ {\
re qu
Ġ essential
cs name
Ġse veral
Re call
Ġsequ ences
Ġma pping
r um
Ġin clude
fig ura
7 2
M R
Ġmeasu res
Ġpair s
ĠF rom
re en
ng ent
Ġmin imum
Ġc a
ran ge
$\ {
Ġa belian
Ġe valu
se ct
T r
Ġdiffere nce
Ġre mark
Ġf undamental
varian ce
Ġanaly tic
Ġan s
Ġc ritical
Ġno tion
Ġdis joint
sh arp
Ġre con
A A
s l
our ce
forma nce
Ġde duce
Ġs l
ps ch
en tary
li ke
n um
ou rier
Ġquad ratic
Ġfunction al
C D
) ).
y ing
mo del
th ing
Ġnecess ary
is on
u c
: }
psch itz
' t
Ġ( (
Ġdesi red
Ġacc ording
Ġse en
Ġpla ne
ir d
un i
do wn
Ġ\ {\
ĠTh ese
bl ue
G iven
[ -
Ġgeomet ric
ot t
Ġorth ogonal
ĠRe mark
ĠE q
ĠE lement
4 1
Ġpro position
Ġc ard
Ġsuffic es
ĠN e
m its
ĠGaus sian
5 2
Ġin ner
la y
Ġdetail s
Ġne gative
ĠU sing
S P
6 2
seu do
lo t
Ġ1 1
{ (\
S M
i ma
Ġin ver
Ġmodu le
Ġla w
h t
Ġpa ra
d om
Ġl ines
Ġstudi ed
Ġdimension al
ten s
in ci
b il
stru ction
a v
f il
Ġmulti ple
Ġco inc
leq slant
Ġm ention
Ġtrans form
Ġvari ety
y si
' $.
H H
Ġd one
line width
Ġmulti plic
Ġappl ied
P r
i tions
WR ITE
S ch
inci ple
Ġin stead
}) ^{
wr ite
) *
Ġstrict ly
ix ed
O m
- $
au thor
ul er
Ġau thor
$ ),
Ġ _{\
rac tion
Ġrepresen tations
w ar
v dots
Ġcontain ing
Ġb asic
Ġeff ec
I M
Ġe mpty
ran k
Ġlat ter
) }$.
ĊĊĊĊ ĊĊ
) !
sub stack
Ġge odesi
st er
scri pt
Ġestabl ish
Ġrequi red
Ġ. =
sub figure
: :
Ġpha se
o ts
Ġbe comes
mple ctic
Ġ. <_
c u
Ġ label
Ġv otes
Ġscal ar
Ġ{ $\
Ġform al
var rho
f l
th ick
F irst
) |^
5 9
g u
Ġremain s
small skip
Ġex tended
] ;
Int ro
equ ently
ĠCon sider
RE PL
he ther
O ne
b d
Ġsymme try
cre asing
REPL Y
for ward
y m
Ġtrans formation
th is
} }$,
Ġcons ists
iz es
= =
Ġallow s
Ġ math
Ġcol lection
Ġstar t
ĠO ne
T IT
ĠHamilton ian
Ġderive d
Ġcom mon
ha n
Ġincre asing
Ġru le
L i
): =\
I m
e eq
C o
) )$.
D D
Ġ1 6
Ġconstru cted
Ġl ist
Q UE
Ġim pro
Ġtech ni
ic es
Ġdiscus sion
Ġ long
Ġin clusion
= (\
^{ +
u sion
Ġhom omorphism
e f
modu les
u d
Ġi ll
** **
Ġhom ogeneous
t w
Ġcommu tative
c O
s quare
Ġm uch
ĠA pp
Ġorigin al
pa city
Ġpr im
Ġs itu
bound ed
Ġapply ing
con dition
h ol
ar mon
^* _
Ġb o
Ġne ar
ĠU niver
)$ $
Ġnode s
Ġlo ok
u cl
tic le
ar g
Ġsub sets
Ġuse ful
Ġcent ral
Ġc ross
TIT LE
c H
form al
al ities
Ġusu al
Ġ\ ,\
Ġsuffici ent
Ġinter pre
ST ION
v otes
f r
QUE STION
Ġ begin
Ġgo od
Ġper formance
). $$
c F
k a
el se
omet ric
A N
par ison
Ġup votes
ust ra
Ġa g
Ġpres ented
o graph
Ċĉ Ċĉ
k ing
Ġstra te
! \
Ġhol omorphic
Ġper iodic
d r
ran g
Ġcon figura
ois son
Ġellip tic
hi le
ĠC ar
Ġma rk
Ġprovide d
Ġhyper bolic
\ }}
Ġcon text
Ġt r
min i
ĠF urthermore
Ġneighbor hood
Ġdirect ly
f ect
* \
tri angle
Ġob vious
Ġw hether
Ġe t
sta te
8 2
M S
Ġman ifolds
te in
Ġ| `
Ġf lat
b its
ot ent
sta ble
G r
Ġaddition al
' )$
da p
com mu
a h
ula tion
ĠF irst
Ġw ave
. \\
] ^{
big oplus
Ġsto chastic
tur b
Ġ1 4
Ġ$ [\
if ication
la st
Ġ. \/
Ġ1 3
Ġ1 5
Ġv olume
] =
d v
comple x
en ote
Ġstru ctures
}} ^{\
s tep
t u
Ġpar ts
Ġproce du
Ġhypo thesis
N ext
}$ }
end s
um ents
ĠW hen
Ġre cur
con v
Ġval id
Ġdynam ics
pro b
Ġas s
gorith ms
ap p
ĠF inally
le f
h bar
}) =\
}) _{
b p
Ġin ves
er mi
M o
z z
\! \
rela x
the re
$\ \
Ġmom ent
= .
Ġsu i
De f
Ġinterest ing
Ġf o
Ġgeomet ry
Ġclassi f
Ġoptim ization
Ġg row
te red
Ġad mits
& &\
_{ -\
duc ts
O b
or iz
Ġd u
de red
Ġeigenvalu e
ĠC h
Ġnon linear
Ġre cent
gener al
pha nt
Ġstra ight
Ġcoeffici ent
ĠMa the
ener ate
l m
Ġc ou
Ġden se
ore l
matic s
Ġgra dient
xy matrix
^{ [
c ategory
Ġon to
Ġspect rum
ce ll
12 5
O ur
Ġin duces
Ġs pan
ĠĠĠĠĠĠĠĠ ĠĠ
big skip
~~ ~~
a tives
Ġcon tribu
v iew
armon ic
mis sible
Ġre ce
Ġother wise
Ġsy l
Ġha ving
Ġgener ic
reg ular
C M
c er
Ġname ly
Ġph ysi
Ġex pla
b ly
end ix
th ough
o ve
Ġlead s
Ġâ Ī
Ġac ts
}. $$
Ġ) ,
" ,
ar iant
Ġd ouble
red ic
qu es
Ċĉĉĉ ĉ
inc ip
( {
me asu
Ġor bit
Ġ\ },
Ġde sign
a co
Ġabs olu
Ġent ries
per im
O F
ak ing
l ist
Ġuni versal
Ġb ran
on s
under set
c L
Ġc u
tion ary
Ġfactor s
fin ity
, .
c les
_{ +
over set
Ġ\| _{
Ġh alf
ges t
Ġcom position
h fill
S pec
Ġd t
' $,
Ġpr inciple
spec ial
ap la
Ġg en
): =
Ġinves ti
man ifold
Ġran ge
Ġhow ever
compa ct
_{ {\
c M
Ġaver age
W hen
Ġdefin es
Ġill ustra
S O
l s
C P
Intro duction
ĠG iven
Ġdefin itions
w ay
Ġcompu ted
' (\
for ms
Ġcol or
cy cle
i me
S I
Ġsh ort
sta nd
con ver
mini page
Ġsol ve
cc cc
( |
ch y
Ġimp ly
Th m
$. }
of f
p or
) )=
ĊĠĠĠĠĠĠĠĠĠĠĠĠ Ġ
Ġmon ot
Ġradi us
ran te
Ġth ick
Ġcon e
Ġsu c
incip al
. (
ari ly
Ġarg uments
i la
Ġas ser
Ġno ise
Ġprovide s
Ġe mp
W ith
$ (\
mul tic
Ġtur n
ua rante
} >
yste m
Ġdepend ing
Ġste ps
C h
C O
) }$,
forma tions
Ġsta bility
is ed
Big l
iz er
Ġw ant
Ġpro ves
ĠE qu
Ġco st
make title
che d
A ut
Ġap plications
c S
) }^
ĠL ag
+ |
ĠF in
Ġta ble
Ġdescri ption
th ors
ch or
Ġb u
Ġdifferen ti
Ġcl ust
display math
Ġta ngent
im pl
$ }}
da sh
ĠF ourier
y pe
Ġap plication
, (
v v
Ġsa id
o in
c ts
au chy
Ġal gorithms
Big r
s m
ĊĠ Ċ
is ted
, )
Ġpath s
) <
m ine
f lo
Ġa round
Ġgra ded
ol umn
Ġprocedu re
for med
ucl ide
] _
L o
Ġvari ation
Ġstrong ly
9 1
uclide an
je ctor
resul t
par se
/ )
e ff
ho ok
rac ket
Ġsy mplectic
xi om
Ġresul ting
Ġmodu les
Ġse p
s ha
] ^{\
b c
Ġth ird
Ġ: :
Ġbehavi or
Ġan gle
A pp
cla im
Ġide a
lear ly
y l
O p
Ġsur faces
Ġk ey
con vex
A d
Ġwith in
i bra
) ),
b v
Ġfib er
Ġlar ger
tin y
C L
an ach
fol ding
Ġ( /)
Ġtra ce
U n
Ġans wer
&= &\
Ġinequ alities
T T
Ġin jective
symme tric
, $$
\ @
co ordinate
EE E
phant om
ke y
}} )
Ġconstra ints
Ġrepres ent
ĠUniver sity
Ġro ots
c ri
Ġsui table
Ġcol umn
Ġre duction
Ġp at
$ '
Ġcomplex ity
Ġdiff ic
Ġvari ous
C A
qu eness
i tive
ha s
Ġ\ }$
Ġâ Ĩ
orm al
multic olumn
Ġgenerator s
Ġit self
Ġg uarante
Ġe ffici
prop ri
Ġ1 9
}( -
] _{
Ġass ms
H owever
Ġderiv atives
m il
p ter
E nd
ig roup
i ds
led ge
ser ve
scri pts
] [
Ġimmediate ly
po ints
u til
v skip
clu ding
it ing
propri ate
s ince
ra ph
ran t
p f
in ner
g m
Ġla ter
I d
}} =
se l
con nected
ab ove
). $
Ġev ent
Ġn or
ter na
ous ly
}} }\
Ġnon zero
Ġc ategories
ite d
pro per
Ġr un
Ġtri ang
b erg
k i
Ġp ut
Ġf lu
}} _{\
@ {
Ġbelong s
)} =
Ġin put
algebra s
Ġsmall er
ti o
Ġdistribu tions
equ ival
T R
}. $
Ġp seudo
Ġsche mes
^* (\
6 1
Ġposi tion
Ġmulti plication
la ted
M od
g ment
B e
ĠW ith
us h
f ont
Ġ| |
Ġdivis or
* (
.. .
Ġclo sure
Ġsection s
Ġconstra int
we ak
s eq
Ġf requ
un it
ĠO ur
ĠRe call
Ġa x
g ation
8 1
Ġp ur
j k
Ġproof s
Ġtak en
Ġgener ality
Ġma ss
' }\
Ġgeodesi c
ĠP oisson
Ġcy clic
Ġre si
Ġent ropy
Ġl iter
valu e
Ġsitu ation
x rightarrow
ĠS et
f g
Ġtak es
la m
sc he
_{ |
var i
ĠAl so
cho ose
Ġframe work
Ġra ther
M A
5 1
Ġd s
' )\
de s
' ,\
Ġ ti
_{ {
Ġf ul
;\ ;
v ance
Ġmorph isms
be low
s mooth
Ġhom ology
Ġor d
Ġconven i
our se
ĠLi pschitz
Ġp lan
Ġdeter mine
m er
B C
Ġli ft
7 1
ĠMar kov
ĠM ore
}^ +
s hift
Ex t
Ġd raw
Ġnecess arily
Ġtyp es
b en
ĠEx ample
), (
c E
in put
Ġlo c
I nd
sk i
ĠPro of
ollow ing
Ġun folding
20 13
v an
wh ite
clo sed
I C
Ġver ify
Ġg reat
Ġassum es
f p
Ġregular ity
Ġsu g
Ġau thors
C al
re pres
Ġgener ating
= -\
e ded
Ġap propriate
Ġre mo
Ġh oriz
P S
ce pt
nu mber
v able
D ec
ne g
Ġstar ting
rang ian
Ġcur rent
l ie
Ġof f
c en
Ġvar ian
Ġp redic
Ġassume d
pgf util
varian ts
b t
od y
Ġs pe
c n
bound s
Ġweigh ts
s ch
ĠE uler
N e
nd s
Big g
Ġexpec ted
R es
il ib
ar ith
ter m
Ġdiscus sed
in al
Ġdiscus s
g s
posi te
Ġprocess es
Ġunder stand
f alse
f old
^{ *}
function s
Ġstrate gy
Ġmeasu rable
Ġrec tangle
Ġ\ /
sub sec
pro duct
c D
Ġp ure
X X
o du
Ġin finity
ĊĊ ĠĠĠ
Ġm ight
Ġper turb
Ġ( $\
se p
UN CT
ilib ri
Ġfa ce
d z
Ġsign al
Ġle ar
Ġar c
Ġwork s
V ar
t x
Ġ ho
Ġpro ducts
_{ (\
con s
al k
20 14
pa ir
Ġ1 8
continu ous
C orollary
be t
Ġma de
Ġre write
cc ording
~ (\
ograph y
c P
p ort
Ġw ord
posi tions
-------- --------
D P
E S
Ġpermu tation
Ġexplicit ly
Ġinde ed
Ġ{ }
' =
$ {\
Ġshe af
res h
it t
Ġdimension s
C ref
tri ang
Ġc ourse
Ġv is
ĊĊĊĊ ĊĊĊ
P a
ĠI N
ne xt
omet ry
Ġcomplete ly
flo at
di tive
di am
G G
Ġpla ce
es tima
script size
tens or
Ġr ig
he ight
is o
Ġaut omorphism
Ġweak ly
Ġsimilar ly
Ġex perim
ĠP o
Ġtri ple
math op
Ġmon oid
}} ,\
Ġfo cus
Ġam ong
Ġstraight forward
Ġtor us
H S
f un
Ġc r
Ġread er
)\ |_{
Ġsp here
is ing
ph er
Ġuni tary
di re
Ġ1 7
' }$
Ġpla y
ĠB orel
}) (
}\ }$
iz ations
Ġliter ature
row n
Ġter min
20 18
n at
Ġma kes
Pro p
Ġs cale
Ġpar allel
Ġmore over
ĠL apla
Ġl ies
si mple
Ġwhen ever
U psilon
pro j
20 19
ie ties
c B
E qu
Ġ )$
f irst
Ġrepresen ted
Ġinver tible
ar ies
Ġas sign
Ġdo wn
Ġsp in
Ġmention ed
der iv
text up
Ġ }}
ad ic
20 15
S ub
Ġact ually
re c
ver tex
ser v
hy per
Ġdom in
ĠB anach
Ġinter ior
ti an
pla ne
20 16
al gorithm
Ġth ough
ter s
Ġcon clusion
Ġne eded
\ %
ĠĊ ĠĠ
Ġpr incipal
Ġs ource
I EEE
ti le
C ha
gra ms
C F
Ġclust er
ĠO b
Ġ$\ |\
L S
Ġelem entary
Â Ł
v p
Ġre pe
m ic
)\ ,\
f ield
Ġh ome
B ox
Ġgen us
ĠG al
Ġunder lying
Ġof ten
^ *}
Ġcontinu ity
k in
here nt
s equently
ĠRiemann ian
le y
Ġcommu n
cite p
R S
* }\
S h
i ble
Ġobserv ation
} <
base d
Ġclear ly
= >
Ġ }$
k l
Ġrec over
( (\
12 0
Ġf ar
make box
Ġg au
f lat
Ġconsider ing
Ġspec ific
Ġprob ab
l en
de c
g n
Ġfin al
re ly
ul us
id ing
Ġcent er
Ġsur jective
> =
c ial
}) -
18 0
duc ing
li b
Ġformula s
text tt
> "
Ġhe lp
] }\
Ġdefin ing
20 17
ĠTh at
put ing
bib li
ĠS imilarly
Ġiter ation
) )$,
Ġif f
Ċĉĉ Ċĉ
ott om
Ġon es
l us
Ġfa mil
Ġs pa
g lobal
Ġa ble
Ġf rac
qu a
E Q
lef tarrow
ĠC auchy
1 10
cal led
}) )
tar get
Ġre st
){ $
}\ |_{
Ex ample
Ġremain ing
Ġh is
20 10
q q
Ġe l
},\ \
Ġ ^{\
Ġrequi res
C S
Ġsta ted
Ġapproxima te
Ġa dap
lev ant
pro blem
c G
A nd
}( {\
b R
Ġmo tiv
Ġcon f
alle st
^+ $
Ġp rac
op f
Ġformula tion
Ġbet ter
Ġproce ed
F ix
ont al
i us
Ġad missible
I V
Ġbe st
bre ak
) --
Ġpa rame
var pi
up le
mis sion
Ġlo op
small matrix
sy m
b ut
ve ct
Ġg a
Ġ\ )
Ġcar rier
Ġhe ight
ĠDe fine
stru cture
Ġ !
ĠĠĠĠĠĠĠĠ ĠĠĠ
Ġtrans mit
f e
Ġad joint
sa tisf
Ġs m
Ġcover ing
p d
Ġoper ation
ta ge
Ġmo tion
Ġequ als
S imilarly
left rightarrow
for mula
Ġ },
ĠT able
Ġsl ight
Ġexpres sed
ĠApp endix
ĠÎ ±
au x
ad joint
ĠE uclidean
) _\
un iform
Ġconfigura tion
o sing
_{\ {
Ġidentif y
in ing
I D
s cal
Ġus es
K K
pm od
low er
th an
I P
l ue
Ġl en
Ġcomple tes
}\ |\
Ġsta tionary
) /\
Ġdistribu ted
ar c
ke ys
bibli ography
the o
hook rightarrow
a cent
h alf
ste in
m n
is ation
l ing
Ġper fect
Ġro le
Ġbund les
L T
B S
l brace
u u
Ġcr iter
gra d
Q Q
Ġgau ge
L ie
g ing
il i
Ġ" (
Ġtransi tion
new theorem
b ot
op tim
ulari ties
Ġintegra tion
ĠC la
hi p
n ed
Ġdis cre
] \\
ĠM o
Ġd iver
, {\
ad vance
Ġan ti
pa rameter
P o
diff eren
Ġsub section
Ġsubgroup s
g ray
g ent
Ġcorre ct
Ġessential ly
an al
Ġ }{\
Ġcom parison
Ġc ut
p th
an chor
} ]\
r s
F urthermore
Ġre se
Ġf ill
re t
ĠLag rangian
tur ns
t ors
Ġuni queness
v ol
$- -
an y
def ine
SE Q
Q u
20 20
} /\
U M
Ġinte res
Ġare a
=- =-
w ers
Ġtra jector
}= (
ta ct
Ġx s
20 12
Ġcode s
Ġp ull
Ġsol ving
Ġestima tion
| }{
Ġ-- >
t ran
Ġis o
g end
Ġequ ilibri
Ġweigh ted
Ġth ink
Ġdiff e
Re mark
Ġreplace d
impl ies
Ġanalog ous
{ .
Ġb inary
Ġrecon sider
v s
- .
ir ich
Ġsign ific
p c
ra di
ĠAl gorithm
c X
sta nt
ĠMathe matics
A P
) )}
chan ge
o pe
F T
n or
ĊĠĠ ĊĠ
s es
Ġu l
coun ter
va ila
irich let
Ġexce pt
F C
Ġde al
ed u
op t
c ar
Ġo u
Ġref erence
A t
il p
Ġs hift
Ġcombin ator
he ad
Ġequ ip
w ords
d or
}^{ (\
h d
ec ause
Ġar row
Ġsm allest
. \]
Ġconsist ing
ĊĠĠĠĠĠĠĠĠ ĠĠ
Ġen ti
Ġeffec tive
Ġm y
Ġside s
da ta
on ic
c ount
ermi tian
Ġappear s
Ġfa il
Ġsimplic ial
Ġvanish es
a ff
t z
Ġgener ally
T H
Ġgeneral ization
I R
te st
)) ^
footnote size
lim sup
Ġinde pend
Ġmodu li
Ġin side
su be
)} ,\
ra tional
Ġex plo
u mp
new line
r brace
end ing
), $
par r
ur ing
}, $
Ġbi jection
ri ly
Ġrestric ted
eq q
eren ces
g round
Ġcoun table
lar ge
Ġw a
ap ply
Ġev olution
Ġacc ount
Th ese
Ġphysi cal
cent ra
Ġor dered
} ~
O r
l or
00 1
down arrow
do main
Ġsem igroup
Ġfe w
}. \
O M
Ġla y
Ġinteres ted
P E
Ġnetwork s
big cap
Ġgo al
Ġintegra ble
deg enerate
Ġmo ve
war ds
}) ^{\
Ġindic es
ist ence
}} =\
t rac
t ree
Ġp lot
Ġobser ved
bo lev
M at
Ġtechni ques
ĠJ aco
Ġmax im
SE T
Ġsug ges
}) }\
ĠRE WRITE
& -
pl ing
lim in
mpl ing
ĠI I
ra m
Ġthe ore
De fine
con st
C ON
ck now
er m
Ġrepres ents
Ġdevelo ped
di a
Ġacc u
Ġpro ving
N R
Ġestabl ished
Ġtech n
Ġnon negative
qu ations
p y
Ġsta bil
Ġtor sion
pla cing
Ġno tice
ps line
Ġcon formal
Ġmon omial
Ġ velo
Ġto o
ter min
us ing
} ]$
ima ge
Ġsee ms
S u
sube quations
um ns
ti stic
p q
Ġextend s
Ġb low
ĠSe e
ĊĠĠĠĠ ĊĠĠĠ
ĠA t
Ġcalcula tion
par allel
@ \
{ |\
Ġmodu lo
Ġde f
Ġscal ing
ter nal
pa ren
20 11
c over
ra d
Ġte mp
Ġver tical
ap pend
w w
Ċĉĉĉ ĉĉ
vaila ble
Ġin variants
' }(
Ġcombin ation
p lan
ula tions
la nd
Ġn ull
C ase
ir t
su cc
Ġal terna
Ġdec ay
the ory
Ġy ield
tra tion
Ġvarian ce
re p
Ġor bits
ar ge
Ġdu ality
bu st
mon stra
Ġidentif ied
ide d
S ee
ting u
ore d
con j
ĠA SM
Ġon ce
)) )
Ġ$ -\
b lock
d g
Ġdis tingu
Ġunique ly
bin ing
}}\ \
end csname
Ġlinear ly
Ġpa ck
)} =\
ti tions
ve red
ĠS ci
ĠU n
Ġintegral s
C or
Ġa v
Ġmath ema
ĠS U
Ġg ap
Ġnatur ally
Ġc ap
)) "
duc tive
under brace
Ġp s
] _{\
_* \
Ġcor ollary
sur face
V V
Ġus er
es h
}& &\
@ {-
Ġcorrespond ence
D F
s n
Ġf ig
Ġcompa tible
c ro
S ym
od ic
Ġspa tial
> >
Ġsing ularities
dor ff
om in
Ġnon trivial
en c
}: =\
Ġgrow th
add ress
r ceil
C E
Ġvar ieties
Ġb ox
al ance
S A
e ar
)} _{\
Ġbran ch
Ġe ar
colon eqq
c nt
Ġcoinc ides
Ġshow ed
r p
ol i
| ^{\
no teq
ĠH a
r n
Ġori ented
pher ical
ĠF unction
Ġde sc
Ġtheorem s
Ġ( ,)
re ed
â Ł
| }\
Ġsu ms
Ġb ig
Ġoper ations
pgf keys
ĠC o
Ġimp lem
+ }
para graph
i led
I ndeed
Ġextension s
Ġdevelo p
s pect
IN SEQ
bo ok
inte gral
fa ctor
S t
Ġfin ally
is es
L em
geq slant
| -
Ġrese arch
Ġhoriz ontal
str ong
Ġsignific ant
h n
Ġsplit ting
l ceil
Ġout put
Ġtrans formations
ĠB e
}) ^{-
b und
lin es
Ġg rid
[ ->
m r
^* ,
ur al
gh t
Ġha pp
s ystem
)$ ;
ibra tion
Ġcom es
}: \
Ġper form
Ġar ticle
Ġde monstra
s w
Ġadj acent
Ġqu ite
Ġconju gate
}\ ;
c ian
} |^
Ġcont rac
Ġto ol
Ġres olution
Ġprobab il
Ġh armonic
Ġpara bolic
S tr
Ġt rac
d le
' -
Ġlim its
M e
P R
Ġre levant
sc ope
Ġestima tor
en sure
}{ #
Ġcontrol s
OO LE
ĠC ase
rou po
Ġ ĊĠĠĠĠĠ
Ġcomple ment
Ġde v
Ġ` '
" ;
ar io
Ġq ed
part ment
r gin
{ [
pi es
ha ve
Ġwho le
ĠT op
)} ]
itu de
}} +
aus dorff
Ġs w
posi tive
Ġdynam ical
comple te
12 3
im its
be sg
\, .
c T
re stric
Ġeff ect
Ġcomputation al
Ġtrans mission
A G
tribu ted
Ġide als
B ut
Ġc ount
Ġabsolu te
. },
besg ue
u v
}$ )
Ġcy cles
id ent
Ġa vailable
Ġdeg rees
O f
ke w
Ġ2 4
qua res
S tate
6 25
) &
if ically
olu tions
R o
cy clic
l r
a ke
Ġcol umns
cor respon
Ġsha pe
n c
me an
ase d
^+ (
D is
Ġcom puting
du e
ul ti
),\ \
_* (
Ġra tio
deg ree
var iable
Ġtur ns
w ell
res pectively
Ġinter action
g an
Ġcard in
Ġlar gest
Ġa im
Ġk ind
Ġimpro ve
Ġinterval s
\' {
= {\
w ord
Ġembed ded
Ġ2 2
, ]
Ġfunctor s
Ġfamil ies
Ġpreser ves
Ġinter po
rac y
b er
ĠâĨ Ĵ
sc il
titu te
m orph
T M
> )
Ġclassif ication
)\ |
}} +\
sq cup
Ġre duce
sf er
ut ure
sing ular
Ġ) \
Ġvanish ing
A M
Ġper iod
l ic
pa ck
ive d
Ġde te
p es
Ġ( {\
33 33
cha racter
Ġde creasing
! }
v x
b C
y a
Ġblock s
)$ }
Ġ ĊĊĊ
ct ing
so ci
Ġequip ped
s hed
Ġde formation
) ^*
( *
ad ing
mb f
Ġasser tion
Ġj oint
u mann
Ġt rees
Ġel se
ĠAs sumption
A S
Ġdifferenti able
rm k
ro pic
B G
â Ģ
id en
s paces
l vert
ilp otent
Ġsimplic ity
ĠD enote
Ā Ā
ensure math
bigg l
Ġori entation
No tice
D S
c p
k o
om ic
erg odic
Ġequilibri um
Ġin s
t ot
h skip
Ġconver ge
] }$
le x
de scri
Ġre view
im ple
S ec
_+ $
Ġ2 3
|\ ,
Ġin cluding
Ġl ie
Ġgreat er
me tic
h s
c ard
bigg r
) <\
ĠRE AL
Ġvelo city
tur n
Ġcon tact
Ġ\ :
Ġr ings
P ar
Ġdetermin ant
lim it
Ġb ra
ema il
Ġca pacity
Ġmodu lar
ĠQ u
Ġa xiom
Ġ2 1
Ġshow ing
Ġfa st
f erence
Ġsub graph
tikz cd
Ġob jective
ĠEqu ation
Ġj ump
c N
j or
Ġslight ly
Ġdiffic ult
ro ben
la p
per iodic
do w
Ġlead ing
Ġfrac tional
Ġh ard
B OOLE
ll i
ĠH e
at ures
Ġdomain s
Ġme chan
B ound
text normal
Ġme m
ie ce
Ġm is
re v
Ġj oin
po wer
Ġat ta
\, ,
le vel
Ġ2 5
la tions
p ng
radi us
Ġmathema tical
Ġemp lo
Ġnormal ized
\| _\
ĠD irichlet
roben ius
scripts tyle
}_{ (
is k
cen ario
Ġcompa re
) ]{
id ence
l ra
Ġt reat
Ġb it
i rac
tain ed
Ġpartic le
Ġp olic
)$ )
Ġcombinator ial
){ $\
Ġax is
Ġcon v
bra kk
Ġequival ently
Ġ ~\
p en
Ġimpl ic
ri ef
Ġexpec tation
G al
Ġp i
er ing
D M
up per
= [
in eq
Ġlear ning
Ġo mit
Ġdia grams
Ġcompa red
ĠA ll
Ġ\\ [
im odu
}; \
Ġ3 0
r vert
Ġcomplex es
Ġv ol
Ġ target
}) ,\
Ġmultiplic ity
Ġprim itive
Ġdiscre ti
o per
) `
Ġexpon ent
Ġre duces
Ġsubs equence
}_ +
r b
200 9
Ġsymbol s
bound ary
ĠS tep
f ile
ĠH om
Ġgo es
cite t
Ġre d
D iff
d l
Ġm esh
ĠI s
Ġfin ding
Ġlog arith
Ġfrequ ency
Ġcondition al
b asis
ĠH opf
tr ue
Ġequ iv
C at
Ġno tations
Ġinter sect
itt le
Ġout side
Ġp iece
S um
le cted
ti te
RE WRITE
Ġexpression s
mm ing
66 66
Ġad ditive
Ġra tes
a ult
S tep
^* $-
Ġar ri
h u
Ġd ig
b X
t l
wh en
la g
N S
Ġrow s
a ra
}\ !
g ne
G R
be s
Ġdire cted
com pon
def i
Ġs ec
su per
10 5
r c
f s
Ġful ly
ut ing
atur al
Ġ ĊĠĠĠĠĠĠĠ
L P
commu tative
**** ****
Ġmo de
c R
com ment
Ġp as
ĠThe y
ker nel
Â ĺ
Ġreg ar
rown ian
r times
Ġshe aves
H e
}^{ +
Ġcon cept
Ġâ Ł
Ġmetric s
Ġb last
Ġcharacter ization
C ol
Ġstate ments
Ġcon centra
Ġc od
Ġâ ī
equ ality
ta iled
Ġcalcula te
Ġaction s
M ar
our nal
Ġdis k
Ġre l
g t
Ġapproach es
b Z
)^{ -\
l ink
cc c
pres er
Ġfil tration
)+ (
}. }
cur ve
Ġas soci
b k
/ /
equiv ariant
Ġdepend ence
Ġp ref
ĊĠ ĊĠ
s he
Ġquanti ty
re newcommand
\\ \
text color
Ġcho ices
E D
ĠGal ois
tif ication
Ġ lan
Ġ| ^
' "
b racket
Ġoccur s
as h
v eq
P re
ĠC ha
b P
ad j
g ments
Ġgener ate
b w
Ġinfinite ly
Ġtechn ical
$& $\{
et er
v ir
Ġk not
O U
^* $.
b A
res sion
I s
B M
C la
Ġb and
Ma in
err ors
y n
Ġv irt
1 12
se m
Ġcriter ion
pgfmath float
Ġbo ok
[ ]
)\ <
ĠN AT
Âİ Âİ
ĊĠĠĠĠĠĠĠĠĠĠĠĠ ĠĠĠĠĠĠĠ
ĠLe besgue
verse ly
Ġreg ulari
\" {
Le ft
Ġgo ing
Ġ= =>
Ġre placing
Ġ\}, $&$\{
sive ly
Ġro tation
| ,
for ce
Ġ[ ,]
om en
ub ic
en tations
Ġar ith
Ġact ing
Ġassum ing
}$ ;
+ |\
in ted
Ġ( .
G S
}}\ ,
}: =
Ġin div
Ġb rief
me tric
Ġs cenario
Ġ$ =
ĊĠĠ ĊĠĠ
^* _{
qu asi
Ġdiff usion
Ġ }(
b z
Ġ{ {\
serv ation
p tional
ĠN at
C R
}} {(
Ġcontribu tion
& +
ot ropic
measu re
\!\! \!\!
mm er
}) +
g iven
ma ry
15 0
ro ot
C l
Ġc re
}} -
| $.
rg b
s how
ee p
Ġalterna tive
con stant
Ġincre ases
Ġis su
m k
Ġwh y
) }^{
j i
at ch
E X
Ġprim es
as sumption
non e
ex act
Ġtrans lation
B F
or ies
M ore
ter ing
)} }\
] ,\
~ (
)( -
ĠH L
Ġmulti pl
Ġse mis
)) =\
Ġthan k
lo op
Ġse gment
li er
s ome
Ġsta ck
Ġsubs paces
Ġrela tively
\ -
asi ble
Ġd i
Ġsol ved
Ġappl ies
Ġcompu tations
H a
Ġindiv i
inte gra
Ġsub ject
Ġmonot one
rt ing
ou rho
}$ };
re nce
Ġco variance
turns tile
gu age
b n
Fig ure
Ġsingular ity
Ġchan ges
Ġzero s
M ap
E C
Ġc of
ĠF ix
), $$
es ub
pos able
^{- (
Ġ$ )
Ġad mit
Ġcoinc ide
f ull
13 5
ha m
ĠR o
Al so
c K
D enote
âŁ ©
b sub
Ġsub algebra
'' (
> (
resh old
d al
V er
Ġpar titions
Ġc f
Ġst re
| <
Ġo scil
Ġcho osing
su res
ot ing
Ġ3 2
Ġg ame
Ġneed s
Ma th
Ġb lue
de cor
Ġdefin ite
man ifolds
Ġmean ing
| (
un ion
e very
de com
m d
me diate
Ġc ru
Ġusu ally
ĠC learly
a ut
for d
sin h
la re
b all
Ġw or
lim inf
ĠNo tice
A p
200 8
re me
tab ly
ĠL a
inc ar
ation al
ĠNe w
Ġpro ven
ĠM e
g def
t d
' .
ĠY ou
it ch
00 3
cha in
Ġref lection
Ġe lect
Ġpres entation
se cond
Ġcommun ication
on ormal
if ts
ĠH ausdorff
Ġaccu racy
ĠTheorem s
Ġ ergodic
,\ ;
Ġd ri
Ġis omorphisms
ĠA nd
Ġr ng
' +
)}\ \
}} )$
Ã ©
if x
Ġp ass
Ġspe ed
Ġimp o
Ġr ise
Ġcon cer
x a
Ġfig ure
Ġtechni que
Ġou ter
la b
). \
Ġiter ations
Ġext ra
Ġpartic les
Ġref erences
ĠSo bolev
âĤ Ĥ
Ġcou ple
Ġde cre
p mb
prec eq
Ġconsist ent
Dec lare
S i
'' ,
pp ed
a cc
T HEN
Ġad ding
Ġbec ome
[ [
_ _
com pu
texts tyle
conver gence
o c
Ġmonoid al
se para
] ^-
f low
Ġrig id
S C
no ther
ah ler
ĠM AT
Ġsa mpling
Ġf uture
se mb
hom ogeneous
Ġpat tern
on ly
co sh
e igen
s olution
)- (
tro l
Ġeigen vector
^* )
-- -
pgfmath result
ĠR ic
C ar
par tite
}} }}
Ġcardin ality
A r
cla ssi
Ġb lack
Ġcou pling
u psilon
E d
Pro b
texts c
ĠS ome
p g
Ġse arch
com m
Ġcell s
,- .
s pan
B o
Ġinvol ving
âĤ ģ
Ġ* )
r put
O T
le xi
F E
Ġfor ce
O L
Ġw alk
e ther
Ġav oid
Ġwa ys
Ġus ers
Ġknow ledge
te m
\ },\
Ġmod ified
ĠT ype
h h
x b
ns tein
E s
, +
Ġsepara ble
c ross
Âį Âĳ
E CT
Ġm ixed
A ll
Ġle aves
} <\
ĠE ach
P er
a i
ho ose
auto ref
S uc
tistic s
ener al
poly nomial
ĠE E
Ġ.. ^
Ġpur pose
ra te
s ig
ĠB rownian
Ġbu il
Ġstr ing
s ys
Ġconju ga
Ġde tailed
G e
ĠWe yl
Ġparame tri
c b
Ġrela x
Ġ errors
Ġcon g
}\ ]
Ġm ix
Ġintro duction
sche me
Ġsa ys
o ps
O S
ith ful
Ġ[ -
B A
Ġg round
Ġperturb ation
than ks
Ġd uring
` `
up arrow
B P
IN T
Ġcoun ter
f m
ma il
e lem
ad s
12 8
g re
la te
w hile
let on
pro cess
def ault
ker n
Ġachie ve
Ġin c
Ġex pand
l Vert
ps fra
thes es
Ġsuc ces
Ġexpla in
$& $
optim al
}) :
Ġconveni ent
(\ <
Ġ1 00
}- -\
Ġref ine
M C
D u
Ġ{ {
\\ [
lta ne
Ġsample s
Ġn ilpotent
bund le
mu m
lin der
me m
}{ $
m om
da shed
differen tial
Al g
gne tic
Ġtr unc
ĠLapla cian
Ob serve
^* $,
10 1
ĠR es
Ġord inary
Ġm ess
Ġex pect
Ġquanti ties
Ġwhere as
Ġ2 7
Ġrestric t
ra ndom
Ġd on
e ven
ay lor
ĠCon sequently
Ġasympto tically
e ts
'' $
al so
col umn
Ġas k
Ġrecent ly
U nder
ta c
be c
\ ).
ĠS uch
d if
ĠP a
Ġinterpre tation
v ent
me tis
Ġad van
A D
Ġachie ved
[ {\
s equence
Ġnon empty
Ġmat ching
AT E
} "
g ies
h ence
@ @
Ġcontra st
ĊĠĠĠĠĠĠĠĠĠĠĠĠ ĠĠĠĠĠ
( |\
tit uting
ar se
t p
ir r
Ġobserv ations
Ġfa cts
Ġderiv ation
cur rent
ĠB S
fa ct
ĠNe umann
h igh
p ri
e ch
ĠPro blem
add plot
g p
od ge
}=\ {
Ġt ry
in stein
u k
ec k
pos es
es tions
, ~
Ġb re
ĠSub set
co der
ĠC al
estima te
Ġconver gent
K er
0000 0
Ġ\ #
f n
]] .
Ġregion s
c ore
}} }{
g on
er re
ple x
Ġs lo
Ġplan ar
Ġmultiplic ative
200 6
ll ing
}) }{
Ġbi linear
simp s
dots c
200 7
con e
Ġ Ċĉĉ
Ġpro pa
tis tical
Ġtheore tical
Ġinvesti gate
rac k
Ġg roupo
to pe
Ġ+ (
s ma
D G
ir ical
Ġanalog ue
be a
Ġenti re
200 0
Ġcru cial
Ġk eep
Ġp ic
og en
on ger
14 0
tra ce
_{ |\
p n
ili ary
te sian
umer ical
Ġy our
] =\
Ġarith metic
)$ :
le an
ĠMa th
G raph
Ġs quares
]{ $
Ġdetermin istic
Ġend ow
Â ĸ
math ds
# #
Ġp ick
Ġs pherical
g reen
Ġa way
Ġarbitra rily
p b
^ +\
Ġidenti ties
al most
S K
Ġ( -\
B E
equ ences
}} )\
d dots
ssi ble
Ġsumma ri
Ġ ~~
Ġequiv ariant
Ġcod imension
Ġf ibration
ĠM or
II I
Ġeffici ent
) &=
Ġpo wers
ord an
Ġfactor ization
^+ _
Ġm id
or n
Ġru les
b asic
00 7
ourho od
sup set
Ġent ry
il le
Ġ2 6
: $
, }
r ite
add le
ol der
appro xima
Ġlo cus
& $
I ST
stru ct
Ġorth onormal
(\ {
r Vert
f unctor
Ġ2 8
' _{\
ser t
ng ing
ĠG e
Ġprojection s
vir on
Ġi d
}\ )
od d
pu ts
Ġ lon
Ġro bust
R a
Ġtw isted
Ġp e
Ġcong ru
Ġlan guage
pro vide
Ġima ges
mon o
Ġen sure
Ġ& =\
b ro
Ġorder ing
)= -
O perator
Ġtran sfer
&& &&
P ic
ri ed
ext ension
})\ \
Ġu til
other wise
as socia
r ig
Re al
Ġthe ories
ympto tic
Ġtw ist
at er
Ġpolic y
F S
diag onal
Ġsymme tri
L ine
| ^{-
ĠD irac
Ġsim ulation
f ixed
if ted
M U
Ġtot ally
triang leq
be led
diam ond
Ġres pec
ou th
Ġre ach
mo ve
n ol
Ġcommu ta
Ġview ed
Ġres ol
' m
b ing
Ġcommu tes
, -\
Ġ$( -
x s
Ġpartial ly
11 5
Ġgiv ing
o dot
en omen
tribu tion
{( -
)} +\
Ġc en
Ġemplo y
\ _
K L
Ġ3 5
)}{ (
gra ded
pack age
Ġ- --
ĠF robenius
Ġc us
Ġv ary
Ġun known
Ġconver se
Ġdetermin es
Ġma king
inter val
Ġâ Ħ
)\ )
psfra g
w hat
)} +
v t
re lation
ame ly
Ġqu estions
li ft
Com bining
Ġs cat
en table
se mi
Ġfor ward
ĠN ext
Ġpair wise
Ġimplic it
u ltane
Ġp en
rting ale
or ts
dire ct
> ,
Ġ< \
k y
Ġpro pose
D R
Ġau x
y tic
. }\
the ore
Ġ 60
ter ial
C learly
if ies
Ġpull back
con stra
- |
Ġ| _
Ġco herent
g cd
str ing
Ġpri or
Ġb ottom
Ġexperim ents
Ġide as
Ġ[ ]
Ġsy n
Ġcom e
Ġexpla ined
Ġcorre lation
ĠO r
Ġco pies
$ }\
Ġpoint wise
ten tion
v ity
Ġestima ted
B R
Ġabsolu tely
vi ation
y mme
group s
Ġmark ed
10 8
set length
Ġs parse
ĠA d
bec ause
ee a
Â ¹
\ ),
S ome
pres sion
Ġcom p
an o
S im
$. \\
Ġear lier
H y
Ġi mmer
Ġiden tical
Ġmat ch
: //
Ġg u
Ġexce ptional
)} -
ge ometric
ther wise
Ġth reshold
ten ess
uni que
descri ption
an tr
r v
Ġro u
{ -\
Ġ5 0
Ġt ends
] )$
repres entation
Ġf oli
et ale
Ġdirection s
Ġstr onger
Âį ÂŁ
w p
L R
Ġsimpl ify
inde pendent
Ġet c
Ġinvol ved
c ritical
Ġun til
Ġbehavi our
Ġcen tered
11 1
Ġs kew
16 0
}, $$
Ġincre ase
z ing
Ġfil ter
an c
ot o
Ġt re
t b
Ġfin ish
ga ted
plic ated
Ġop posite
a z
P T
ĠF urther
}{ -
ti bility
lat tice
ĠF UNCT
Ġima gin
Ġcalc ulus
Ġun bounded
ab ly
a mp
Ġti ght
Ġnor ms
in itial
c I
T wo
Ġph enomen
Ġm er
ĠâŁ ¨
ial ly
Ġpermu tations
A cknow
h olds
u x
hy p
Ġinter nal
Ġsh or
box times
u le
v is
de termin
h er
sp here
Ġis ometry
mathbb m
rough out
c ut
us sian
n m
ir ing
Ġsim ultane
13 0
we ight
| .
in verse
Ġa mpl
) }}{
Ġpossi bly
Ġfa ces
Ġauto ma
ĠH ermitian
ĠG ra
ĠRe al
Ġinterpo lation
ula ted
ĠP ar
Ġlay er
ĠM on
Ġlemma s
the less
ĠP DE
Ġfa ithful
e def
y y
Ġ\ }$.
Ġco s
use package
ow er
Ġpro por
k en
}\ {
Ġs ite
B r
ĠM at
A SS
b q
ide al
sta ndard
) ^{(
dis crete
ca ve
Ġr w
Ġ text
, +\
h f
)=\ {
@ {\
ĠPo incar
Ġme et
Ġc ubic
10 4
Ġn ice
our ces
Ġor gan
Ġl ight
alance d
su s
Ġro und
}} ;
Ġaut omorphisms
) &\
Ġal though
n atural
! ]
Ġinv olution
Ġtra ining
ĠIn te
Ġcan ce
par ing
| |\
si tive
ac u
S up
lay er
Ġcalcula tions
Ġfe asible
mo de
| +
Ġal tern
fore ach
sol id
C G
Ġidentif ication
Ġex hi
A b
cal C
rid ge
limin aries
== ==
Ġb racket
r ical
rem al
im it
Ġha d
}( [
no thing
Ġ ray
om s
Ġcomple tion
) &=\
p in
Ġback ground
Ġpo inted
ĊĊĊĊĊĊĊĊĊĊĊĊĊĊĊĊĊĊĊĊĊĊĊĊĊĊĊĊĊĊĊĊ ĊĊĊĊĊĊĊĊĊĊĊĊĊĊĊĊĊĊĊĊĊĊĊĊĊĊĊĊĊĊĊĊ
Ġremain der
Ġta il
Ġreg ime
O D
Ġsh arp
g al
v dash
}{ (\
Ġprobabil ities
Ġc ore
Ġpro duce
c V
}$ :
we igh
ĠCla im
var sigma
ĠS u
b ian
Ġsu rely
lo v
App lying
Ġin variance
)\ }$
Ġ\ [\
Ġ< >
c U
Ġchannel s
Ġw ide
} '$
eed back
Ġco py
Ġno tions
ĊĠĠĠĠ ĊĠĠĠĠ
_ +\
or bit
model s
Ġse lection
Ġevery where
}^{ *
od rom
en berg
Con tributed
ĠA p
}{ }
v anish
ar r
Ġsub category
c ou
_* $
sto od
ĠS pec
l ight
Ġtor ic
' =\
ĠOb serve
. ]
dia gram
r l
ĠD o
go od
Ġm ut
3 00
an ts
Ġme mber
ĠDe f
otop ic
Ġexperim ent
g ular
im in
)= -\
Ġ\ ,\,
T op
sg n
Ġs eq
Y M
in finite
Ġindepend ently
_+ (
Ġfib ers
Ġab stract
). \]
ser ies
h armonic
de pendent
11 8
SU B
Ġevalu ation
E T
.. .,
11 7
Ġext reme
resul ts
Ġne ver
Ġconfigura tions
D er
U p
append ix
Ġb in
ĠI nt
Ġd id
Ġre turn
Ġiso lated
t ract
}{ |\
S F
F UNCT
Ġlimit ing
}^{ [
C B
10 2
{- }
n b
ĠH odge
Ġhe at
Ġu nd
hed ral
200 5
f unc
is omorphism
Ġac ce
i y
ST ATE
Ġcont raction
th ree
pa ct
nol imits
ĊĊĊĊĊĊĊĊ Ċ
n orth
m l
Ġ\ '
Ġ til
20 21
th in
Ġinsta n
ne ighb
at z
Ġapproxima tions
over rightarrow
ha ng
Ġvariation al
Ġma ch
}$ \
Ġp ush
ĠU nder
ow ski
Ġ[ (
Ġtrajector y
math tt
S pace
g b
Ġappear ing
@ [
Ċĉĉ Ċĉĉ
Ġ2 9
L M
Ġ4 0
ĠB es
}) _
Ġneighb ourhood
e lement
Ġmom ents
Ġ{ (
Ġpas sing
Ġw in
at ura
Ġpres ence
Ġ\| _
Ġconveni ence
set counter
10 7
v c
11 6
{ /
Ġcontradic ts
Ġspec ified
Ġ\, .
on om
bibliography style
] +
27 0
N on
en um
ether ian
equival ence
ter ior
Ġma terial
Ġ tes
Ġpreser ving
in i
ĠB ecause
$ ]
Ġhome omorphism
correspon ding
n p
}^ -
o bs
ĠCon jecture
O ut
for t
Ġconnection s
sum ing
Ġdec ision
Ġper formed
}) }{\
] }(
in a
a ma
in to
un ov
a ges
' :
f ollowing
Ġpaper s
equival ent
Ġcom plicated
3 60
f ication
> *
Ġ$\ ,
eq no
$ }.
Ġpo st
ator s
= }
)/ (
ese arch
im p
11 4
Ġinter ference
N orm
Ġbe lie
Ġhypo theses
Ġtriangle s
A ccording
pr im
sim ilar
Ġma jor
Ġend s
equ al
Ġemp irical
R I
v r
Ġthan ks
Ġanaly ze
ĠW hat
co vered
200 4
tima tely
)} )\
Ġaux iliary
Ġat tention
Ġ= >
F in
var nothing
cons ist
}} -\
Ġball s
th od
Ġu pon
re x
D o
ĠL o
Ġ( [
Ġdiffe omorphism
( )
ĠI nd
onic ity
Ġmoment um
as ymp
Ġar cs
Ġdiffic ul
bre ve
}\ }_{
= &
s v
am es
)= (\
our s
Ġb ar
Ġpo pu
> .
Ġs tyle
bb R
ver gence
Ġdepend ent
Ex p
ĠA ccording
}) _{\
Ġge ts
ĠT aylor
Ġy ear
, [
sub st
| $,
}) -\
Ġthrough out
ĠĠ ĊĠ
hed ron
able s
Ġobtain s
Ġresi due
ĠB er
graph s
Ġin tu
Ġb ro
ate ly
Ġde pth
}( (
to kes
Ġconven tion
Ġup date
_* (\
Ġin t
Ġpro gram
war z
Ġrefer red
Ġmath e
Ġconstruction s
center line
Ġy et
here nce
F M
Ġdivis ors
Ġtyp ical
rela ted
ĠL y
al low
12 4
U U
l ip
000 1
Ġdiver gence
loc ation
}) +\
pl its
Re l
Ġsta tistical
Ġsim ulations
)) _{
Ġs ends
Ġd ot
Ġma rgin
10 6
Ġcy linder
}_{ -
Ġpri ori
9999 9999
ex istence
bet ween
Left rightarrow
ng ed
Ġdeg enerate
ĊĉĊĉ ĊĉĊĉ
3 75
Ġen sures
pa rent
b E
ply ing
Ġlink s
ĠMAT CH
Ġpiece wise
con ne
c v
sta n
er cise
Ġun ity
Ġcombin ing
ĊĠĠĠĠĠĠĠĠĠĠĠĠĠĠĠĠĠĠĠĠ ĠĠĠĠĠĠĠĠĠĠĠĠĠĠĠĠ
b g
Ġrelations hip
Ġman ner
" ]
Ġ- (
14 5
ĊĠĠĠĠĠĠĠĠĠĠĠĠ ĠĠ
ens ors
ĠIn s
d m
t uple
R ic
}} }{\
In te
Ġguarante e
00000000 00000000
fin al
Ġpic ture
)} )$
ic ations
ĉ Ċ
Ġorder s
Ġcross ing
ve y
Ġdiv ides
ĠE n
e g
c line
v u
Ġprevious ly
I MP
la ri
}} ^{(
b ic
ĠG L
T hat
D ia
tab ility
$ ?
Î »
\ `
Ġhigh est
no tation
Ġallow ed
)}\ ,
,\,\ ,\,\
Ġun less
ap unov
d p
o ch
B D
measu rable
Ġreal ization
Ġb ases
* {\
Declare Math
E M
he res
Ġillustra te
z y
Ġbrief ly
{ }\
Ġrece ived
ho se
ĠC R
}[ (
g ed
Ġ\ &
Ġguarante es
an s
d V
al t
ĠCh ern
ti ty
fin ed
25 0
e a
Ġdec oding
Ċĉ Ġ
ier arch
Ġto wards
Ġres pon
Ġar ise
ĠLemma s
ĠA fter
sha pe
Ġcharacter ized
r ically
Ġinclude s
w are
0000 00
iv es
| >
Ġtrivial ly
T S
v f
Ġhapp ens
Ġunder stood
17 5
Ġcharacter s
ĠR ing
df n
ĠĠĠĠĠĠĠĠ ĠĠĠĠ
Ġinvol ves
\ >
Ne w
si ties
Ġap pend
4 00
b ur
12 7
de pend
10 3
B V
Ġc oding
Ġv s
nu ll
Ġsubs titu
n es
al ks
D I
Ġr isk
Ġ2 00
T e
12 6
ĠĠĠĠĠĠĠĠĠĠĠĠĠĠĠĠĠĠĠĠĠĠĠĠĠĠĠĠĠĠĠĠ ĠĠĠĠĠĠĠĠĠĠĠĠĠĠĠĠĠĠĠĠĠĠĠĠĠĠĠĠĠĠĠĠ
n ers
pa rame
t f
)\ ;
ĠRic ci
Ġhyper surface
a ms
Ġsub manifold
M ax
ar po
Ġacc ura
j o
_{ *
par tition
Ġgeneral ize
Ġgener ates
dy nam
valu es
M in
Ġa do
Ġide mp
ec ke
K S
math it
Ġhyper plane
Ġendow ed
up les
Ġprac tice
b S
algebra ic
preser ving
sim al
iz able
ing er
: $\
co v
Ġfib re
M L
Ġconcer ning
}. \]
\ }}\
n et
< /
19 5
mula tion
Ġflow s
ĠSci ence
texts f
ĠNew ton
Ġevalu ate
Ġ ĊĠĠĠĠ
f ollow
ĠI m
f ib
Ġpoly tope
tain s
X Y
w ill
min imal
}{ $\
b G
B L
l k
Ġcommu te
compon ent
ĠLapla ce
Ġ\, ,
> [
at op
Ġ\< ^
}\, .
G H
Ġn ature
on es
Ġga in
2 75
Ġexpres s
wr itten
in j
14 4
ĠC ON
Ġcu be
c ategories
" )
Ġ3 4
ul ts
com posable
Ġlocal ization
c tive
Âİ Âĳ
fill draw
}$ ).
ell ip
Ġdesc ent
Ġf raction
D iv
Ġexponential ly
Ġfix es
F a
Ġs ix
Ġver ified
tif ied
200 3
Ġ$ *
Ġmo ves
v b
Ġte ll
Ġspan ned
Ġdistingu ish
con trol
T ype
=-=- =-=-
Ġconne cting
Ġprac tical
' )$.
Ġb its
Ġfe atures
Ġlon ger
Ġpre ce
Ġadd ress
Ġ$ }
Ġdis t
yste ms
}} |
ction s
Ċĉĉĉ ĉĉĉĉ
Ġc li
b H
Ġpro g
tic k
Ġcalcula ted
ĠAn y
G en
: (
ĊĊĊĊĊĊĊĊ ĊĊ
Ġj us
> }[
at ern
cal ly
R ec
Ġimagin ary
^- (
Ġsta ge
Ġreg ard
f st
= &\
l parr
/\ "
r parr
Ġ3 1
Ġtrajector ies
Ġindivi dual
sec ts
exp an
} ~\
De partment
p ing
ma r
la s
S D
Ġsol ves
Ġs q
$. \
e ach
T V
Ġvalu ed
Ġno ted
Ġd im
k h
Ġam ount
+ (\
5 00
bo ol
Ġtrans port
Ã ¿
ĊĠĠĠĠĠĠĠĠĠĠĠĠ ĠĠĠĠ
ale ph
t n
DeclareMath Operator
2 18
T aking
sma sh
Ġle af
lob ally
Ġbi partite
ĠC he
Ġan n
M ac
Re p
24 0
Ġ\ |^
em bed
W hile
stric t
p tr
key words
Ġ3 6
vious ly
ll er
C N
c W
as hed
Ġconclude s
Ġrespec tive
big wedge
z a
F un
Ġflu id
Ġl ittle
' _\
E n
Ġsimpl er
Ġ title
Ġan ten
i math
k n
E L
ge ts
ĠC l
< -
Ġread s
Ġrepresent ing
Ġdiscreti zation
Ġother s
Ġdescribe s
on to
sec u
Ġmat ter
Ġ ^{-
e val
Ġcover s
Ġchain s
multi put
Ġra m
gener ic
Ġtransi tive
ĠS econd
ĠYou ng
inte ger
r un
Ġcombin ed
G M
ic ro
ĠA nal
Ġ3 7
Ġh ierarch
( #
Ġunit al
[-> ]
i ra
ĠSch r
) ]\
Ġd z
Ġta sk
~~~~ ~~~~
Ġfe ature
2 25
odrom y
Ġadvan tage
F L
IM O
Ġclose ly
Ġa mb
ry st
arpo on
Ġpair ing
proper ty
Ġb if
tic s
fil ter
Ġconv olution
Ġsem ic
or dered
c ome
Ġimpro ved
}^{ *}
Ġac ross
Ġis ometric
Ġem pha
19 0
Ġsymmetri es
Ġf it
ra tion
Ġg lu
Ġp ub
Ġla beled
ĠThe ory
Â Ĳ
Ġul timately
}} ]
math ring
Ġp gf
Ġs low
Ġar ray
Ġinf er
b Q
Ġcance l
rela tions
Ġne ither
atern ion
no ts
ĠCon dition
M on
ur c
ĠO DE
Ġconjuga cy
ĠP oly
Ġun its
morph ism
s F
@ #
rom ov
Ġlogarith mic
b is
P A
Ġlevel s
cy cles
v ille
pec ially
Ġsumma tion
in duct
}) (\
viron ment
Ġad ded
R T
P oly
ĠApp lying
b h
ĠS ta
Ġm u
^- $
iz ers
dim en
Ġcount ing
B ecause
Ġs tri
Ġcontinuous ly
Ġgroupo id
ĠS h
13 7
f c
ri x
Ġd v
}[ !
Ġsta tistics
: \,
13 4
t m
ex pon
Ġac tive
Ġcon nec
ĠA r
Ġal pha
Ġinclude d
Ġde lay
\/ "
Ġ. -
h tt
Ġn at
bil ities
ra ise
=\ {\
Ġrece iver
Ġtriang ular
Ġar ises
Con sequently
Ġissu e
g i
ĠN umber
Ġin ductive
Ġul tra
}\ }
temp di
j j
to col
Ġdivis ible
Ġf eedback
inter section
Ġc aus
Ġlat tices
Ġch all
Ġdynam ic
11 3
Ġrecon struction
v y
Ġconvex ity
dis c
Ġfail s
1 000
10 9
us s
& +\
sion s
d ouble
Ġmem ory
Ġadap ted
Ġarrow s
Ġrou gh
Ġindic ates
Ġform ally
long mapsto
| )
Ġrepe ated
G D
ta ngent
Ġcom ments
Ġo veq
17 0
i ly
8 75
B ar
ĠR esearch
Ġlog ic
AL L
Ġbegin ning
ĠJaco bi
ster ior
ay es
i int
Ġun stable
La g
sel ves
)\ |^
F INSEQ
Ġ& $
Ġexist ing
Ġad antr
m t
Ġstre ng
Ġvalu ation
ed ges
F A
Ġalgebra ically
Ġpa ge
$ },
Ġse em
): \
' ]
div is
da y
Ġo pacity
ĠF INSEQ
pgf q
); \
S equence
A u
ar is
( $
proper ties
Ġkernel s
Ġ3 3
Ġre ally
ĠV er
Ġinterpre ted
M ulti
ĠW hile
k u
Ġpres sure
cr imin
ĠN amely
gin e
G eneral
ĠC ol
)) ^{
Ġf ive
Ġlo ops
multi row
Ġevent ually
E A
in si
\ })
c oding
tima te
Ġdia me
a o
Ġsol id
Ġlet ting
er ature
star t
\ ;\
Ġphysi cs
Ġ }_{
ĠP r
]{ $\
v phi
F urther
23 5
Ġ. +
Ġsemis imple
-\ !
Ġp lus
P C
cal c
Ġmeasure ments
H o
Ġcom posite
R C
Ġbound aries
Ġth in
---------------- ----------------
c od
Ġscat tering
ĠG reen
s b
'' '
Ġ[ _
as hi
Ġinter sects
Ġunderstand ing
Ġpure ly
# \
` ,
Ġimplem entation
Ġnot ing
Ġqu e
k j
Ġreg ression
| |_{
ĠD is
Ġdiv ide
$ [
Ġobvious ly
Ġ\| _{\
Ġrequire ment
)\, .
Cha pter
con struction
'' \
ĠGaus s
node s
Ġsta nds
! }\
}, {\
â Ī
ve p
^* )$
Ġ] _
dis tance
M T
Ġcon c
Ġtop olog
Ġd ashed
14 7
val id
Ġcompact ness
sk y
variable s
Ġflu x
Ġde le
R N
Ġqu iver
cor re
Re f
Con t
Ġnormal ization
M or
Ġdemonstra te
a mb
C I
200 2
han ks
Ġsumma nd
a belian
h l
ob j
a vi
Ġp ric
F P
fa mily
Ġrepresen tative
w f
w s
}^{ -\
15 5
b end
Ġpopu lation
a da
Ġb ody
secu tive
Ġex ternal
enc ies
p at
16 5
sh ort
li hood
,\ ]
Ġdis c
ĠÎ »
G A
Ġdeg ener
form ing
Ġcharacter ize
Ġ> =
sta bility
mon oid
) ]$
Ġlength s
* {-
sur faces
Be fore
con jecture
c ast
25 6
ces sing
anal ytic
on ically
Ġex p
dition al
\{ (
ar ticle
fra me
decom position
T F
Ġext remal
ĠSub section
con ju
def eq
int y
ri e
s outh
Ġ\ ;\;
=\ ,
}= -
b T
reed om
rt in
ro tate
sc op
g rid
ĠF alse
ĠM ax
Ġindex ed
Ġrig or
Ġsu pre
Ġrestric tions
Ġiden tically
and er
] &
h it
A fter
Ġset up
b B
Ġre ver
Ġs co
Ġconju gation
ch ron
Ġch arge
< =
ro v
d dot
}) )$
ll l
\ (
Ġform er
d ir
ĠP oint
u i
and i
ĠJaco bian
Ġpotential s
Ġthere in
D C
inu ous
Ġindic ate
den sity
at o
Li pschitz
}_{ +
Ġarri ve
Ġw ish
aris ki
L ip
V ol
'' .
Ġsign als
Ġse lect
Ġsimultane ously
An y
In ter
hol omorphic
O W
ĠL ine
Ġembedding s
ĠO therwise
}| ^{
Ġinc ident
Ġfoli ation
ĠCar tan
' }{
Ġf ore
ĠP art
F G
Ġassocia tive
CO MP
ĠJ ordan
oti ents
Ġaxiom s
Ġimpo ssible
T OP
de creasing
Ġpo set
Ġsepara ted
00 5
la stic
Ġeffici ency
(\ |
Ġwork ing
f y
Ġp t
sing le
aff ine
$ _
Ġmeasure ment
Ġde pic
Ġasymptotic s
lat or
b ran
15 7
tr u
Ġco arse
Ġar range
or g
13 6
Ġpo lar
ern ou
ĊĠĠĠĠĠĠĠĠĠĠĠĠĠĠĠĠĠĠĠĠ ĠĠĠ
align at
Ġa f
Ġtool s
ro th
n x
d b
et o
vari ety
L arge
theore tic
{ }{
IS CH
13 8
Re g
11 9
}| _{
jec tivity
Ġhand le
N E
Ġma gn
> _
pgfq point
n r
Ġg lobally
14 8
si ded
Ġ\ ;\
ta ng
m x
Ġpro ject
)} -\
}) )\
an ge
M AT
Ġregulari zation
Ġfunction als
Ġstudy ing
'' _
Ġsignificant ly
Ġ ĊĊĊĊ
i med
oo lean
id den
Ġlook ing
- (\
18 5
ĠT ake
ĠĠĠĠĠĠĠĠ ĠĠĠĠĠ
Ġlift ing
)| ^{
Ġde st
Equ ation
b ottom
r is
: [
' }(\
App endix
Ġradi al
Ġw orth
m entary
pro jective
te rex
la tes
Ġ. $$
u ge
art z
. \,
Ġindepend ence
h r
ĠAl gebra
Â ł
Ġch ar
a e
B O
al i
Ġf alse
ij k
ge bro
S c
es sian
Ġ4 5
ctor s
Ġsome times
Ġend points
TH M
ernou lli
23 4
a th
ter ns
G P
para m
Ġequival ences
); ;
Ġrun s
Ġstudi es
an k
la ting
_{ >
Ġcompa c
bm od
in it
d w
2 98
G o
Ġs ent
Ġminim izer
ta inty
' }}
Ġinde composable
ref ul
Ġinfinite simal
ĠF n
Ġbe am
Ġweak er
Ġ( $(
Ġse lected
Ġgeodesi cs
ata n
S ta
Ġ\ }$,
ĠF u
Ġdiscussion s
Ġs ket
ere nt
ĠA gain
A nother
Ġmod ification
' |
)$ ]
Ġwr iting
ĠMathe ma
R U
Ġconc ern
R iemann
g d
con f
Ġrel ies
satisf ies
Ġpo les
Ġs izes
semb le
e b
cor ner
Ġassoci ate
T A
^* _{\
},\ ,
200 1
Ġes pecially
ĉĉ ĉ
Ġcirc les
pp ings
ĠI ts
as ymptotic
w hose
Ġg rant
classi cal
ti er
16 8
ga p
Ġh ull
Ġgra ding
ar ing
Ġevalu ated
pr int
s ame
vanish ing
is omorphic
Ġtyp ically
Ġm icro
deriv ative
local ly
Ġ\{ (
S ol
or b
follow s
Ġquanti zation
T rans
ch er
SK I
)* (
Ġsol vable
}= (\
Ġmo ving
P D
b F
su mptions
tot al
un ately
> '
Ġversion s
Ġcomple teness
2 20
nt z
Ġparticular ly
* }{
Ġv on
tan ces
Ġpen al
P h
S a
Ġnumer ically
.~ (\
ma cro
a cy
ĠCom pu
cent ral
IT H
! (
Ġsimple x
99 9
Ġor b
Ġar ising
ss s
sp in
W W
Ġsome thing
terex ample
T ake
). }
Ġdifferen ces
Ġma gnetic
f it
}+ (
S econd
\ }^
z er
ard y
Ġapproxima ted
r brakk
14 3
Ġde mand
ĠLe gend
;\;\ ;\;\
}\ }$.
A V
Ġfour th
ab i
ĠÎ ²
Ġprece ding
Ġres cal
Ġex terior
l brakk
AR SKI
Ġw aves
ĠE very
f ix
Ġ( `
Ġdiame ter
Ġdistingu ished
Gr p
Ġf reedom
Ġlabel s
Ġtriang ulation
line color
Sp in
G F
Ġfor med
ink owski
s d
ma ps
}\ |^
)} ^{\
Ġinter mediate
-. -.
or o
Ġma rtingale
' })
ĠLy apunov
+ {\
25 5
Ġcouple d
Ġoptim ality
}^* \
Ġsugges ts
pla in
i h
Ġcontinu e
Ġillustra ted
Ġd ate
12 2
Ġ& &\
Ġmess age
tor sion
Ġpla ys
Ġformula ted
,.. .
Ġpro v
co ded
Ġinvesti gated
mom ent
irr or
13 3
Ġwh ite
Ġpreser ve
13 2
12 9
S m
Ġbounded ness
Ġ= &
Ġpa ges
ge l
19 99
Ġpossi bility
pha se
T MP
re duced
M F
Ġeffec ts
Ġg reen
S R
Ġproper ly
Ġcom ing
Ġc m
s ymbol
ĠS TR
$ |
16 7
Ġco variant
p seudo
ĠK o
" .
Ġconstruct ing
Ġf i
a ver
} '(
Ġvirt ual
sy mm
Ġcompact ly
g ree
P I
Ġ\ }.
14 6
pro te
Ġf ra
en able
ĠS t
Ġre verse
Ġra d
i u
ss ess
)) -
gener ated
Ġ( {
b ine
ĠĠĠ Ċ
Ġhom omorphisms
EN T
ex ternal
Ġsepara tely
O C
Ġcontribu tions
Ġd ou
$. )
p ol
u it
ere d
ĠH y
ĠSch ur
Ġse gments
Ġcar ry
Ġremo ve
Ġmo des
ro s
C c
o ids
Ġsu re
c Q
po w
imodu le
n l
Ġca reful
can onical
i eck
Ġtre ated
Ġdev oted
Ġtermin al
bold math
orth ogonal
s r
vari ate
ð Ŀ
ric k
Ġorgan ized
}= -\
Ġ... ,
ran ce
restric tion
no ise
sup seteq
Ġden omin
h m
Ġrecur rence
i ar
Ġbif urc
pro jection
r ink
F ollowing
w as
Ġtermin ology
ent ry
Ġsupre mum
Ġtrans forms
18 9
B er
ĠL ore
Ġslo pe
ha ps
Ġexpon ents
ĠSU B
b ody
Ġpro duces
Ġlaw s
2 15
Ġ3 8
17 7
Ġtw ice
Ġthe rm
= |
n f
Ġremark s
Ġco herence
thes e
ymme tric
}} }$
da ble
po sing
l c
Ġaltern ating
K o
Ġresi dual
T or
fig ures
Ġdomin ant
bo th
AR D
be z
}} ^\
Ġmon odromy
3 15
com ing
Ġ4 7
Ġdis crimin
C V
ant or
Ġloc ation
Ġcon secutive
ĠC hoose
20 5
$$ (
Ġmonot onicity
_\ <
Ġtrans verse
3 99
pro x
Ġ. /\
Ġposi tions
Ġ }^{
Ġre pro
e mp
' /
d B
ke ts
scripts cri
Ġno thing
\ :
Ġvar iant
E P
div ision
D A
y ond
lexi ve
) ~
integra ble
}\ |_
X BOOLE
re als
tr insi
)} |
f b
Ġdomin ated
)\ ]
f lu
t v
A x
X REAL
S ing
Ġsign ature
}\, ,
Ġaccura te
Ġyear s
n k
Ġat temp
Ġaver ag
Ġcon crete
Ġhelp ful
Ġexpansion s
Ġminim izing
tur bed
s ample
di ents
so v
Ġw all
ĠJ o
Ġis otropic
}_{ {\
ĠI II
ĠĠĠĠĠĠĠĠ ĠĠĠĠĠĠ
G roup
e fined
/ --
symme try
Ġcheck ed
Ġi tem
Ġcon servation
Th roughout
Ġthough t
al p
in creasing
Ġreal ized
ĠX BOOLE
Con clusion
co sity
A ss
Ġac cess
h p
Ġminim ization
Ġk nots
Ġextend ing
k m
Ġre p
v in
co prod
}) ;
k t
de pth
ct u
^- _
Ġmid dle
Ġact ual
L m
Ġmonomial s
G ra
, #
equ ent
, {
top ology
scale box
sta nce
ĠĠ ĊĊ
| {\
} &=
m v
oun ts
ĠT rue
Ġpar ity
Ġinter face
Ġcor ners
le in
in duction
lim inary
Ġ& :=
K M
ĠD iff
Ġden sities
@{- }[
Ġsq rt
pgf path
E ach
Ġspect ra
Ġo wn
17 8
j a
continu ity
ĠâĪ Ī
co herent
no expand
Âį Âį
f d
s nd
man y
dot ted
19 98
Ġmathe matics
roth end
ss eq
N D
Ġ- /
Ġcon ce
Ġdiff er
par sity
ledge ments
Ġread ily
er y
R ing
re ad
Ġma ppings
Ġpropor tional
' },
Ġappend ix
cu be
ĠP rime
Ġne ural
u ff
ia ted
)\ }_{
Ġle ave
con sider
Ġw ire
ĠZ ariski
Ġ/ /
Ġmin or
$- $
S V
po ssi
00 8
n ice
bb s
rothend ieck
Ġeigenvector s
Ġcha nging
24 5
Ġ\}, $\\
ob ject
L in
&& $\{
I L
j ournal
in equality
Ġlim ited
ha us
Ġsa ke
Y au
bf x
Ġcla imed
b rid
b theta
23 0
ĠIns titute
og on
ou ter
Ġw est
c ot
ever theless
w d
}^* $
ni hi
long leftrightarrow
de comp
Ġpo sterior
)$ ).
17 6
l ision
19 7
orph ism
Ġtemp erature
Ġ ĉ
Ġs in
ĠTHEN L
Ġde viation
ech n
- {\
Ġqu aternion
Ġinstan ces
s C
it al
Ġpreser ved
gra dient
Ġstrate gies
Ġex ec
ĠC H
Ġintro ducing
Ġinf lu
Ġformula te
ĠE X
Ġeigen functions
{\ |
Ġpres cri
Ġz eta
R P
Ġpo lari
al th
Ġpro gra
Ġper spec
ĊĊĊĊĊĊĊĊ ĊĊĊ
}} &\
ĠC or
Ġregar ding
ig u
Ġpri mary
B a
cal O
19 8
}] $.
Ġeq id
/ (\
Ġbu ild
12 1
T able
Ġc andi
Ġap plic
tif ic
place ment
Ġ Ã
ĠPro per
ibra tions
)\ |_{\
Ġangle s
C an
b ord
)} ;
Ġag ree
Âİ Â
pgf arrow
Ġend omorphism
re call
19 6
2 60
ĠMo del
) }}{\
Ġ 90
Ġ\ \\
Ġiter ative
ma ss
den se
P art
w in
Ġ[ ->
Ġbra id
)| $
00 4
Ġd r
A nal
R D
te l
Ġe p
Ġst ress
\/ }
Ġeasi er
Ġ4 8
Ġmix ing
un g
ĠR ec
N P
Ġcombin ations
Ġpo le
ĠT aking
Ġt ensors
Ġn et
pr ising
Ġpo ssess
Ġvary ing
S W
Lo cal
13 9
Ġ ve
Ġmach ine
"; "
] },
Ġme di
Pro j
ur istic
Ġp un
Ġread y
ĠS um
cer tainty
Ġpat terns
ĠF r
17 4
))\ \
Ġste ady
Ġsto pping
ĠS uc
Ġconsist ency
algorithm ic
Ġover all
] ^\
Ġapproxima tely
tation al
ke l
18 7
Ġdete ction
70 7
Ġ4 2
p ref
| <\
Ġcompu ter
Ġagain st
P U
Ġre written
Ċĉ ĊĉĊ
ĠD ISCH
ĠWith out
ou ville
Ġnon e
Ġag ent
Se g
}, ...,
3 45
Ġev ents
satisf ying
iden tity
| =\
Ġs atura
ĠP er
p x
it eness
2 16
ĠSpec ifically
Ġregar ded
ad ditive
)\ }
a cos
ma rgin
ma trices
con ditions
ss mann
| _\
wa ve
}^{ +\
lo ss
15 8
})\ ,
= {(
Ġsequ el
Ed ge
ill ing
Ġex ten
Ġpro tocol
Ġfor cing
28 0
)\, ,
18 8
Ġ+ +(
Ġis omet
F unction
Ġt end
| ^\
po thesis
da tes
A gain
}) ^\
ĠC an
Ġhome omorphic
Ġh ist
Ġ 80
a dap
Ġarg ue
15 6
Ġcont ent
Ġco vered
2 10
Ġma tro
}{ {
decor ate
Ġ3 9
)\ |_
ĠAl though
}= "
Ġa mple
s A
d R
Ġspe aking
Ġcons equently
Ġhapp en
d ig
i ent
}} ^{-
Ġrecur sive
I F
Ġestima tors
el low
u sed
Ġen umer
S H
Ġsitu ations
ĠĠĠĠĠĠĠĠ ĠĠĠĠĠĠĠ
Ġsu bf
_+ ^
ĊĊ ĠĠ
Ġal ign
pro claim
Ã Į
ĠIN T
ĠS NR
93 75
} '\
clo sure
associa ted
Ġk ine
Ġcongru ence
Ġdoes n
ific ations
Ġcontrol led
x p
ĠE instein
Ġcar ried
qu otient
Ġm ind
sf ul
94 7
ga m
]^- {\
Ġb ic
Ġ4 6
b N
B H
x c
Ġtreat ment
cl ip
ĠO f
Ġch ild
Ġex change
v o
b M
ĠS tein
Ġref or
Ġspace time
ĊĠ ĉ
Ġcon es
Ġf lag
'' )
* )
G E
Ġlet ters
\}. $$
Ġdis play
Ġdecre ases
' \<
rop ical
Ġadap tive
Ġpur poses
V e
)) (
de sc
m ond
Ġin ten
u es
Ġco cycle
s E
Ġsimpl ified
Ġdescri bing
bs tituting
R d
15 4
}\ !\
Ġre ve
Ġrandom ly
Ġbe yond
general ized
Ġho pe
si t
Ġrecover y
Ġbro ad
mon ot
75 0
Ġsmooth ness
Ġmultipl ier
23 8
Ġsp heres
L V
}\ |_{\
scop ic
\| ^{
Ġâ Ģ
h dots
re cur
te o
c Y
E very
Ġrefine ment
Ġspec ifically
Ġtell s
ri an
Ġ4 3
m ix
dis tribution
ĠCha pter
co effici
k p
ĊĊĊĊĊĊĊĊ ĊĊĊĊ
Ġperturb ations
ASS UM
= "
Ġcor ner
us er
Ġd g
Ġbo ol
column width
Ġautoma tically
scriptscri pts
in ct
ÂįÂŁ ā
Ġimmer sion
Ġ@ {
ver sion
Ġfollow ed
Ġachie vable
+ +
ad missible
Ġf r
n y
scriptscripts tyle
mes h
^+ _{
in duced
Ġreason able
Ġtest ing
b D
Ġintegra ting
igh ts
Ġpro file
al es
ac tive
Ġ[ .
ĠH ecke
ĠS ec
C K
20 7
******** ********
Ġsubstitu tion
Ġsetting s
ve ps
Ġpropa gation
Ġt ru
neighb or
oding er
L AT
S pan
E rr
is otropic
Ġop tion
* >
Ġd f
or igin
Ċĉĉĉ Ċĉĉ
B i
Ġphenomen on
2 24
Ġin ser
ter ms
Ġconstra ined
la w
ec es
ram ified
Ġspec ify
Ġe lim
Ġb alanced
Ġv or
ju mp
Ġs plits
dis joint
` ;
k r
' ))
no v
ys hift
st op
Ga ussian
P ut
y b
^{ {\
ĠG roup
Ġfor get
}. )
:=\ {
plan es
Ġob struction
15 9
, "
Ġdifficul ty
raise box
tempdi ma
Al gebra
spect ral
Ġs addle
20 8
Ġspan ning
b beta
ĠF o
cha nged
ro matic
me mber
gine ering
Ġl ifts
C a
lo ts
os z
_{ [\
Ġdis si
Ġreason s
uniform ly
Ġ) }
^+ }
Ġfor ces
min imum
f ast
Ġmodu lus
Ġcont our
sta b
28 8
M et
Ġrepe at
differen ti
19 4
qu estion
Ġ6 4
v ice
Ġintersection s
Con versely
IST S
par tic
Ġco hom
dition ally
16 6
max imal
Ġag ents
_- $
Ġdiv ided
ar k
Al though
n h
ĠT wo
Ġ ĊĉĊ
in jective
T ri
36 8
c of
F r
x shift
}[ {\
Ġinterpre t
' )$,
ĠH ow
] )\
Sup p
ne y
+\ !
Ġ4 1
re duction
Ġgener ation
prob ability
it on
co ord
cor o
weigh ted
CON V
Ġ) .
Ġ" ?
Ċĉĉĉĉĉ ĉ
Ġen vironment
J aco
ĠMor se
b L
Ġbi jective
Ġun certainty
Ġbelie ve
Ġpara graph
- }
Ġin gre
& (
Ġcom pres
v olume
18 4
sub float
66 7
33 0
Ġ\ __
ĠEx t
L u
str ut
Ġmod ify
Ġimpl ication
supp ort
Ġt uple
P oisson
16 4
Ġre a
i ti
ra nd
00 6
Ġhigh ly
23 7
ent ropy
ul tra
26 5
Ġ er
N C
[ $
Ġstru ct
pi red
ul i
20 3
, (\
Ġqu otients
Ġremo ved
D om
sw ap
Ġ 70
Ġdivis ion
Ġcon j
ĠC ox
ula te
Ġsome what
ĊĠĠĠĠĠĠĠĠĠĠĠĠĠĠĠĠĠĠĠĠ Ġ
( [\
Ġbuil ding
if num
co eff
Ġs ources
I B
ta ke
Ġscal es
min im
ĠW ord
Ġtes ts
pi d
Ġsimple st
Ġidemp otent
Ġobtain ing
F R
ĠR ad
s pa
as soc
te ch
Ġd rop
Ġpro jec
XX REAL
14 9
$ ~
Ġbound ing
Ġâī ¤
c Z
Ġconf ir
Ġsepara te
^{* }\
Ġexhi bit
Ġmagn itude
Ġde formations
form ally
s O
c J
^+ (\
Ġformula e
with out
\ }\\
l ind
possi bly
T L
^+ ,
Ġsche du
Mo del
19 96
ential ly
' )=
Ġequal ities
Ġbre ak
Ġinver sion
Ġdraw n
are d
Ġ" '
tor us
alg o
=\ !
ryst al
Ġf usion
Ġ\ }_{
pa re
Op en
trinsi c
normal ized
rac kets
Â ±
Ġstar ts
fort unately
il s
is s
z es
P H
Ġconsider ation
cat en
Ġin duce
ver tices
i ta
he af
| \\
m ing
ĠC O
ĠF ollowing
MU L
ĠDe partment
b mu
den ote
Ġper s
Ġ) ^
Ġpub l
la ter
ir al
ĠS te
elem ents
Ġcoun terexample
f k
up date
Ġdecom pose
ĠN one
Ġampl itude
var kappa
S ha
tain ing
Ġ lying
sub group
h ler
ĠLe vi
Ġ[ :
coun table
th us
Ġmeasu red
45 0
18 6
z en
+\ |
ĠY ang
rec tangle
Ġconcentra tion
qu antum
Co h
23 6
Ġth ings
Ġat trac
ro t
_- (
Ġpossi bilities
Ġanaly tical
d n
d c
Ġcomple ted
Ġassign ment
qu ote
| }{\
99 8
L og
re q
r w
ay ley
U T
Ġ[ ,)
> ]
] -
bb Z
D L
( .
Ġglu ing
Ġ$[ -
Com p
le ad
Ġres p
Ġ| .
Ġ4 4
Ġrespon se
ĠLore ntz
Ġdis tances
3 90
)) }\
2 95
in stance
C r
ore nstein
: "
D T
Ġ(- .
Ġt ropical
oo ts
H F
35 0
G u
Ġimplem ented
bez ier
B u
\ (\
pec ts
an n
W hat
con tra
Ġmargin al
\, $
,\ ,\,
m rm
f q
p ted
[-> ,
cri pt
Sch warz
rela tive
Ġmotiv ated
+ {
Ġmechan ics
Ġcontinu ation
Ġ5 3
ĠM ulti
ĠT r
i ro
ĠB ayes
Pro blem
Ġc ategor
Ġrecall ing
2 90
Ġperspec tive
osz ul
Ġma pped
Ġcard inal
G reen
})- (\
' ^
}} [
Ġa cyclic
Ġg ave
ĠSection s
Ġimpor tance
Ċĉ ĠĠĠ
19 9
action s
in ation
Ġ" (\<
ention ed
S y
the red
pgf point
fl align
I J
Ġ )$.
s L
pa per
& \\
Ġcol ors
Ġen velo
Ġsha re
Ġsta nd
Pre liminaries
* -
if dim
ĠSTR IP
19 97
Ġqu ick
)| _{
be red
ellip tic
T C
Ġau gm
h ard
19 95
H M
{- .
f our
co st
v w
com pres
Line ar
as sume
Ġsub t
Ġre cor
Ġsepara tion
U ni
}_ *
){ };
j oin
SI MP
& -\
ip otent
| +|
[ $\
}] $,
ch ild
22 8
Ġlet ter
Ġh ar
Ġsket ch
20 4
})$ -
new page
cur l
Ġta ng
\ #
cal F
24 8
ĠRe f
Ġvis cosity
Ġ: \
Ġinvol ve
B K
b K
su mma
t ures
Ġ ign
Ġcom paring
ĠA lex
Ġsucces sful
$\ ,
Ġdecom positions
Ġ] .
De l
cal ar
Ġfa ir
Ġv io
Ġ4 9
V ec
cal A
app ing
sta tes
ma s
p red
ĠB oth
)$ \
cr it
ĠH ar
ĠW rite
- $\
R M
2 13
Ġdiv iding
Ġdefin able
ĠPro p
) &=&
Ġguarante ed
G EN
Ġsub module
}^* (
ĠS im
Ġremo ving
Ġy s
' }$.
ĠT OP
}) }$
Ġpoly gon
ish er
Ġfil tered
/ _
Ġconce pts
Ġpla ces
Ġres on
, ~\
f h
dire ction
ab c
In v
Ġmotiv ation
or al
d h
] (\
)\ |\
}{ .
ĠP re
Com plex
ĠM inkowski
Ġorb ifold
16 3
Ġal gebro
H u
E V
}} _\
Ġinteraction s
ĠG r
ĠB ra
lem m
26 7
Ġrelax ation
ir reducible
i bbs
28 5
ĠR a
Â «
Ġmain ly
Ġs ending
Ġal location
}_{ [
Ġcolor ing
Ġtrunc ated
ht bp
2 99
Ġrecur sion
Ġir re
Ġflu ctu
ĠW i
)| =
^* )\
po lar
re a
Ġb ad
Ġso ft
24 7
Ġgu ess
v or
Col or
d ro
Ġme ta
)) ;
ĠG romov
and om
ĠMathema tical
Ġgeneral izes
tr unc
Ġsuc cess
RU LE
Ġreason ing
L C
Ġlike ly
IN G
^ -\
}\ }\
H amilton
to gether
b ol
er ies
strong ly
co h
Ġimp ose
cal D
i red
ĠCon versely
s T
cho ol
com bin
ĠIn ter
Ġestablish es
define color
Ġde coder
ex ist
F I
Ġno vel
g row
Ġindic ated
/ [
v m
Ġcompa tibility
Ġsubs equent
ĠP ic
p otential
hy si
ma y
posed ness
Ġan nihi
Ġsign s
B T
G N
tw isted
[ (\
16 9
33 5
compa re
ĠH essian
Ġf ol
Ġfa ster
Ã ¶
ta tives
Ġcon cave
top es
po st
mat ch
v n
}) |
Ġ} }\
P oint
] $-
Ġde lta
A F
^* =
in sert
o tic
Ġprogra mming
Ġin puts
R em
Ġrequire ments
H P
Ġscal ed
tra p
17 9
ĊĠĠĠĠĠĠĠĠĠĠĠĠ ĠĠĠĠĠĠ
Ġadj unction
b al
H ilbert
Ġpa st
\, (
Ġatta ched
}\ }$,
Ġcontra ry
dec ay
expan sion
scal ar
o i
40 5
^+ $.
Ġ ^\
43 75
chan nel
w all
ust om
ro b
33 3
Ġpredic tion
ne ar
ES ON
subset neq
ogon ality
^+ $,
Ġsl ice
Ġrela y
IEEE eqnarray
Ġmo der
Ġemploy ed
S eq
top ological
Ġcommuta tor
Ġneighb ors
d ge
80 7
Ġca pa
Ġmut ually
M y
h ic
ĠG rothendieck
ound ation
big vee
to ff
c ision
mb b
reed y
Ġ _\
ĠB o
es ted
e u
N ode
se gment
d k
ble ms
ĠM IMO
con formal
ign e
me thod
Ġdenomin ator
ima ges
hol m
M E
Ġcol lision
n as
Ġ$ <
Ġthe ta
ies z
il de
ser ved
ir th
f an
ra r
st u
he v
PE AT
3 25
tr d
Ġback ward
). (
ex plicit
Ġ(` !
ĠT echn
c x
{ .}
Ġd a
morph isms
Ġbin omial
)! }
Ġhierarch y
Ġf ermi
Ġl isted
' ve
Ġde ep
22 7
Ġcompu table
+ )
Ġ ri
K a
. }}
Ġf ine
! \!
ĠD ue
it ching
Ġdevelop ment
Ġ$ +
tif y
Ġcap ture
}) /
Ġconver ging
: =(
D es
is enberg
un iv
Ġsummari ze
N umerical
J o
}- (
30 5
. |
Ġch art
2 12
Ġdiscrimin ant
P e
}& =\
70 5
28 7
Ġdis tor
b U
h ar
Ġen semble
27 6
et ti
mid t
Ġre ducible
Ġwire less
Ġmember s
Ġstreng th
Ġde ca
Ġprobabil istic
cell s
ger y
l der
L apla
S G
is y
^* ,\
Ġscenario s
Ġe limin
)) +
Ġrigor ous
r h
' )}
Ġw on
Ġvis ual
S NR
ĠS L
C hoose
Ġ$\ {(
}) ]
27 4
qu anti
OU P
19 2
T Y
ĠA P
Ġre ly
com pl
ĠB ernoulli
hom omorphism
Ġlike lihood
Ġcontrac tible
27 7
20 6
Ġrun ning
Ġb ul
Ġb ene
approxima tion
Ġcons equences
99 5
ĠB oolean
^* _\
Ġlo ad
Ġj ournal
Ġbi rational
O DE
com parison
Ġresi du
pl ied
Ġcha pter
b and
M N
simp l
le g
ra tio
Ġmer omorphic
J i
26 4
ur st
R ed
B Z
ex pec
24 6
ty pes
45 6
Ġ: =\
h g
] _\
ĠP ut
Ġprov iding
Ġcom bine
Ġconsider ations
g oth
: ]
Ġcommu ting
_+ ,
}( -\
ĠĊĠ Ċ
)> \
set up
t c
Ġ6 5
ion s
F il
Ġgrow s
Ġc at
ĠGra ssmann
b V
24 4
go al
e ld
trans form
] |
i ers
go ing
V al
g tr
S uch
Eq n
ĠCo hen
U niver
Ġdepic ted
succ eq
Ġo be
17 3
R n
m A
Ġconcern ed
= #
ĠSUB SET
eq def
W rite
re y
tabular newline
Ġ$\ ,\
ap pe
ag s
Ġ5 5
S tokes
Ġmin us
Ġassign ed
i ous
~~ ~
_{\ {\
Ġcol ored
Pro per
Ġdecre ase
C ur
ec ted
Or der
Ġinflu ence
s ts
Ġplay er
w artz
A c
regular ity
Ġpref er
ho ff
Ġdetermin ing
chi me
Ġ" >
Ġis otopy
Ġor ig
P DE
" /\"
n mid
in o
example s
onom y
P SL
und efined
}= [
hom otopy
Ġcus p
}\ {\
2 66
co e
Ġsumma ry
Ġpi eces
te ful
+ (-
end group
ĠF lo
embed ding
Ġt s
pa ss
! :
og n
f u
\ ,\,
Ġ< "
Ġbran ching
; \\
p st
22 6
lin eto
de cla
ĠM P
if ford
ĠS pace
equation s
Ġposi tivity
2 11
Ġ( '
Ġformal ism
D ue
Ġan gular
ol la
99 7
Ġimprove ment
a ctor
38 4
Ġlo t
Ġdri ft
F D
Ġord inal
inter sect
Ġop tions
ĠA rtin
], [
w est
Ġcol our
Ġiter ated
as ser
Ġend point
Ġ 75
compon ents
be ging
Ġrela te
Ġstabil izer
, &
Con s
beging roup
h or
ma tion
ger s
acu um
T P
99 0
vector s
T D
parameter s
class es
45 5
{ }^
cor por
ara bic
)} _\
le c
Ġf veq
ĠCom bining
Ġg over
[ -\
ĠC M
Ġag rees
15 3
ĠD u
ĠSe g
llip tic
s S
ig ible
85 5
^{* }(
Ġstruct ural
n th
Ġ }(\
s olutions
19 3
;\;\ ;
p ure
Ġf un
35 5
y p
ĠA nother
div ide
Ġg cd
C he
[ $(
m R
ĠCal abi
Ġ( *
Ġhe uristic
ret ch
Ġomit ted
Ġcli que
ga thered
ac le
Ġempha size
ec tive
af e
E uler
19 94
30 7
}. \\
de an
weak ly
su ffici
30 4
Ġexce ed
Ġme ets
ont inuous
\ })$
Ġ& -
8 00
> )"
cont ents
Ġcriter ia
ĠLag range
aa a
H C
25 7
18 75
act ing
pro ve
2 23
R G
ĠM in
25 4
d ri
parame tric
K u
M an
Ġvari ations
Ġmul t
)^ +
Ġ( |
asu re
Ġgeomet rically
98 7
du ality
80 5
Ġlow est
nec ess
Ġbifurc ation
Ġdo ing
Ġcontro ller
AG E
conne ction
Ġf ading
c g
w itz
(\ |\
ĠT rans
lb rack
ĠSci ences
Ġan tic
ĠS tate
b Y
Ġlabel led
Ġun ramified
36 7
Ġw alks
u tr
Ġ= (
27 8
60 5
vers es
Ġindic ator
ure nt
s lo
Ġsugges ted
ent al
Ġalpha bet
Ġdig raph
Ġre ductive
Ġbelong ing
ĠâĪ Ģ
Ġbuil t
h fil
Ġcharacteristic s
ĠG er
38 7
Ġcell ular
y z
} ''
Ġgra teful
b W
Ġse min
Ġ 66
Ġapplic able
Ġk e
20 9
em ent
Ind ex
she af
Ġfr ont
Ġe ast
)$. }
Ġpro cessing
Ġp or
im es
30 8
normal size
al a
\, ,\
t ty
cr cr
H A
26 8
I so
Ġ }.
f ld
Â ²
Ġf la
is ter
ĠB ound
ĠCox eter
){ .
rr bracket
li ed
Ġs pre
ll bracket
' )^
Ġas pects
ĠN on
tr im
ĠRE PEAT
p atch
au lay
ĠF oundation
Ġdot ted
]{ .
Ġwor st
Ġrepresen tatives
25 8
Ġcirc ular
k ind
C W
D en
$ -\
Ġex plan
96 8
98 8
Ġquad ra
s P
M SE
Ġfin ds
z o
Al gorithm
cross ing
& $\
Ġex clude
la tex
No tation
b ou
2 17
Âĸ ă
Ġidentif ying
Ġtriple s
}$. }
coun ta
H L
Ġro oted
operator s
T ime
Ġcons titu
Ġsubs tituting
y c
Un ion
Ġse ctor
ob tained
ent er
Ġcontinu um
Ġparametri zed
Ġaff ect
Ġ5 4
ĠNo etherian
B es
Ġe lastic
Ġ} ;
h ind
âŁ© ,
{ ,
si tivity
Ġwh ence
Ġam ounts
ba tim
j an
l times
Ġ ''
re am
s ho
Ġ5 7
ival ently
al y
ĠU N
ĠD G
v ia
Ġhyper surfaces
lab or
Ġrad ical
D i
chime dean
85 7
\ }=
Ġachie ves
quad ratic
compa tible
Ġsug gest
LE X
m C
m or
Ġim pact
Ġestima ting
cal S
vers ality
is om
}$ ),
s parse
Ġintu ition
^{ |
Ġhom otopic
35 7
Ġfix ing
ck er
48 6
< *
ci pro
Ġsumma nds
avi er
h ou
}} }(
su it
Ġla ck
corre ct
Acknow ledgements
Ġcar ries
h b
Ġm irror
3 65
Ġf ile
ib n
Ġtrans formed
L p
2 14
righ th
Ġs parsity
Ġcon ject
Ġ& +
Ġsur vey
ha nce
T ra
< ^
t um
Ġnon commutative
Ġpro d
or ing
)) }{
97 7
Ġ$( {\
Ġpric e
ct ually
col im
K P
hyper bolic
Ġoper ad
}$ }}
60 4
AN D
T E
Ġ} ^{\
sta tionary
fil led
ĠPro positions
\! -\!
Ġâ Ĭ
ĠG EN
ĠCh ina
red holm
S ig
La bel
' ),
40 8
Ġex am
Ġen coding
par ts
ial gebra
Ġa bu
stru cted
O G
ĠB a
+\ |\
Ġin jection
Ġon line
Ġmis sing
Ġconjecture d
Ġcirc uit
Ġappe ared
Ġenti rely
_ *}
Ġtr ig
_{ *}
Ġ< *
re nts
Ġte tra
L G
Ġintegra bility
28 4
* #
Ġ Ï
P G
28 6
),\ ,
Ġcom ment
diff erent
code s
Ġep im
) [\
}, {
Ġnon degenerate
do es
Ġat tract
at um
Ġimp lement
serv ative
U L
Ġ{ #
multi plic
- |\
bb C
l q
b j
e w
se y
pa ges
tw ist
r hd
d rop
Ġcorre ction
da ma
40 7
70 8
Ġallow ing
Ġconsider s
differenti able
Ġminim ize
Ġpro x
cal X
m cal
Ġbi as
)) ,\
ĠIn stead
60 7
an ces
] _-
Ġjump s
cal H
o ple
tan h
Ġinclusion s
Ã ł
Ġev ol
FF FF
Ġta n
}$ \\
y nam
Example s
Ġr fl
p z
ke leton
ssi ve
Ġg ames
}). $$
34 7
ĠV ar
Ġsmooth ing
ĠS O
duc tively
95 0
i vers
rm d
an el
M u
Ġanalog y
Ġ$\ #
b ys
a xiom
Ġden oting
ori ented
ĠI V
99 6
80 4
35 8
Y ou
F ont
f loor
Ġlay ers
u er
ĠO p
ĠF un
N L
Ġpre cision
97 6
per mu
}] ,
Ġ5 6
Ġclust ers
ian s
r cl
94 4
ĠC ho
e k
le cts
, *
x v
S tar
inate s
Ġlogarith m
R ad
cho ice
simple x
simp lic
Ġ5 2
Ġpre liminary
Ġcon caten
Ġacce ler
)) ^{-
eren tial
ol er
48 8
95 5
18 3
s sec
ma gnetic
Ġque ue
Ġpa y
ic z
Ġ\ ).
Ġref ined
ind ic
Ġinf imum
ver b
ĠN evertheless
ĠT ARSKI
N F
cor r
^{ '
}} },
Ġcomple mentary
er ve
)\ }$.
me as
M I
Ġann ulus
_ -\
Ġresol vent
olog ies
htt p
Ġqu ality
r ich
are a
Ġ<= >
Ġ{ -
sub s
Ġsh rink
ss o
ĠH ardy
st d
Ġa gg
==== ====
Ġma cro
Ġd ro
den s
Ġmodel ing
Ġsim pr
Ġcross ings
Ġth ing
s ource
Ġmulti plying
Ġin trinsic
K T
33 7
0 10
en ing
sub j
99 4
ĠFin Sequence
Ġqu ar
clu ster
35 4
Ġsh ifted
. -
du nd
Ġrestric ts
ĠS calar
Ġde duced
out put
I ma
S imilar
48 7
Ġcol lect
Ġissu es
L B
Ġisomet ries
ce ed
Ġde cor
Ġplan es
constra ined
Ġ$* $-
Ġpo p
Ġpack et
80 8
S tab
ac ency
Ġfrequ encies
s D
J J
uni versal
pro xima
co homology
] }{
gl igible
Ġpres ents
Ġin corpor
t uples
Ġm p
Ġtop ic
modu lar
Ġfurther more
di es
Ġcom posed
26 9
ar ds
Ġcompac tification
\ ^
IM AGE
c z
30 6
co cycle
t xt
pm f
35 6
T x
ĊĠĠĠĠĠĠĠĠĠĠĠĠĠĠĠĠĠĠĠĠ ĠĠĠĠĠĠĠĠĠĠĠĠĠĠĠĠĠĠĠĠĠĠĠĠĠĠĠĠĠĠĠĠ
34 8
Ġfinish es
}| _{\
Ġeffici ently
H D
or bits
v ich
ec ker
Ġ\! \!
AR ITH
ance l
mid dle
Ġp lu
ĠA belian
Ġco prime
85 4
Ġtransmit ted
Ġado pt
Ġg sum
3 78
Ġinf erence
st ro
ĠU p
Ġsign ed
ĠN ational
ou l
[ #
20 1
90 5
sto chastic
ol l
SUB SET
- )
Ġdecom posed
Ġcandi date
97 4
b xi
}} |\
K ey
96 7
] ],
With out
n z
oid al
,\ {
_+ $,
ĠX REAL
Ġprescri bed
ur n
Ġver sus
ĊĊ ĊĠ
provide d
Ġnear ly
ig gs
60 8
95 8
000 7
x z
Ġf all
ak a
big otimes
\\ &\
ĠD es
S s
Ġper turbed
Ġstri p
R F
Ġloc ated
$\ {\
' }^
pi dal
Ġdis per
B I
Ġfree ly
le ase
ho ods
par ticle
Ġsquare d
M D
Ġam enable
Ġref lexive
34 4
Con dition
cal P
ĠP h
Ġmechan ism
13 1
stru ctures
Ġintegra nd
[- ]
pro ducts
Ġad ant
45 7
98 4
Ġ&= &\
85 8
Ġ5 1
T ilde
arg min
H opf
ĠI d
33 6
In f
! }{
ce d
ner gy
9 75
ĠP e
c ertain
85 0
âĢ ĵ
Ġ ðĿ
60 6
Ġs ci
IN R
G T
m S
Ġdis ks
t g
A ff
Ġin her
33 8
ĊĊĊĊĊĊĊĊ ĊĊĊĊĊ
$ |\
it ness
95 7
ss on
Ġsol ver
)) ^{\
ĠS imilar
Ġe f
bl ing
_+ }
Ġd B
j l
c lear
g ives
Ġabu se
Ġ" ...
Ġcre ate
Ġcoun tably
ĠCar tesian
23 3
Ġ5 8
C MP
enum i
` .
Ġsur jection
z s
ashi on
Ġs ort
av y
66 8
UN C
^* -
subj class
Ġori entable
90 7
ur ity
a q
dist inct
Ġve hic
Ġrough ly
Ġdesign ed
iv ing
led gments
sy mplectic
Ġco set
gtr sim
Ġintegra te
Â ¬
Ġhoriz on
Ġsub division
Ġanten nas
s H
^* }\
T hanks
Ġin sert
Ġf lip
lines kip
24 3
decor ation
Ġper haps
Ã £
\| $
table au
e ref
b ad
' $-
|\ ,\
ibn iz
)}{ |
38 8
Ġm ild
Ġhe ter
>> >
ĠDe l
f int
Ġp hi
Cla im
Ġocc up
\% $
)$ };
Ġsupp orts
ari ate
G W
14 2
27 9
erm ite
Ġsur prising
Ġsummari zed
{\ '
Ġis ot
ĠP ol
non linear
23 9
96 4
40 4
Ġexpand ing
| +\
Lo c
si bility
Ġd ic
ĊĊĊĊĊĊĊĊ ĊĊĊĊĊĊ
Ġexam ine
Jaco bi
Ġtor i
F o
tail s
24 9
ssi cal
\ }_
Ġb rackets
H K
dama rd
ĠRe g
ĠA R
ti zation
ĠC ayley
z able
provide command
ĀĀ ĀĀ
Ġtriang ulated
ĠProper ty
show s
I Z
ĠRe l
hed ra
in ver
47 7
th and
Ġsyn chron
45 8
Ġat oms
f er
rr rr
ht b
ĠL at
ĠHa ar
,... ,\
78 8
Ġ )$,
ĠA u
ty p
IS C
ell er
70 3
Ġpro duced
cal L
\},\ {
k x
Ġspec ies
partic ular
48 4
Ġmulti variate
Ġo F
78 7
}_{\ {
- '
ĠInt ro
'' }
Ġanaly zed
o ta
o la
Ġ ĊĠĠĠĠĠĠĠĠĠĠĠ
m en
Ġchall en
Ġhyper planes
\ }}$
l g
u zz
commu te
33 4
45 4
Ġ| |\
Ġex per
Ġsw itch
_+ (\
Ġeigen function
I rr
id is
00 2
Ġindivi du
Ġcertain ly
ĠT e
ww w
s est
Ġb is
Ġbox es
it ting
H E
are st
Ġconven tional
Ġ\ ),
w i
22 9
ide finite
19 93
37 4
A E
bra ry
sem igroup
Ġwide ly
ĠP hysi
Ġrecur sively
' d
diff erence
st ri
Ġre covered
Ġcounter part
base line
b rac
ec ts
37 7
Ġra pid
u be
Ġlinear ized
pro ved
Ġdeal ing
Ġbranch es
Ġin ductively
Ġpe ak
re si
Ġtra vel
da ted
Ġtrunc ation
Ġre ar
arpoon up
p ush
]^- {
ĠC a
la ps
Ġtry ing
Ġde l
t raction
condition al
D ata
` ]
Ġdifferential s
Ġdistor tion
Ġpre condition
66 5
94 6
ogene ity
47 6
Ġ$( -\
70 4
Ġ_ ,
ch en
ha se
ĠP R
Ġat om
}} :
qu et
ĠD en
q bezier
65 5
rig id
N a
Ġcu bes
\ )-
) *{
Ġtopolog ically
th rough
INT ER
36 4
Ġco bord
Ġhy pe
ge odesi
IEEE proof
ĠBes sel
U R
de mo
sch ild
{ }_
95 4
ey n
Ġimpo sed
, |
Ġabs or
ref l
ens en
m g
s X
66 4
Ġshor test
The y
Ġfunctor ial
SE S
}| $
h ome
28 9
28 3
^{( -
Ġun ipotent
37 6
| /
Ġtransmit ter
me ta
Ġperform ing
N T
res sed
) &=&\
Ġparame tric
as su
intro s
io ds
con cave
Ġlook s
Ġn a
n j
{ +
Ġpr imal
cture d
Ġ) ^{
Fig ures
cal G
Ġins pired
Ġapproxima ting
80 3
La m
Ġpoly topes
h k
Ġgeneral izations
75 5
if e
90 6
Mac aulay
Ġfra mes
ros sed
@ <
bb P
Ġl t
Ġvalid ity
Ġ\! \
ch es
repres entations
per turb
Con vergence
80 6
Ġsy lan
ire cted
ĠC n
S te
gg ing
ĠS V
cur ves
Ġc e
L at
e en
Ġpoly g
ĠA ut
with in
Ġno dal
Ġmatro id
Ġsh ifts
Ġv acuum
Ġconclusion s
s afe
ĠG ibbs
Ġbe hind
Ġpenal ty
C ov
98 6
wo od
Ġtra de
s z
Ġa bb
_+ $.
. (\
F orm
m cl
Â ¸
ĉĉĉĉ ĉĉĉĉ
Ġt un
Ġen tangle
} '_
ĠM ac
) )\,
}} }^{
d S
}, ~\
or age
prote ct
L A
Ġsub manifolds
tiv ation
Ġ. $
Ġmut ual
3 12
Ġref ers
)-- (-
Ġm m
C lo
g ating
Ġjoin ing
=\ ;
Ġhy brid
25 9
Str u
) '
Ġintersect ing
Ġch ord
. :
38 6
p v
ri ds
34 6
Ġsub stan
Ġf an
Op tim
Q C
ck s
ĠK illing
Ġpro j
Ġcontinu ed
de finite
H T
P ri
Ġob sta
Ġ6 7
x u
ĊĊ ĉ
âĢ Ļ
Ġta me
D f
Ġdata set
k not
Ġ" \
per iod
OR M
Ġray s
Ġbul k
su c
Ġd atum
iv ariate
ding er
Ġs igma
Ġat tained
ĠAnal ysis
Ġf lexi
Ġat omic
ar ity
Ġsw itching
as sum
ĠPic ard
Ġf ashion
ll ll
^{ **
Ġcos ts
p k
triang ler
ĠL T
3333 3333
ĠRes ults
Ġconcentra ted
lo ok
}= {\
32 9
}{\ |
al an
ph ysi
cl d
C AT
fr ont
Ġmess ages
id er
ier stra
O pt
car rier
Ġmulti ply
Ġhe l
ĠHe isenberg
P F
gl s
Su bstituting
ĠG R
Ġarrange ment
]{ }
)= {\
Ġs lot
ĠG o
arc tan
mp t
H ol
O V
Ġrec ogn
22 2
B W
plo thand
P M
Ġw f
Ġe val
Ġpref ix
inter cal
' ll
Ġ2 55
40 6
85 6
imodu lar
ssi fication
65 7
er kin
s ay
z i
Ġx y
P GL
tri v
ff er
ĠD ec
Ġ }^
Mo du
D B
B l
L X
ir s
expon ential
78 4
f v
an e
consist ent
ĠO F
Ġen ables
ĠS ti
op tion
C ho
W itten
c q
Ġare as
ĠB ar
}{ }{
Riemann ian
value of
6666 6666
Ġgeneral ised
As sumption
pr incipal
po le
Bbb k
Ġread ing
)) -\
}}\ |
Ġde vi
P f
),\ ]
Ġle x
Long leftrightarrow
Ġg er
' }$,
}) }(
Ġinter tw
Ġsucces sive
m ixed
ĠR iesz
pu ll
Ġcompu tes
il lem
righth arpoonup
che t
Ġdiffe omorphisms
Ġfamil iar
tikz style
^{\ #
Ġco oper
Ġtrac k
Ġp p
F ourier
Ġran ges
@ {}
ch ite
85 9
ck wise
}). $
B ased
re ement
Ġwin dow
W F
om b
ĠK oszul
tri ple
}}\ ,\
Ġout line
requ ency
p tions
fa m
Ġa da
Ġad vance
ĠS DE
ne x
{- }\
ĠMa in
} *{
N AT
90 4
Ġloc ations
Ġlocal ized
/ {\
name ly
19 92
G m
box ed
plothand ler
ro man
Ġkine tic
90 8
" \/"
G K
orem entioned
nice frac
pr p
en ti
}} )$.
( $\
)\ !
00 9
Ġ ĊĠĠĠĠĠĠĠĠĠ
ĠC antor
Ġsite s
We yl
ĠE ven
Ġout puts
Ġre ducing
- {
Ġcaus al
ĠK ey
Ġse es
a min
Ġreal izations
ĠS tokes
Ġtrans versal
G O
AB LE
Ġobserv ables
l hd
45 3
RI X
}( |
Ġinsta nt
ĠS up
cal E
Ġsample d
Com parison
_{ _
ron ecker
or ting
95 6
lin ed
Com pu
0 12
po lation
com position
C Y
a ving
Ġcan onically
Ġsen sing
Hamilton ian
OR D
ir k
triangler ight
ces sible
sen ess
ĠG orenstein
44 7
Ġsay ing
Cla ss
] +\
)}$ $
ĠG raph
F l
\ }^{
cha pter
h x
z ations
Ġf ibrations
Ġeffec tively
70 6
terna tively
Ġparametri zation
cover ing
var s
Ġelect ro
S em
Ġcom pression
be ll
Ġun like
0 25
con clusion
ci ties
Ġimp lied
Ġ nd
n etwork
Ġre action
b as
}] =
S Q
b la
ody nam
Ġc rystal
the y
inter ior
ĠFlo er
2 96
Ġanalog ously
s pe
si tion
ĠG u
s G
no align
^{* }$
r x
mid rule
)} }$
Ġmin i
Ġstar ted
Ġmultiplic ities
Ġnon local
bb on
36 9
m tx
Ġcompa rable
~$ (
Ġ. \
conver ges
78 9
66 6
Ġquadra ture
w b
ĠS tr
ĠâĨ Ĳ
diff usion
Ġorth ogonality
s M
en space
ed a
G ener
Ã ¼
T X
bb E
v ability
A bs
ival ent
ĠU SA
Ġvar ies
30 9
A X
Ġc rossed
Ġser vice
sy n
lead sto
}) }.
^{*} _{
}} &
bo w
fi er
Ġsub variety
Ġinten sity
R m
Ġhom ological
Ġmode led
Ġattemp t
pres entation
ak i
ta ne
ĠAs sumptions
bys hev
T ur
R u
in ds
/ ^
sta t
ĠLe vel
Ġdiff ers
75 8
Err or
Ġthem selves
Mat rix
P ol
Ġc are
cell color
v ised
Ġobserv able
tang ular
Ġprobab ly
^{ |\
os es
H z
Ġaf orementioned
cccc cccc
path s
neighbor hood
ev y
co lation
n umerical
26 3
Ġadj acency
)) ))
Ġ6 3
Ġi i
ÂİÂ ¡
ĠM any
enc il
ill en
75 7
simplic ial
tran sitive
Ġband width
gor ov
h oriz
65 0
65 8
ĠâĦ Ŀ
}) ).
78 6
Ġhist ory
Ġno isy
W h
Ġtrans lations
spect rum
R V
et al
scal ing
Ġev idence
Ġnon singular
Hy p
000 3
con tains
Ġexperiment al
Ġrefor mula
ĠE s
N UM
character istic
Ġh idden
be fore
75 6
Ġelect ric
) )}{\
Ġp anel
al d
94 9
ĠLine ar
R L
X iv
TMP a
] }}
e ast
ĠM an
plit z
| (\
$ ^
H ar
Ġful fill
Ġanten na
Ġexplan ation
di an
utr al
Mar kov
ĠRad on
Ġ) =
AC E
D N
ps picture
yn kin
prim itive
R A
cat code
normal ization
Ġexec u
ra s
80 1
ĠCl ifford
S ur
inter pre
F unc
T ags
ĠMon te
Ġtheore tic
ĠG eneral
45 9
sc end
ĠS erre
c as
Ġanaly tically
67 7
SS S
Ġsha dow
anal ysis
ĠâĦ ķ
main thm
per fect
{\ {
') "
Ġn n
ĠB ol
Ġrep orted
U V
Con jecture
divis or
Â µ
Ġrequ iring
Ġpha ses
y er
\}$ $
Ġ( ?
sche mes
T a
Ġsubstan tial
15 2
Ġcontradic ting
16 2
en ta
Ġhyper graph
] ]:
Ġpre image
Ġdis connected
Ġdemonstra ted
ĠG a
Ã ħ
Ġp lots
high er
W ang
P s
Ġreplace ment
Fin ite
coeffici ents
Ġaddition ally
Ġaverag ing
deg ener
Ġr c
) ^*\
coordinate s
ĠBayes ian
x ag
\, {
Ġ Ċĉĉĉ
h ref
11 11
$}} ;
ĠS ol
e plitz
F q
Ġle d
P AR
ĠG rant
Ġs ti
itu des
Ġmon ic
Ġsemigroup s
Ġst orage
d q
ill s
Ġspin or
Ġma ssive
Ġamb ient
ierstra ss
cal M
R W
sub ject
L ist
] );;
pect ral
Ġans wers
s qu
s hip
Ġsta tic
14 1
vers ally
Ġsp ir
ori ta
as sign
r ings
C s
u su
$ {
Ġsimilar ity
C hen
' >
Ġen hance
Ġ& \\
V I
Ġgra vity
: \\
Ġstr ings
FM ISC
T U
] \,
add to
omin us
Ġre turns
Ġestablish ing
cont rac
Ġcon du
ograph ic
DI FF
40 9
Ġs ho
=-=-=-=- =-=-=-=-
19 90
ĊĠĠĊĠĠ ĊĠĠĊĠĠ
B oth
la ble
E G
Ġs end
Ġdy adic
fl ush
Ġap parent
ol mo
Ġcol imits
34 9
M O
Ġn ested
Ġ[-> ]
Î ±
Ġprog ress
Ġillustra tes
Ġb alance
}) },
Ġma na
P O
48 9
associa tive
L U
| |^
c ancel
Ġ5 9
Ġres ource
)^{ |
N at
0 15
Ġbo son
Ġ6 2
Ġcirc um
pin label
Ġcla ri
Ġexplo it
p w
ac ts
ĠCC fld
ist ration
com b
ex tended
Ġs s
oots trap
A K
cha ble
Ġsem idefinite
E F
Ġinvesti gation
44 4
determin ed
Ġwor ld
Ġabs ence
Ġconne ct
b I
Res ults
Ġorig inally
Ġref lect
O ver
Ġinitial ly
] }(\
up s
do teq
a tively
r q
Ġ6 1
v ate
Ġ rm
Ġwon der
p ot
Ġar chite
F u
Ġ( (\
b or
depend ing
Ġh x
eng ing
de v
ta ted
^{\ ,
Pa th
Ġtil ing
constra int
prop to
ho p
H il
ate st
te ms
27 3
Ġexplo re
b order
Ġimp lying
Ġsur gery
Ġphenomen a
97 9
F e
Ġhol onomy
unit length
se lect
d lem
ĠLa urent
ver batim
; \,
^* )^
ĠThe ir
ex a
Ġcon ic
96 9
~\ (
ĠN M
inc are
m E
Ġour selves
ĠW h
ĠF ano
Ġful filled
y u
Ġvarian ts
Y Y
A v
T W
] ^{-
97 3
Ġthrough put
Ġso on
ĊĊ ĠĠĠĠĠ
Ġmod ifications
\ }=\
valu ation
\!\! \
Ġ ĊĊĊĊĊ
_{ _{
Ġg as
Ġrestric ting
| |_
A nn
30 3
O o
ah n
th ods
ing u
qed here
! $
lef teq
Ġj o
in st
ĠLi ouville
Ġpe ople
Ġimplicit ly
ot al
sta bil
Ġsatura ted
a de
Ġsub scheme
^\ #
split ting
g c
cus sion
ĠV e
var ieties
tiv istic
s kew
the refore
M V
ĠS y
cent ric
compres sible
Ã ¤
it o
ĠC S
Ġclassif ied
mu n
Ġver ifies
g k
Ġsta tistic
Ġ }\\
ĊĠĠĠĠĠĠĠĠ ĊĠĠĠĠĠĠĠ
|= |
Set Fig
SetFig Font
)$ );
Ġpop ular
}\ ,\,
AA A
a w
Ġir rational
t L
ev ent
two head
lo ad
l v
ĠT M
Ġhom ogen
ho le
Ġarri val
A m
s B
ĠB V
ĠN avier
multi ple
Ġutil ity
28 57
Ġiter ate
n umer
60 9
Ga m
ĠA b
is er
.. ..
Ġf st
Ġasser tions
}$ '
Ġext ract
< >
d bar
Ġstack s
Ġneighbor hoods
y i
w or
2 19
in variants
T IN
ĠS p
sche tz
Ġalgebro id
Ġcha mber
Ġsepara ting
ĠCar lo
Ġram ified
Ġconcer ns
: .
Ġ ener
ro bust
\{ -
] -\
80 9
p ation
E l
{ $(
Ġcluster ing
t re
Ġhyper geometric
) _+
e lim
ma rtingale
}} ]\
Ġmon o
B ra
section s
ĠK lein
Ġobser ving
38 9
e z
dom in
Ġde fect
Ġamb igu
mid way
Ġyield ing
Ġclaim s
Ġquick ly
Ġear ly
}^+ $
al ong
j n
Ġhe ad
0 98
cc ur
eyn man
an a
fi les
ĠOb viously
}\ ;\
: -
}| =
Ġdis placement
ĠTechn ology
N ormal
ĠR HS
se mis
Ġcon served
0000 1
ar s
ex pression
Ġne gligible
Ġ$| |
3 20
ĠCon t
95 9
Ġmultipl iers
Ġarg u
hand le
de sign
' ;
Ġpo s
Ġa cknow
Ġillustra tion
k b
conju gate
cur vature
65 4
B N
restric t
Con v
)} :
Ġepim orphism
}} .$$
ĠF redholm
grow th
Ġshor ten
Ġsub algebras
ni k
b imodule
Ġ1 000
ign er
f undamental
Ġ7 2
Ġex ercise
35 9
and au
ma tically
Ġre cipro
ĠEn gineering
_{ <
Ġcategor ical
Ġconject ures
S ystem
Ġchall enging
v d
Ġrepresen table
Ġ ,\\
se arrow
wh ene
Ġgener ically
b alanced
ax ter
nor ms
M ESON
bur g
N A
IR ST
S Y
Ġ& &&
Ġevery thing
duci bility
ĊĊ ĠĠĠĠĠĠĠ
\\ &
Ġvirt ue
Ġclo ser
Ġtra ditional
ĠR ham
gree k
y x
separa ted
[ ]{
Ġto wer
res ol
L D
olmo gorov
pat tern
{\ |\
texts l
0 11
whene ver
Ġjoint ly
+ [
V ect
Ġstra tum
bin ary
68 8
Ġrescal ing
ian ce
B ER
Ġcontribu te
Inte gra
alu e
F ield
Ġsta tion
Sub set
Ġcol imit
Ġquanti tative
tz mann
90 9
})$ $
p ur
Ġregulari zed
Â ·
ti g
) }},
ĠWe il
ĠH an
Par tial
ta ges
. \<
C ond
| ~
ĠEX ISTS
Ġin er
^{ {
*} [
Ma the
ĠCO MP
Se ct
\!\! \!
Ġfib res
ĠN P
in cluding
odu le
at om
ide l
ro se
lat ors
r inf
75 4
ĠM et
J ac
Ġcode word
}| |
dynam ics
ĠAlex ander
is ot
33 9
0000000000000000 0000000000000000
^- _{
Ġs core
Ġsu mming
Ġdig its
So bolev
f ields
let ter
bund les
pgfkeys valueof
st retch
Ġtable au
cal T
Ġrigid ity
ĠA ss
Ġpoint ing
Ġ ĊĠĠĠĠĠĠ
)] ^
19 88
ĠS a
Ġen coded
f schetz
C X
E u
95 3
}] _{
Ġthere by
twohead rightarrow
},\ ]
Ġaut omorphic
ĠCON J
Ġs n
sub space
ĠExample s
Ex istence
ĠLegend re
Ġv an
next char
inu ity
g roupo
Ġfail ure
H I
}( (\
66 9
98 9
$ ''
m D
re main
set ting
S ymbol
ĠC P
res olution
Ġan chor
S q
)| _
_- ,
a gain
v ct
ĠB ob
Ġtemp oral
to ks
Ġsw ap
ĠG rp
color ing
Ġaugm ented
44 6
] )$.
h c
Ġt oler
G rad
Ġtransi tions
ĠPDE s
ĠA D
ian g
d P
ĠO rd
small setminus
ĊĊĊĊĊĊĊĊ ĊĊĊĊĊĊĊ
v z
def s
Ġ6 8
TF UN
B un
tikz set
Ġcu mula
f z
polynomial s
}| _
cl i
Ġw ater
le gend
Ġquad ric
gu illem
in n
70 9
Ġsing leton
per m
}( {
b dd
s mul
G C
Ob viously
Ġdifferenti ation
V a
Ġtru th
Ġiter ates
Ġderiv ations
L O
0 14
id x
=\ {(
)}. $$
[ {
ĠW hit
do i
if nextchar
Ġextreme ly
Ġ, $
Ġmost ly
Ġdev ices
t A
ens tein
be ha
d A
order ing
s ystems
ĠL in
Ġintro duces
Ġfin iteness
Ġ7 4
Ġcoun ts
)) +\
N n
la nds
ĠH u
A U
ĠEqu ations
reg ion
acu te
end aligned
ĊĠĠĠĠĠĠĠĠĠĠĠĠĠĠĠĠĠĠĠĠ ĠĠ
O MA
big sqcup
37 9
fin d
Ġsequ ential
T w
Ġcommu tation
Qu estion
s at
19 91
65 6
ub ert
Ġc ustom
Ġo ld
Ġfast force
Ġper iods
uni tary
Ġsubgraph s
f tarrow
Ġan om
ar cs
cou ra
Ġcof ib
sc at
table of
In s
) }}(
LV ECT
Ġtrac es
C auchy
ĠN SF
Ġadant l
Ġtherm odynam
Ġconf idence
Z hang
Ġcon servative
intro duction
acc i
Ġ+ +
N ot
Ġ %
va cy
sub module
ob tain
og ously
Ġbig ger
Ġasser ts
d X
\ })\
tiv ated
function al
Ġpack ets
tableof contents
^* =\
$\ |
Ġdiffe omorphic
aver age
Ġcom pe
x def
Sch midt
gra ding
Ġadj ust
Ġor acle
f box
Ġin d
bin i
29 3
] (-
Ġre min
96 3
OU S
Ġcar tesian
Ġcor relations
Ġb asi
ĠEq s
lind rical
Ġ }_
ext end
ittle wood
en v
s x
Ġre dund
ni kov
Ġsubs titute
Ġspir it
Ġl in
Q R
Ġpower ful
he l
Ġr ich
addle gend
pro blems
complex ity
ĠĠ ĊĠĠĠ
Ġscalar s
Ġev ident
Ġb ridge
ple d
~ ~\
{ +}
â Ĩ
Ġdis continuous
DE F
b low
ĊĠĠĠĠĠĠĠĠĠĠĠĠĠĠĠĠĠĠĠĠ ĠĠĠĠ
}}$ -
ĠBase d
bi ased
guillem ot
the tic
per ime
ing ly
en ch
_{\ !
ĠLegend rian
ĠC SI
Ġa xi
lap se
38 3
Ġsol iton
Ġsimpl ifies
q p
olla ries
Ġ( #
ĠV ol
u ph
ĠC W
ill i
Ġne arest
] }{\
Ġpro jector
} >\
Ġcomputation ally
dis k
IN AL
text qu
)} [
den oted
Ġconnec tivity
SU M
Ġi tems
]$ }
sta ge
restric ted
ge o
60 3
d W
Ġag reement
2 94
con tained
Ġtrans late
' -\
Ġpa rent
T ree
19 89
Ġtrans pose
)} |\
e ither
{ ,}
Ver tex
ma pping
âĤ Ģ
ĠO nce
Ġcohom ological
effici ent
ĠD iv
}\, (
ĠV ECT
Ġcommuta tivity
S cal
t mp
' }{\
35 3
ur l
set box
Ġout per
68 7
Big gl
ĠAs suming
ĠS T
re ma
r up
Ġse man
ĠB ur
T ate
un if
tro p
Ġv ice
Ġfluctu ations
Ġover lap
Ġidentif ies
ca de
dis tribu
Ġrea ched
Ġpoly hedral
uni queness
ti ght
93 9
Ġellip se
w an
19 87
Ġga mma
68 4
j pg
ov l
77 7
}$ &
ĠCom plex
ĠFor mula
N M
Ġun changed
ĠL Seg
}_{ (\
ur witz
ĠK u
Ġver sa
ĠS ha
Ġsmooth ly
in variance
}}{ |
ĠA LL
iter ion
] }$.
As suming
text greek
bb b
re size
Ġp c
base lineskip
z u
Ġco tangent
Â ´
ke wise
il nor
plan ar
Ġlear n
A rg
}(\ {
Ġremark able
ĠHy pothesis
ok ing
E t
Ġco e
ĠAl ice
$- $\
) }),
Ġwr ong
con text
Ġn u
Ġclassif y
Ġstre am
TIN U
pgfplots plothandler
monot one
Ġparameter ized
Ġplay ers
clo t
Ġo pp
ga uge
B Q
de q
Ġc lar
~ }
Ġreal s
25 3
)) )"
Ġ$- $
Ġreve al
n ion
Ġover view
Ġpack ing
-.-. -.-.
Ġkeep ing
Ġout come
re cy
ĠWi ener
f ound
op n
Ġclassif ying
im por
le ctive
Ġmix ture
Der iv
' [
ĠLe ibniz
Ġevalu ating
pair s
Ġpolari zation
Ġho le
Ġada pt
Â Ĵ
Ġper colation
0 13
C irc
Ġre v
ti a
Ġman ip
Ġingre dient
im g
2 97
D U
Ġpossess es
Ġs c
Ġde t
47 4
pdf string
cha nging
E instein
)\ }\
m P
_* ,
Ġfa c
Ġcondition ed
Ġw itness
0000 000
separa ble
R ight
N et
_* ^
estima tes
F K
is a
\ }_{\
tex or
}/ {
Ġex amin
D ist
onom ous
15 1
W i
ow n
texor pdfstring
Ġ_ )
Ġcur ved
Ġt rick
Ġp seu
for th
Ġequ ally
TINU OUS
ref ine
Ġminim izers
}}$ $
Ġcommon ly
' +\
Es tima
elem entary
I de
] "
Ġ 95
> {
le ma
IN ITE
}\ \[
0 50
Ġfrac tions
Ġs nd
Ġgra dients
eff ective
er c
Ġ }}{
ĠMar io
' )=\
Ġ= ==
Ġw ar
23 1
Ġram ification
in ic
correspon d
5 12
Ġun imodular
Ġ 99
h al
^- ,
34 3
pa tive
Ġpotential ly
] ).
on ds
ĠOp tim
ĠA m
Ġ7 6
ĠTh m
v phantom
u f
= $
Ġsimplic es
x iv
Ġro tate
Big gr
z b
Ġconf usion
Ġse ed
ab or
Ġb ootstrap
S N
Ġm pb
f requency
fin itions
clot omic
Ġ ll
s ks
resize box
Ġdifficul ties
Ġd amp
^- (\
Ġ$( (
Ġth m
if ert
Ġ ^{(
ven ess
P V
IN E
in finity
| ^{-\
f olds
]= [
E v
\! +\!
$, }
reg istration
ar bitra
E ven
ĠâĨ Ķ
Ġ8 1
he at
Ġtri ed
A DD
B ack
Ġh ermitian
30 1
Dia mond
R B
ver age
Ġrelax ed
d one
Ġrecur rent
m M
ne iro
Ġrec tangular
\}. $
ĠT ar
Ġgroupo ids
Ġper forms
Ã ¨
Ġf ract
n il
FF F
Ġlink ed
ĠB etti
Ġcur rents
sign al
Ġori entations
K R
dy n
Theorem s
ĠR F
c tible
ĠM L
ĊĠĠĠĠĠĠĠĠĠĠĠĠĠĠĠĠĠĠĠĠ ĠĠĠĠĠ
s frac
Ġbran ched
ough ly
O rd
40 3
Ġcancel lation
ach ing
Ġincre ased
90 3
av g
Ġattract or
ot ents
ps set
Ġfa m
68 6
if undefined
Ġpropor tion
'' (\
AL UE
ĠL u
trac ting
L y
ĠCar neiro
ful ly
Ġtran scend
}^* (\
in er
Ġins ight
im mediate
dynam ic
36 3
Ġabb re
in formation
Ġdou bly
con n
Ġpolic ies
Set ting
$ }{
move to
Ġex position
Ch ar
Ġinf e
}{ *}{
Bo ok
T s
\, {\
}' (\
Ġ= -
ĠAd ditionally
lo ch
ĠMat rix
N umber
con tro
Ġ 78
q t
20 2
A W
] ]$
ĠTh roughout
Ġnor med
^ !
ro ots
ext ra
lf and
Ġde li
AC T
se mic
Ġoscil lator
Ġask ed
C u
min or
* ,
GS YM
E nt
comple ment
j s
} ',
66 3
Ġintegra ted
f M
> $
im ura
ĠSch warz
compu te
^* }$
Ġro tations
Ġ 85
ĊĠĠĠĠĠĠĠĠĠĠĠĠĠĠĠĠĠĠĠĠ ĠĠĠĠĠĠĠ
trans formation
Ġcorrect ly
}) =(
be ds
strict ly
col ored
ĠUniver sit
ĠH el
)\< ^
ti os
For mula
arrow s
Ġfrequ ently
Ġsui tably
oted bl
> }
le cu
Ġ( !
t k
} &=&
xx x
im od
bf u
no i
= [\
P b
Ġexhi bits
& .
ĠS tar
rr r
ref f
F ree
L ower
fig s
Ġposi tively
weigh ts
uph arpoon
MA P
ĠRE LAT
ĠC ARD
Con struction
D b
cy c
Ġrece ive
la tive
equ als
Ġk inds
U CL
Ġg re
O A
q s
O nce
al ph
40 1
Ġrescal ed
R H
Ġindividu als
ĠT hanks
m set
Ġtra ffic
an ov
ĠDel igne
17 2
Ġener gies
tic ity
t rees
$ }\\
Ġ\( (
Ġstructure d
Ob j
pgf set
ĠHamiltonian s
el t
ĠÎ ¹
P p
ĠR ay
textqu otedbl
g x
Ġexten sively
Ġsubt le
16 1
j math
^+ _{\
err ing
] /(
ĠD ynkin
ĠIntro duction
68 75
Ġnonlinear ity
Ġequilibri a
ĠChe byshev
Ġimpro ves
C one
u w
geodesi c
dire cted
F f
s quares
Ġme rely
Ġrecor d
\, |\,
E GR
Ġcheck s
pr inger
he ap
asi bility
Ġmedi um
r iting
S B
98 3
e ig
H am
ĠF q
99 3
Ġen jo
| )\
bel ong
rest r
< <
j p
addlegend entry
M B
Ġdev ice
\!\!\!\! \!\!\!\!
ĠPro b
on ometric
center point
^{- (\
Ġne f
Lag range
We ak
ho st
Ġ7 3
Acknow ledgments
F UNC
A g
pgfplots table
A dd
\{ |
Ġde formed
ĠPro f
Ġcus pidal
)$ ),
der ived
B anach
Ġup dates
finite ly
pa red
re write
CC C
Ġpass es
Ġr s
Ġlinear ity
Ġ@ >>>
C y
i ence
[ ];
ĠS m
Ġc au
is enstein
T f
per s
D ual
Ġadd ressed
P lan
ex cept
t X
re pe
> -
Ġ6 9
ste alth
Ġo c
. }.
S k
Â ¨
'' _{
Ġrela ting
^{ +\
st ream
Z ero
parame tri
Ġun countable
S tein
Ġtrans lates
Ġans atz
44 9
res pect
ta x
Ġ`` $
tran sfer
B asic
ĠDo es
ĠHa damard
F OR
Ġstra ta
Ġrela tes
65 9
pro g
H ilb
Ã ª
later al
M W
Ġput ting
p de
: {\
Ġreal ize
S n
end proof
I ter
Pro d
B x
asser stein
decla re
$$ |
ib ility
en n
para bolic
Ġhe xag
Ġe leq
}\ \\
]{ {\
ĠB ru
b nd
.. <
Ġelect ron
pres s
pre lim
Ġ= =
Ġ7 1
g ly
Ġentangle ment
Ġsub script
Ġbeha ves
Ġface ts
Ġinc idence
lefteq n
Ġ 96
ĠD MS
Ġbeam forming
Ġconven tions
ol s
Ġme tri
E B
ar ding
Ġcalcula ting
Â ļ
Ġin jectivity
ator y
ge ometry
% %
bf v
ĠK ronecker
Ġcu ts
o cl
uff le
ĠC at
le igh
ab a
Ġcent ers
R an
Ġprocedu res
to k
di tivity
pre tty
Ġplace d
ĠL og
ĠPhysi cs
M c
side s
ķ ľ
I E
Ġ"( '
}} )$,
ĠK ac
p redic
Ġ ],
Ġtan gle
Ġnumer ator
^* }(
ĠL ang
ĠS IMP
Up per
Ġfair ly
In itial
R edu
ob jects
Ġsee k
) _{(
han nel
Ġimplic ations
pu bl
ma g
wr iting
ĠU AV
Ġcom positions
ce p
Ga uss
fib er
dis cre
Ġad vers
(\ ()
inver tible
le ast
q r
ĠCon s
er ule
Com ple
Ġcha nged
Ġlabel ing
Ver tices
J S
Ġformula tions
Ġla nd
ic ular
Ġfill ing
htt ps
Ġ~ (
23 2
Ġcon sumption
22 1
sla shed
Ġ. &
anal og
Ġh u
ĠBer nstein
Ġdevi ations
ĠCla ss
85 3
to day
n v
}| }
Ġ7 7
cise ly
Ġ })
ĠA B
ĠS ing
67 4
Ġmaxim ize
Ġ\ >
Ġcover age
Ġf lo
ator ial
ric hed
ĠF I
satisf y
m ented
log arith
Ġ& $\
di tary
Ġreg ret
U B
' }^{
[ |
H ausdorff
sc an
Ġne ur
h old
Ġfor mat
Ġcobord ism
Ġappropriate ly
_ !
la x
Ġh f
Ġsection al
t al
18 2
Âİ ÂŁ
han non
m kern
S tra
Ã »
sh or
om y
imodu les
Ġref ere
Ġcent re
Ġno etherian
Ã ¡
pend icular
AB C
P Y
min ation
ĠL m
] &\
Ġwe dge
qu ot
M i
H igh
mu t
us es
Q P
Ġpoly hedron
n w
ĠO N
Ġsub st
H ow
Ġd ra
thin space
convex ity
$$ {\
necess ary
ga ard
F B
19 86
^* +
)} )$.
pan cy
Ġ|| .
MAT CH
T an
Ġ& (
Ġ\{ -
Ġuni verse
A Y
' ).
)}) ^
Ve ctor
ilibri um
I mp
b alpha
y d
Ġfam ous
B orel
b id
ĠFig ures
Ġmoder n
Ġan isotropic
g w
/ -
ste ps
cccc c
Ġover come
pr f
ta ting
&& +\
Ġ` (
Ġdiag on
um ford
47 9
ĠR am
Ġgeomet rical
r ling
Ġoccur rence
Ġde s
ival ence
Ġ= :
s plits
Ġany thing
m ical
Ġ }$.
Ġschedu ling
Ġres ources
75 9
Ġl ifted
po in
array stretch
dis p
s R
po ssible
O therwise
ench mark
64 6
70 1
il son
Ġcor related
ull er
d ou
Ġ8 4
ĠQu estion
ĠC hen
Ġrandom ized
Ġe ight
gen us
black square
Ġfe wer
ab br
ĠF k
\| =
Ġta ut
e h
Ġpredic ted
x vec
ĠBe fore
ĠN a
Ġclo sest
Ġh tt
$ [\
Ġg reedy
37 3
Ġna ive
S to
ĠPol ish
T u
m F
Ġstu d
mer sion
r im
Ġ| (
ĊĉĊĉĊĉĊĉ ĊĉĊĉĊĉĊĉ
Ġconcaten ation
hi ps
)) _
Ġcheck ing
factor s
ve ction
Ġfore st
' re
) ^*$
Ġcombinator ics
Ġrobust ness
pla ys
Ġgraph ical
tane ous
D a
con c
m X
ĠF IRST
par box
D H
@ /^
ĠS CM
Ġreflection s
Ġ\; .
m H
Ġcareful ly
Ġtang ential
q c
ĠSch wartz
Ġin homogeneous
Ġser ve
Ġcurrent ly
ib on
]{. /
& '
67 6
&= -\
urst on
)| _{\
ĠMax well
ĠN ash
/ {
Univer sity
f S
Ġa part
ob ius
Ġ) (
ĠE nd
I A
Ġex pl
triangle left
Ġadmit ting
, [\
ĠA cknow
C Z
Ġis otopic
, '
] )=
ĠF l
ĠD av
ĠI H
B in
re ver
row s
f C
Ġh d
A rr
Ġsha red
Ġen able
p un
ĠX XREAL
F n
] }$,
|\ ;
Ċĉĉĉ Ċĉĉĉ
R r
}) ),
Ġsta ting
t T
Ġface t
n om
ĠCla ssification
SS N
var ying
13 47
ma jor
Ġenumer ation
19 85
Ġp ort
Ġ 94
ĠC lo
Ġnd x
)\ }$,
Dia g
Ġdomin ating
e psi
Ġex haus
Es timate
Ġlim i
90 45
= (-
Ġf s
rinf eld
h v
Ġstabil ization
k g
)$ \\
}) >
the ir
\| (
Ġt uples
R b
Ġno tes
op p
}] }
Ġexce ption
Ġlinear ization
si te
Ġdis covered
ĠM as
Ġac qu
0 23
Ġ= -\
Ġga ins
Ġmodu lation
Car tan
Ġuni ta
' }_{
dots b
O AL
n rm
A a
ex am
ĠS che
ĠL am
ĠM ap
as se
v k
)) |
dist ingu
f x
Ġri bbon
ĠH ermite
17 1
Ġmul tic
; $
_ |_
Ġ\, $
on a
el s
ĠV tx
Ġext rac
s ort
Ġr al
}, (
ĠT ate
88 8
| }$
L c
Ġb imodule
)). $$
ord on
orph isms
en o
Proof s
Ġmark et
Ġ7 9
Ġh er
( "
Ġund irected
re turn
Ġ ĊĊĠ
Ġsuffic e
och schild
un fold
Ġdri ven
ĠL E
F robenius
Ġ| _{
ga ussian
he t
}) )$.
ĠC how
u ro
ĠD ar
Ġqu ali
Ġp ul
us z
] /
& {\
an cy
Ġver ification
ĠM ay
ti mum
Âĳ ă
ĠW ang
U S
N amely
Ġres olutions
Ġado pted
Ġ' &'
ob servation
Ġsim ulated
ĠS ET
mat ter
fol ded
Ġcongru ent
Ġsa w
Ġmini max
Ġexpla ins
Ġf v
ĊĊ ĠĠĠĠ
uc lear
E LL
Ġtable aux
C ap
e uler
sub algebra
Ġg ot
Cha racter
Ġspre ad
ĠU ni
Ġdissi pation
D t
Ġmonot onically
para tion
) }^\
)] $.
Ġax es
pref ix
18 1
Ġprox imal
)] ,
a wa
h rule
assu mp
fill color
xy z
Ġdec ide
equ alities
ĠP et
ti y
Ġdecom poses
$$ (\
lon e
Ġgap s
}=\ {\
Ġaverag ed
lo o
r me
Ġn il
Ġlex ic
Ġprojec ted
Ġsecond ary
l le
on omic
ĠF ind
-- (\
)\ ).
ĠH iggs
Ġcre ated
Ġsemis table
cal B
Ġ8 3
ge om
Ġtra in
48 3
Dec om
F SA
ĠâĪ §
Ġco product
j m
94 3
sl ice
)| $.
^{+ }
o pacity
ĠC A
6 00
ĠFu bini
` )
Ġex pen
phant ine
R et
ĠP lan
H ess
Ġreach es
I den
Ġou tage
ĠSet ting
50 5
}} ),
Ġser ver
in clusion
ĠL ax
.. .\
Ġin compressible
Ġp m
pro c
Ġsyste matic
ĠH ee
ns tile
Ġminim ality
D im
Ġg ate
Ġ. _|_
Ġobsta cle
ĠG S
olog ically
Q G
$ "
Ġtriang ulations
re lliptic
Ġrapid ly
ĠGal erkin
I H
con centra
Ġsuper algebra
ĠB i
}{ [
bra ket
Ġsa fe
ĠGrassmann ian
co inc
... ,\
ĠF er
Ġcy cl
Ġgre atest
B el
righ ts
Ġ\ @
mo s
Ġanalog ues
Ġgrow ing
Ġ[ -\
pull back
dis tributed
)* {\
Ġ`` $\
< +\
V S
light gray
matic a
ĠS paces
Ġs pi
con ven
k d
fill style
N um
K h
v rule
ir ch
ĠH all
t H
bf f
Y ang
sing leton
Ġf unc
As ymptotic
Ġsh aring
o z
Ġas pect
Ġch iral
Ġbene f
ĠTo eplitz
ĠS olution
S z
circ led
Ġde als
Ġcon formally
P B
Ġminim izes
Ġend ing
Ġem beds
Ġ ĊĠĠĠĠĠĠĠĠ
pon ential
cer ning
ic o
lat ory
K N
ĠM orita
ĠÎ ¼
Ġname d
olu te
Ġ+ (-
}), $
{\ "
}^{ {\
Ġdec ou
ĠEqu ivalently
degener acy
e i
F c
D irac
E nergy
Ġ1 20
O B
Ġs ensor
^+ )
Ġend omorphisms
ĠF eynman
ab il
me l
o sc
Ġinsta bility
bib item
un e
Ġrectangle s
Ġp in
A H
ĠC ur
Ġchar ts
Ġcommun ications
) ~\
CMP LX
}) --(\
P et
y tableau
ĠA N
normal font
cod im
Me an
to ken
ĠMe an
Su mma
] })
Ġg erm
Ġmatch es
state ment
Ġplot ted
Ġ* *
Ġwave let
g lob
ĠĠĠĠĠĠĠĠĠĠĠĠĠĠĠĠ ĠĠ
commu ta
ime ter
Ġmon oids
key word
Ġsub complex
Ġpubl ished
M ills
u its
Ġta sks
Ġelim inate
Ġf old
}^{ *}\
page ref
Ġtopolog ies
= |\
re ct
ir y
cha ins
Ġ( "
Q U
z t
hyper ref
Ġappe al
R i
lemma s
Li u
11 53
Ġbra ided
SP ACE
s V
. ||
Ġpro positions
ĠBes ides
al ga
su rf
19 1
contra dic
Ġrepeated ly
\{ -\
^+ }\
60 33
Ġrestric tive
( '
sv g
s pr
{ }_{
Ġmu tation
Ġfor th
3 24
pi e
~ {\
},\ ,\
Proper ties
P W
adap tive
E st
stra te
' }_
ee b
asy m
A i
ĠF il
ĠD ata
tri b
Ġacce p
Ġpor tion
ĠO RD
(\ {\
ĠOr der
nam es
or ig
ut ine
Ġre port
Ġ8 2
Ġchild ren
}} }(\
Ġpro files
sha dow
ns on
Ġus age
$$\ |
bou x
is ometry
col sep
W T
Ġen coder
New ton
Ġ\ ,\,\
Ġquar tic
end proclaim
ĠF orm
irk hoff
Ã «
Con f
)$. \\
ex pect
Ġexten sive
}}{ {\
Ġmo tions
ĠâŁ ¶
cont raction
rm i
P hase
or on
Ġup dated
con figura
$ ]{
d der
I ts
19 83
Ġsent ence
ĠT ra
E m
ĠT ri
sq subseteq
perime tric
&= (
fa ult
Ġpo sed
Ġchar ges
eren ti
Ġfoli ations
Ġdisplay ed
omorph ically
Ġp l
AR T
)` ,
| +|\
c frac
la pping
^{ [\
Ġrandom ness
Ġs ound
H J
Ġslow ly
ĠM R
ĠSe ifert
ula ting
ĠLe fschetz
Ġes t
Ġvirt ually
di ver
Ġis ogen
F i
no sov
fl ip
), (\
Ġef fort
Ġcy lindrical
ĠBol tzmann
Ġs top
},\ ;
La st
77 6
Ġ} =
ou se
C U
am alg
H i
Ġplay ed
Ġreve als
L I
Ġs ink
ĠQu illen
S DE
Ġintu itive
L im
dd d
B axter
ĠORD INAL
D et
P ower
Ġdeca ys
Ġf ont
ti e
k f
r H
Ġb rev
ti veness
round ed
md default
as m
Ġdisper sion
Ġ( )
0 90
_{\ ,
ĊĠĠĠĠĊĠĠĠĠ ĊĠĠĠĠĊĠĠĠĠ
ĠR IS
Ġbrev ity
Ġ|^ |
Ġprinciple s
proof s
Ġframe d
Ġdou bling
suffici ent
46 9
))$ $
Ġstreng then
á µ
ĠS tra
Ġtw ists
bf series
par s
B re
ra p
Ċĉ ĠĠ
ex ec
sta tic
Ġmesh es
Ġidemp otents
$, $
Ġcontrac ting
io phantine
Ġsimultane ous
60 1
ĠWe ierstrass
43 9
ov ich
ĠUn fortunately
Ġb enchmark
ÂİÂ¡ ÂįÂĳ
Ġ 97
W ave
)! }\
Ġign ore
-\ {
Ġ. \]
en ed
flu x
defin es
Ġsuccessful ly
ĊĠĠĠĠĠĠ ĊĠĠĠĠĠ
Ġpri vacy
3 16
m B
Ġ9 2
TR AN
z ag
Ġsta y
mean s
ĊĊĊĊĊĊĊĊĊĊĊĊĊĊĊĊĊĊĊĊĊĊĊĊĊĊĊĊĊĊĊĊĊĊĊĊĊĊĊĊĊĊĊĊĊĊĊĊĊĊĊĊĊĊĊĊĊĊĊĊĊĊĊĊ ĊĊĊĊĊĊĊĊĊĊĊĊĊĊĊĊĊĊĊĊĊĊĊĊĊĊĊĊĊĊĊĊĊĊĊĊĊĊĊĊĊĊĊĊĊĊĊĊĊĊĊĊĊĊĊĊĊĊĊĊĊĊĊĊ
Ġbro ken
&& +
Ġ '''
C n
be ck
preser ves
cal V
0 75
Â Ľ
r To
D K
T ran
ĠH o
}] .
77 4
igh ted
sn r
H c
re place
0 88
de st
i tary
Ġatta ck
Ġfig ures
T erm
Lapla ce
Ġexpand ed
Ġn um
s N
s atura
new if
n q
} *
im port
ĠFo ck
e mb
Ġref lected
, &\
ĠT R
ĊĉĉĊĉĉ ĊĉĉĊĉĉ
Ġelimin ation
R ank
ĠP ick
I G
Ġblow up
ĠBra uer
Ġfor mation
Ġ= \{
ou red
ĠA C
' <
$ _{
back ground
ca pacity
E O
}} }.
ist ent
}). \
RE S
B or
ri l
Ġpartition ed
Ġrever sed
f rk
or ation
ĠA xiom
M ay
make at
Ġfil ters
v g
Ġhy dro
ind ices
squ nion
Ġpack age
de p
ĠC N
Ġ 93
}\ ).
(# )
ic t
Ġco ded
is ations
Ġal loc
m al
67 9
ie gel
Ġat tains
ga cy
Ġch romatic
E e
n big
ucl id
leq no
ĠQ ed
B s
ze l
68 9
tic ing
$& $\
" };
Ġ} _{\
bra id
E MP
S g
y ields
Ġ1 28
tag on
Ġsco pe
}, -
bb N
v atures
Ġ tau
| }{|
Ġ> \
' }=
ĠRe lation
Ġstra tification
Ġl ists
^* )$.
)$ --
)) /
19 84
ĠS ystems
Ġoccur ring
pgfpath lineto
Ġinter acting
{ [\
ĠDe hn
L W
= }[
K r
Ġcofib rant
} ]{
}) |\
u h
H ermitian
= }\
mu st
ĠF a
64 9
Ġconnec ts
Ġ ĊĠĠĠĠĠĠĠĠĠĠĠĠĠĠĠ
55 5
con str
trans pose
w ang
}} ).
s pherical
Ġmo lecu
ou nce
Ġzero es
j ust
} ')
ca vity
ĠGe ometry
b rk
ers on
defin able
Ġ9 1
,\ <
Ġdistribu tional
Ġisot ropy
co ef
be ing
Ġg lue
ĠF act
78 3
Ġdraw ing
Ġco algebra
Y u
la bility
Ġsha pes
Ġsec recy
a rance
Ġbeha ve
K n
pl ink
compu tation
Ġaver ages
Ġ( _
ĠO ut
Com bin
is ha
Ġco kernel
ĠM SE
)}\ ,\
Ġsemic ontinuous
Ġtable s
}} }_{
ocl inic
tikz external
Ġal one
T t
de x
f X
Ġfi bered
Ġcharacter izes
de le
T I
K e
S ign
reg ulari
ify ing
Let ting
pgfmath set
Ġ8 6
Ġ~ <_
le ave
ee e
dx dy
pr imal
Ġbo dies
ich ot
Â ª
Ġ~~ >
t wn
ins ler
ĠMe thod
ic i
D O
Ġn f
respon ding
OL Y
v box
y g
Ġcode words
ĠS P
ab bre
ill er
CL O
Ġlog ical
ymme try
pages tyle
triang ular
Ġdiscreti zed
Ġarchite cture
o ma
Ġ8 7
Ġf its
t ale
di vergence
Ġnotation al
ĠL P
ĠR LVECT
Ġpun ctured
Ġtrig onometric
{ ~
_{+ }
Ġ 98
}^ +(
j b
on i
Ġco sets
ĠBe the
tiy ah
ĠK an
@ }
,\,\,\,\ ,\,\,\,\
y ou
x f
block s
F p
sp ension
ren ces
\ },\\
display break
consist ency
' |\
ĠA ctually
Ġ[ `
}}\ |\
b an
ma nu
Ġsugges tions
approxima te
. [
Ġtil ting
us cript
Ġ_ |_
B b
Ġmultipl ied
lo cale
Ġ} ,\
an cial
ĠJ ensen
ĠCar tier
number s
Ġbre q
> -\
ex ce
Ġp si
Ġc ause
ĠT Y
^{\ {
Ġtherm al
ic ode
}+ {\
T y
)) ^\
Ġ8 8
frac tional
en tific
Ġaccording ly
Ġper pendicular
@{ =}[
Hy per
d int
ne ga
Ġjus tified
Ġpolyg ons
Ġme t
Ġ\,\ ,\,
forma t
chan ges
at ou
Ġre tri
Cha p
- /
arg ument
Ġget ting
> ;
b dy
Ġhe avy
Ġexpec tations
cor relation
Ġcollection s
H N
ALUE D
L F
ĠCompu te
B ur
24 2
Ġpat ch
Ġmon omorphism
ibon acci
35 74
ne arrow
iv ity
; )
Ġse ven
ĊĠĠĠ ĊĠĠĠ
unit al
0 16
G B
ul ia
Pro duct
(\ ))
Z F
Ġcu toff
Ġsup posed
H at
Ġdesi rable
Ġambigu ity
S che
Ġingre dients
modu lo
)= [
Ġra tion
f on
Ġ\ }}
proxima tion
po ch
my color
adj acent
tif ying
Âĳ Ą
ĠJ i
}\ },
fa c
a ccording
Sum s
T est
com ma
)= |
Ġ8 9
multi ply
at ter
Ã ĩ
Sch ur
)| }
Ne umann
Ġmaxim ization
lim ited
Ġdi hedral
P u
w z
Ġexplo iting
Ġcumula tive
Ġmin ima
er ci
Ġt en
ĠL Mod
ran ts
s ave
0 33
i q
0 30
Ġp encil
$ =
R K
(\ ,
Ġoptim ized
Ġprog ression
Ġ1 05
la ss
p rt
ho mas
ord in
=\ |
= ~
x space
ĊĠĠĠĠĠĠĠĠĠĠĠĠĠĠĠĠĠĠĠĠ ĠĠĠĠĠĠ
d ra
at s
),\ ;
en ko
ĠO ther
ic a
Ġevalu ations
ga me
line break
> |
de kind
AT ION
ĠSch ubert
Ġin verses
ĠPoly nomial
) _*
$ ^{
psi ze
b us
cal R
In put
ĠC ent
con stru
Ġanti po
he aves
per t
Ġno where
ĠRec ently
Ġclassi c
ĠInte gral
) }^{(
prote cted
Ġforget ful
{ }&
titu de
Ġenvelo pe
Ġdesign s
Ġread ers
d j
comple tion
d F
Ã Ļ
Ġle aving
s K
inde pend
Out put
ps circle
Ġgeomet ries
gener ator
s se
Ġcon duc
pgf linewidth
f ied
R andom
ph t
ub ble
ĠN etwork
_{ #
Ġanaly zing
Ġma ster
Ġ\| _\
}} )=
jec tives
E lem
k v
65 3
diff e
Ġcentral izer
lear ning
/. (
ĠNo tation
E lement
_{ ,
com mon
â ī
pre ms
P Q
w u
ĠIn formation
Z p
] }_{
ĊĊĊĊĊĊĊĊĊĊĊĊĊĊĊĊĊĊĊĊĊĊĊĊĊĊĊĊĊĊĊĊ ĊĊĊĊĊĊĊĊĊĊĊĊĊĊĊĊ
Ġ- (\
ĠE rd
O h
24 1
] )$,
ee l
Ġsu ff
lan g
bf y
u ine
Ġra tios
ob er
eigen values
Ġb s
}$. \\
( +)
th ird
tribu te
44 3
classi fication
26 2
bb r
cy l
Ġmin ors
ĠĠĠĠĠĠĠĠĠĠĠĠĠĠĠĠ Ġ
^+ )$
Ġhome omorphisms
d on
Ġmathe matic
Ġdele ting
ps on
Ġ }$,
$ }}}
O ther
{ }$
ire ct
de m
on eda
ne ed
ci dable
ra k
Ġe labor
ĠM ate
d in
factor ization
V i
w ing
Ġdo ts
UCL ID
Ġas ymmetric
Ġres er
T N
Ġbe ta
UN IV
Ed ges
~~~~~~~~ ~~~~~~~~
Ġd ura
safe math
ĠZ hang
Ġdom inates
sha ped
v center
K w
T au
lo s
Ġre ward
ĠMo st
ĠO P
Ġa ware
' })$
ce du
Ġderiv ing
Ġsoft ware
08 7
78 125
P c
ton umber
}/ (
gg ed
ĠD er
}) /\
ĠB C
pz c
ĠQ Q
< |
H OM
Ġc ub
,\ ;\
Ġproceed s
] .$$
IV E
olic y
BG OAL
integer s
Ġrear range
if th
pres sed
Ċĉĉ ĊĉĉĊĉ
*# *#
H R
Ġequ idis
ga uss
D av
Ġre li
Ġalgorithm ic
Ġex it
Ġlink ing
}- {\
|, |
gl ue
it ons
âŁ ¨
G rid
vari ation
po p
ak er
)] =
sa ved
es p
Ġvor tex
pgfmathset macro
ĠK olmogorov
Ġmotiv ic
Ġimmer sed
int r
origin al
Ġb ialgebra
}}$ }
Conclusion s
Ġ{} "
ĠM y
Ġconstru ctive
proj lim
Ġ\, =\,
jec ted
Ġdetermin ants
Lapla cian
Ġ ]$
Ġt alk
ĠN ormal
)= (-
au g
ĠTop On
g ro
gener ate
, |\
eter min
ĠSub ject
Ġoscil lations
f re
Ġdistribu tive
Ġpay off
. {
in her
Ġcho se
Ġin iti
bed ding
inter nal
Rec ently
+ +(
Ġ\; ,
Ġout going
Ġdis j
scal ed
inf o
top rule
Ġmulti set
{ *
sp c
SU RE
eigen value
ĠB erg
Ġf f
Ġchallen ge
ur y
Ġelse where
u z
fin ing
iv ita
^{+ }_{
du p
Ġme tis
Ġpers istence
Ġ, $$
*} {\
ĠW ill
Ġpropa g
illi ard
ĠS tru
ĠB or
arbitra ry
hol tz
Tur nstile
Ġmechan ical
Ġn uclear
0000 01
ĠR eeb
u bar
D V
Ġop timum
as so
Ġext ent
dx dt
}( |\
Ġv H
:= (\
J an
val ent
mon omial
j x
)=\ {\
Ġ }\,
conver gent
ĠA da
Ġem er
Ġout lined
Ġstra tified
Recall ing
-------------------------------- --------------------------------
@{ --
ĠTh om
math pzc
Ġtransi tively
s I
0 17
Ġp iv
+\ ,
]{ -
tt t
)) )\
CA SES
so ft
Ġ ;\
ĠB twn
hol der
Ġtrivial ization
adap ted
permu tation
ar Xiv
ĠIn itial
){ {\
28 125
Ġb irth
s keleton
Ġinde termin
Ġâī «
ĠCal c
m h
multi plication
ĠGa mma
groupo id
ĠIn equality
Ġregard less
Ġpo w
local ization
19 80
50 4
ĠM ilnor
12 34
Ġreg imes
Ġh im
D irichlet
Ġmaxim izing
ĠĠ ĊĠĠ
Th ree
ĠEs tima
be st
Pr im
K G
] ),
pen al
ĠE isenstein
bi us
appro ach
ĠF rance
ka i
Ġp red
fi bra
Ġdi lation
vi tational
B X
ilton ian
Ġsec urity
âĨ Ĳ
~ ,
Ġd m
Ġperfect ly
Ġne g
Ġen code
v h
Ġadap tation
Ġ1 14
ĠF e
Ġsub goal
Ġsub matrix
25 2
T rue
equ ilibrium
Ġ-- (
Ġampl itudes
b Sigma
Ġa bility
in cre
^{+ }(
19 82
me t
H V
ur is
ĠH ochschild
'' $.
integra tion
l j
Ġsen sitivity
tri es
Ġco chain
Ġsta ges
ĠCon struction
ĠLorentz ian
ĠF F
ĠK er
CON J
Ġatta ch
3 14
ar xiv
ĠSta tistics
mat ching
ĠLo cal
r S
in stead
Ġdig it
ĊĠ ĊĊ
box plus
G w
," \
x min
INT EGR
Ġmana ge
O c
l z
ft rans
}\ }.
iff alse
Put ting
)}\ |
H an
j es
ĠS how
ode s
ĠI RS
B U
b idden
Ġmultiple s
Ġcom pre
ĠG ener
t q
u te
Ġ[ âĨĲ
y e
}_ -
GR OUP
gr p
Ġcommun ity
Ġcur vatures
moment um
sq inter
ĠF ield
Ġneighb our
Ġe ase
ron wall
Ġho les
c il
domain s
D own
conver ted
sc ap
M any
ta king
Ġdete ct
Ġun certain
G s
Ġcha otic
ĠN E
05 5
Ġsome one
aut omorphism
Ġform ing
Ġquaternion ic
T ern
Ġbar rier
'$ }
\ ;\;
ĠG ram
ĠFin ite
ĠInte ger
oul omb
SE D
}\ ;\;
}) }}
Ġdiscre pancy
ĠHee gaard
Ġdesc end
+ }\
Ġf und
ĠS k
Ġdown link
50 8
ĠTop Open
0 35
rang ed
*} (\
_- (\
ph y
ct r
ĠĠĠĠĠĠĠĠĠĠĠĠĠĠĠĠ ĠĠĠ
ĠSy low
kin ds
N LS
}{ *
Lo op
15 625
&& &
S el
C ent
Ġto uch
Com paring
Ġin coming
Ġexce ll
n ilpotent
Ġcomp ens
UN ION
D d
semb les
col lection
EX ISTS
s pl
Ġy shift
Ġser ves
ĠðĿ ķľ
d ar
usz tig
i res
G lobal
plicit ly
}/ {\
Ġc dle
physi cal
Ġcom mand
e eqn
Ġde fault
q n
Ġ$| |\
olu tive
}] (
ledge ment
) }).
Ġs kip
B en
h nson
Ġemplo ying
Ġmon ad
Un iform
Ġcondition ing
erg ing
ĠS chool
Ġrever sible
ig e
ĠM S
3 10
horiz ontal
inter text
zz o
E uclidean
Ġpro duction
ĠC PU
le ading
Ġdemonstra tes
er man
sta ction
ĠE lect
sp ite
t us
um es
Spec ifically
s rc
ĠS ystem
Ġadvan tages
T B
in als
til ity
es tabl
Ġquad r
S er
Ġcontribu tes
m L
fil tration
^ (
Ġis n
ĠCompu ter
ĠB u
}_+ $
is hi
Ġg rids
Ġeq eq
Ġcon vert
Ġsub ring
l st
(( (
F s
X u
Ġpri vate
Ġreduction s
interval s
gener ating
MAT RIX
Ġsho ck
Ġbasi cally
S imple
T ARSKI
ĠĠĠĠĠĠĠĠĠĠĠĠĠĠĠĠ ĠĠĠĠ
)+ (\
b nu
}} [\
bf X
dd r
Ġh s
VV V
an i
cha p
tor ic
draw Color
Ġspecial ization
Ġcut ting
s ti
Ġassign s
Ġdiver sity
la nder
Ġvehic le
Ġa rm
Ġtrac king
Optim al
f A
R ate
to c
sta nts
o ke
Ġi ota
Ġref l
t G
trans lation
Ġrecover s
le ts
) }^{-
Ġph ra
equival ently
ĠVe ctor
S ep
Ġm k
ST R
lu gging
a ded
ĠR ight
K V
na k
ĠB en
)}$ -
u g
Ġc dlem
Ġb ring
Ã ¢
pm ents
50 6
ĠSU BGOAL
Ġdissi pative
P res
ĠS E
Ġband s
d G
LE M
M IMO
Ġd V
bu ild
57 6
] .$
ĠRay leigh
^- }
ĠD ia
co arse
cong ru
ĠPro duct
Ġcau sed
IN V
77 9
Ġquad ri
per f
)) (\
Ġ ĊĊĊĊĊĊ
Ġne utral
r z
deriv atives
ga tes
EX T
Ġu plink
Ġpro mis
lan k
{\ ,
Ġ= &\
ĠS to
Ġpub lic
Ġman uscript
w v
su ff
Â ¥
ed ia
oun icode
ĠLa w
M ag
T aylor
B c
Ġ" {
un k
Te X
ĠTY PE
Ġde e
ĠR andom
Ġsta ys
oto pies
pdf gly
pht ounicode
pdfgly phtounicode
y th
ha pe
C ivita
Ġf ram
Ġcy clotomic
Ġsequ entially
Ġop posed
G g
rang ing
fin set
ĠB ell
â ģ
Ġnotice d
Ġdegener acy
Ġcdle me
ĠA rg
count ing
n R
ĠF D
}^ +\
au er
Ġsol vers
Ġn th
Ġview point
onal d
AT H
Ġb ary
ĠE Q
Ġnec es
| )$
:\ ;
pri mary
j h
Ġg ray
Ġt ube
Ġe pi
Ġ} =\
for get
Ġradi i
ui tively
ĠS C
lic ate
allow break
**************** ****************
4 14
ĠC e
B lock
Ġd p
Ġdis cover
a mpl
po is
up default
Pri mary
Q ed
Ġn s
b ru
ver tical
Lag rangian
Ġoptim ize
} &=&\
Ġcon texts
Ġd ila
na ck
Ġhe ap
0 95
Ġsub tree
ĠLe ft
k G
Ġy es
(\ ,\
Ext ension
Ġtoler ance
Ġsur v
ĠCh ris
ca ti
ĠP ri
Ġlon gest
Ġb atch
Ġresidu es
deriv ation
pg ftrans
ÂįÂŁā ġ
Ġche mical
Ġcylinder s
ĠW igner
Ġne gle
PE C
Ġbook s
ha o
Ġto ur
ĠI C
}} )^{
ess or
75 3
19 78
[ ]{\
Ġmacro scopic
vi ate
Ġtes ted
bb A
ĠGe lfand
ĠCOMP LEX
Ġinv olutions
lines tyle
Ġpi lot
Ġnumer ous
u ction
fast force
F V
Ġperiodic ity
ĠA x
sim ir
graph ic
ul ty
Ha ving
Ġsymbol ic
Ġassoci ation
b ach
Ġti les
Com m
ĠCon vergence
fa ff
o h
ab out
ĠE rr
Ġran ks
Ġconj unction
k ar
Ġcorre ctions
en sus
Ġpo sets
val ley
Ġrece ivers
mom ents
ĠA re
ma tr
Ġex ci
G l
Ġanti symmetric
ÃĮ ÃĮ
}. ..
Ġad ds
f und
Ġta ck
Ġequ i
Ġac cessible
( .)
Ġ$ +\
Ġlear ned
. ~$
Ġgover ned
36 2
W u
re r
; {\
_ (
Ġappe arance
h on
ĠI T
desc ent
w rt
an ted
27 2
Po incar
Ġd if
cre ate
max imum
OP T
h phantom
Ġcha os
30 2
ĠNumber s
Ġexplo red
Ġverify ing
D ir
sub sets
bo la
Ġmeaning ful
m z
Ġexcell ent
3 40
ĠP on
H W
ĠN S
Ġiter atively
l ies
ĠI sing
Ġb ind
bar y
1153 00
b ile
|- |
| >\
399 6033
ĠL DP
. "
EMP TY
}+\ |
si x
Ġcom pan
Se ts
Ġfract al
ĠC oun
In stead
Ġcomple ting
ay a
D s
pla ces
ex perim
$ ):
4 95
Ġdis continuity
50 7
it m
ĠH urwitz
3996033 298
axiom s
1347 115300
e asy
Re gular
se arch
14 2857
Re lation
Ġcons titute
Ġ( |\
Ġgeneral izing
}| |\
S erre
Ġh itting
Ġ1 80
b ind
id ently
Ġjus tify
ref erence
* }(
clo ckwise
Ġin complete
Ġman if
Ġmethod ology
\ -\
le man
pro pa
Â ¤
c it
Ġsepara tes
1347115300 9045
Ġpolari zed
+ ,
$ )}
Ġco sm
H h
3996033298 3574
}+ (\
exp r
Ġbase line
Ġquanti zed
E H
ĠF t
P OS
in z
tific ial
Gal ois
| )^{
Ġn arrow
}' _{
}~ (
th t
}\ ),
ĠP A
0 45
Ġl ife
ĠLet ting
\ }}(
ĠS ym
Ġreson ance
Z h
in ality
)] .
mit ted
determin istic
equ i
Ġre normalization
* [
Ġsy m
Str ong
y min
label s
ĠP AR
ĊĠĊĠ ĊĠĊĠ
ĠM AP
90 1
Ġf ron
Ġ{ [
Ġ$$ (
optim ization
F rac
v ation
ex ercise
measu res
d ark
re verse
usu al
t end
ri end
Ġcl ip
]_- {\
/ |
Ġde plo
Ġd W
ĠAt oms
bran ch
). \\
Ġst ore
}}{ (\
var projlim
Be low
C all
di ed
op tions
Ġautoma ton
commu tes
) }}}
' }^{\
> _\<
' }.
DE R
] ;\
de lay
J M
P OW
ĠPar is
n atur
Ġsimpl ification
ma rt
ĠPr inciple
b on
on layer
ĠA V
cedu re
Ġmotiv ates
Ġso cial
Ġcol laps
Ġro les
bf a
28 1
Ġen coun
Ġtail s
Ġmetri zable
08 6
@{- }
um mer
c w
Ġ10 1
U CT
in var
_+ )$
Ġ\ }\
Ġ| [
)\ }.
av oid
Ġflexi ble
ĠS he
font size
$ ~\
Ġshor ter
Ġin str
tif iable
Ġ\| (
ĠG au
ub ular
Ġany one
Ġoper ads
Ġ1 10
ru les
ĊĠĠ Ċ
x r
Ġtrans lated
_+ )
la ssical
b one
34 2
D v
ira s
Ġfin ancial
( :
Ġb order
cu sed
Ġconjuga tes
o od
f D
Ġcom pr
)}{ (\
A MP
G ordon
p ite
Ġco eff
W hit
g lu
name d
in ite
Ġmark s
Mo st
Ġdata sets
Ġcho oses
Ġcomple ments
ar ning
na ke
Ġcharacter izations
@ /_
linear ly
r hs
up t
Ġcons ensus
We il
Ã Ĩ
n an
]{ };
uzz y
Ġcol lapse
Ġfermi onic
co py
ign ore
Ġvol tage
tr ically
Ġcover ings
terna tive
Li ouville
)} )$,
Ġpres heaf
ĠK L
! )
d H
coeffici ent
Ġbene fit
b ert
B all
pgf plot
g z
{ _
ap plied
Ġwor se
Ġe uclidean
~ .
Ġf resh
con tact
Ġcoun ted
inv ol
Ġch arg
Ġen tails
ichot omy
con nec
F N
Ġ) ^{-
ĠM C
19 75
} &&
ĠW asserstein
88 6
Bound ed
u ts
u ri
ia o
19 76
Ġsup ple
ĠK a
ĠA S
es ts
ĊĠĠ ĉ
CON TINUOUS
Ġsu s
con struct
we i
Ġl ens
F H
R c
47 3
88 7
g mail
we red
T ot
Ġ hook
math rel
ĠI mp
Ġagg re
\ }^{\
Ġti le
Ġcus ps
la beled
L g
ich m
}) _\
}} )}
con sidered
\}, $$
25 1
Ġhigh l
ĠRam sey
}{ =}
compact ness
L b
un o
88 4
ref lection
ph one
sa mpling
}_{ -\
33 2
non neg
sp heres
bi linear
ĠFirst ly
or ange
tr ig
bb Q
M m
ec het
Ġrefor mulation
& :=
\, (\
upharpoon right
Ġenvelo ping
iras oro
cor d
45 1
tra tions
sur jective
Ġg ene
Ġ- ----------------------------------------------------------------
mod ified
( =
=\ ,\
35 2
$ }]
ma j
A f
bf m
^- $.
Spec ial
Ġseman tics
tran sition
Ġcross es
Dis crete
r in
lat tices
Ġwin ning
29 2
Ġen viron
pos al
Ġwe b
Ġknow s
ĠH en
Ġrese mb
cr iterion
}\ |^{
ĠT ime
pgfplots patch
ev olution
| -\
Ġ$( $
ĠQu antum
T Q
Ġcardin als
cal I
Ġper imeter
ĠU E
)\ ),
Ġ1 50
bottom rule
Ġhel ps
0 85
me et
Ġneighb ours
Ġclari fy
Ġc as
Ġrespec ts
Ġtranscend ental
Ġdense ly
[- ,
f ar
y al
ĠS DP
Ġpro grams
non empty
,- >]
Ġsubs ystem
extension s
c ubic
Ġthermodynam ic
Ġsub bundle
Ex ec
item sep
cy linder
ĠS ur
L imit
co ker
ha el
Ġne ga
Ġdevelop ing
tan chor
}_{ {
}| |_{
S w
s equences
Ġes cap
Ġrigor ously
Ġpass age
Ġpur su
da ira
mix ing
eq s
Ġsu cc
Ġdis cs
ĠI den
ĠS tu
Ġd w
A SM
A xiom
87 4
Ġto ward
G romov
40 2
Ġtrac table
o I
:\ ,\
iter ation
Ġassoci ates
rotate box
it ter
ĠL ater
Ġdura tion
D W
L l
Ġreal istic
T i
y ellow
ĠL ee
ĊĊ ĠĊ
ĠGer many
& (\
Ġun ivariate
Ġ& {\
e th
Ġref lects
\\ [-
Ima ge
-\ !\
main theorem
pri or
ri ous
l cm
Ġde spite
pgf onlayer
\}$ ;
c ous
ĠL andau
Ġimp osing
Ġl s
ch t
Ġdescri ptions
e pi
SE P
Ġd up
ili ation
itch in
multiplic ative
Ġmedi an
Ġmaxim ally
select font
N pn
Ġsubs equently
Ġe con
M G
z p
imension al
t ory
Ġaltern ate
Ġshrink ing
0 24
var Phi
La w
ĉ Ċĉ
Ġso le
estima tion
Ġcontrac tions
Ġset t
}} /
ĠFunction s
K F
Ġeigen space
P en
ĠĠĠĠ Ċ
' }}\
S mall
i A
Ã ³
Ġtetra hedron
ĠA F
> {\
s U
Ġb ise
Do main
Ġg r
): =\{
Ġmonot onic
]{ #
Ġout comes
m holtz
Ġmom enta
Ġdevelo pments
Ġ5 00
be lling
er on
Ġ\, |\,
ish ing
Ġrecon struct
G V
Ġdamp ing
Ġac tivation
exact ly
Ġ" [
)| |
cm d
th r
4 85
N W
ĠS INR
}$ }\
}) ^*
max im
m T
* )]
ach ie
Ġsci ence
x M
intro duced
ms g
0 18
e lect
L ee
38 1
Consider ing
van ov
Ġpredic ate
z x
}\, ,\
poly gon
correspon ds
c mp
Ġexclude d
mark ed
Ġho sp
v D
ite s
Ġfe asibility
Ã ī
gm entation
ĠUn ion
Ġwall s
g v
Ġat tain
tern ating
Ġmatch ings
Ġforce d
C e
}\ <
Ġultra filter
spe ed
in duces
Ġre comm
lr corner
Ġaccu mulation
Ġhere ditary
T ar
] }_
Ġpre liminaries
Ġconcentra te
l cl
Ġav oids
w al
Ġc er
cou pling
ĠA mer
)$. \
Ġen v
r ng
le e
to o
Ġmay be
ber ger
ĠF insler
Ġassocia tivity
'' ''
26 1
d of
Ġtwist ing
Ġinter change
Ã ®
@{- >}[
Ġhand led
Y Z
fp red
E ll
Ġ vec
s low
Ġac compl
Ġobe ys
C x
bi as
at omic
)- (\
Ġ1 23
is ometric
dri ven
Ġconstru ctible
p to
ĠPro ve
96 875
p al
ĠSecond ary
R O
S b
{ }{\
ff lt
3 11
Ġun ified
es tim
ER M
nder son
Ġphysical ly
ĊĠ ĊĠĊ
dis trib
Ġvelo cities
ol f
Ġsu spension
fil tered
ĠFer mat
^+ _\
err on
M as
Ġ) =\
\; .
A ctually
ĠB ou
de formation
? }
Ġc lean
== =
ĠN umerical
)} /
ds on
)( .
^+ ,\
| ,\
Ġsy mple
tif ies
ĠPar tial
s pmf
F ull
ĠW hy
99 2
z in
Ġb ubble
Ġa de
su lta
Ġvor ticity
f P
Ġnon decreasing
on ym
pp p
ĠZ F
Ġde fpred
Ġfa vor
'' $,
}) ,\\
)^{ |\
sk ii
mean ing
e an
\ :\
li brary
tech n
q w
t S
~\ (\
)}} .
Ġsubf ield
}} (-
+ }$
T er
tra mi
ĠINT ER
Ġhype relliptic
f ro
te t
@{ }}
Ġgreat ly
Ġf uzzy
P N
o ft
ĠĠĠĠĠĠĠĠĠĠĠĠĠĠĠĠĠĠĠĠĠĠĠĠĠĠĠĠĠĠĠĠĠĠĠĠĠĠĠĠĠĠĠĠĠĠĠĠĠĠĠĠĠĠĠĠĠĠĠĠĠĠĠĠ ĠĠĠĠĠĠĠĠĠĠĠĠĠĠĠĠĠĠĠĠĠĠĠĠĠĠĠĠĠĠĠĠĠĠĠĠĠĠĠĠĠĠĠĠĠĠĠĠĠĠĠĠĠĠĠĠĠĠĠĠĠĠĠĠ
big triangle
Ġz one
en ded
U h
su rd
ĠN rm
sc i
wor ld
e ger
Ġsupp orting
ÂİÂİ Âĳ
Ġselect ing
}$ &$
Ġfin set
\{ (\
g ot
Ġsumma ble
Un it
Ġcommun ic
P ick
ĠHa mming
reg ation
h ull
en se
V R
Ġvalu able
] \!
P al
}+\ |\
00 10
Ġcof ibration
)= &\
pretty ref
C Q
h w
si da
ĠT or
Ġ$ {{\
Ġw anted
con taining
ĠGR OUP
y ear
L s
r ally
f la
Ġ$ >
lan ts
Ġ\ ;\;\
y t
ĠS tan
3 13
E c
_- ^
ĠM apping
Ġin tended
po set
Ġmat ched
Ġval i
ĠR un
< (
Ġpo or
AL G
mu tation
B on
a ger
19 77
Ġgra vitational
kip edia
k q
non zero
_* $.
pro file
formula tion
M s
ub er
B asis
r R
ĠA ust
ĠF isher
Ġconsider ably
H el
Ġre plic
Ċĉĉĉĉ Ċĉĉĉ
ĠT an
Ġcondition ally
N ik
Ġspatial ly
)|\ ,
^- )
Ġfo cused
55 7
ĠWhit ney
ĠSe ct
al though
fol io
bs y
as sumptions
Ġnorm ally
po inted
C ou
C ox
' |^
Ġmeet ing
ĠP L
L ap
cur v
Ġiso perimetric
Ġ( =
gener ators
Ġdistin ction
descri bed
E dg
\}. \]
Ġiner tia
col our
concentra tion
Ġconfir m
Ġtop Gen
G b
_{ _{\
: ~
K i
Ġgeneral isation
Ġpar alle
)] $,
ĠM u
S l
{ {{\
Ġdegener ation
stand ing
ed er
^- $,
29 1
Ġdis turb
)}) =
Ġpredic tions
Ġtil ings
la ce
_* )
y es
Ġhom ogeneity
ori entable
Ġass ess
E r
ÂĴ Ā
ĠW ork
Ġd ay
Ġro utine
W a
Ġergodic ity
Ã ¥
Ġaff ected
_{+ }(
s orted
b ij
ra bility
}, -\
ĠAm ong
ĠĠ Ċĉ
Ġ) _{
Clo sed
u y
" {
ch ine
K O
S tu
ĠF atou
complex es
' )|
p M
ĠDe dekind
' =(
ĠĠ ĊĊĊ
] ,\\
ĠL S
05 4
are to
Ġ10 8
Ġacknow led
Ġrela tivistic
\ }|
j et
like lihood
b phi
exce ptional
Ġdifferenti ability
Qu ad
Ar row
}$ (
Ġrelations hips
ĠGL IB
P RE
}} .$
Ġstra nds
Ġdesc ends
Ġcon ical
lift ing
par titions
)) )$
sc ore
pgfmath setlength
B n
cl s
leg ant
H s
Ġ* \<^
27 1
K ac
ĠL M
Ġeq trd
U C
}} )^
Ġaff ir
ĠBe low
Ġfac ili
U LL
Ċĉĉ Ċ
Ġas king
ps h
Ġco ar
yp ical
}) )=
gle ftarrow
z hang
Ġhigh light
3 80
}^* _
char ge
Â ®
ĠU S
Ġaim s
V ECT
ĠI EEE
ĠODE s
shor ten
K dV
BM O
per turbed
ser ting
Ġellip so
}) }^
ĊĠĠĠĠ ĉ
Ġatta ching
Ġtravel ing
ti k
36 1
Ġe aves
stra ight
Ġir regular
] $$
19 79
Ġdifferent ly
Ã Ŀ
expec tation
or tion
ĠTo gether
Ġ{ {{\
v q
| |_{\
is omorphisms
}) <
Ġbegin s
}{\ |\
belong s
F rob
Ġinstan taneous
ĠT uring
_* $,
curve to
: (\
Ġunion s
g ences
ĊĠĠĠĠĠĠĠĠĠĠĠĠĠĠĠĠĠĠĠĠ ĠĠĠĠĠĠĠĠ
Ġcontrac tive
Ġst ored
] }.
le ge
ĊĉĊĉ ĊĉĊ
K B
un ity
Ġsuper symmetric
Ġaccura tely
ĠF ibonacci
pgfarrow s
cont our
Ric ci
do s
ĠY u
======== ========
Ġintertw ining
re ce
Ã Ĭ
Ġ{ }^
Bes ides
q e
dis cus
correspond ence
ĠS c
tempdi mb
}: =\{
velo city
N B
Ġh al
18 18
para ble
ĠP ower
con tr
Ġincre ments
Q ED
Ġspec ification
Ġhu man
ĠN ot
g D
beq n
G i
Ġinitial ization
hom o
du ate
er a
ORD AN
den ces
Ġcondu ctor
ĠU se
Inte gral
g ic
$. }\
ĠSo c
Ġacceler ation
Ġgen uine
la ne
P as
Ġ ,\,
pe ction
OR PH
ta ker
ĠJ ones
Ċĉĉ Ġ
N O
General ized
cal K
Ġutil ize
A FF
H O
To gether
inj lim
ar di
Ġ\ ;\;\;
Ġcol lected
on line
g ations
28 2
central ized
hy po
Ġv ola
l ma
t cb
Ġdecay ing
,\ \[
N s
ont inuity
ĊĠĠĠ ĊĠĠ
Ġnorm h
b ridge
ĊĠĠĠĠĠĠĠĠĠĠĠĠĠĠĠĠĠĠĠĠ ĠĠĠĠĠĠĠĠĠĠĠ
Ġdirection al
y ck
)) _{\
_{ (-
sen se
ĠInte gra
Ġcommuta tors
Ġturn ed
^* }{
10 10
ĠâĢ ¢
Ġ }}}
Ġc ame
Ġobe y
}} .\
Ġ2 000
Ġfactor izations
Ġord inals
ly eq
ĠC F
Ġoutper forms
S olution
X b
hy pothesis
58 4
Ġdesc ending
Âĸ Ą
ĠS hannon
pair ing
b lambda
F act
is c
ĠC ou
ĠCom bin
z h
Ġ1 11
Ġspan s
Ġnon convex
Ġcla use
tic ks
ĠO ver
i w
i dian
frac tion
Ġinser tion
de velo
add r
ran e
Ġnorm ality
Ġfil tering
Ġmulti linear
Ġqu ery
r isk
Ġ tar
)\ ;\
Ġcounter parts
cal U
}, ~
ori entation
Ġcap tures
Ġ) ^{\
6 80
le b
ĠS em
li que
Ġhierarch ical
RE LAT
Ġ( (\<
Ġtransi ent
Ġdeplo y
Ġco cycles
Un fortunately
ĠB P
cus p
V s
Ġpro jects
). .
Ġsignific ance
Ġdic tionary
pend ing
Sim ons
} ~~
ĠJ ulia
Ġac com
}' $.
\, =\,
Ġdecom posable
Ġsec onds
B is
Ġpro finite
)| }{
O ption
w ould
ĠO R
d at
Ġrecon structed
ĠC oulomb
rting ales
Ġhar ves
th al
k c
âĪ ¥
zz i
ich artz
y ield
0 99
A I
T c
Ġboson ic
b tau
ĠMar tin
Ġs keleton
den otes
N il
ou ts
ĠLi kewise
as suming
t P
Ġneighbor ing
o T
t up
point wise
bf z
Ġex I
know ns
_{- }
ĠS er
Ġf ru
N one
Ġfil led
u ing
90 2
64 3
Ġmass es
Ġ) )
Ġfin er
Ġen codes
Ġ_ ).
Ġcall s
20 22
Ġcharacter izing
UM E
ten cy
Ġfib rant
ĠP as
r T
Ġexplo ited
ri ers
color box
9 00
j t
fi ers
resh olds
v ents
Ġmatro ids
h ist
v irt
ĠRo bin
}_{ >
dis connected
): =(
$ ^*$-
Ġex cess
C b
}] _
Ġen force
37 2
col linear
Ġirre levant
Pa ra
Ġ= (\
U P
N p
ĠV I
Ġ1 12
scap e
( ;)
' })\
ya ma
Ġun biased
var Gamma
ĠB re
aus al
}}{ {
ĠSu bstituting
om ent
tif ications
constra ints
b asi
ĠA bel
ba um
Ġ----------------------------------------------------------------- --------
t M
ry lov
)}) _{
x is
bd ry
Ġequ ic
Stru cture
v mode
Ã Ń
suffici ently
Â ķ
Ġ* (
ĠConsider ing
Ġrepe ating
ĠB el
Ġlo st
19 81
Ġshe ar
A lex
pr inciple
us ted
Ġquali tative
Ġsen sitive
ĠCom ple
v l
Ġf ifth
Ġwork ed
ĠUN IV
56 9
K Z
theta g
45 45
Ċĉĉĉĉĉĉĉ ĉ
dimension s
arg max
^* )$,
Ġarrange ments
E ff
t D
Ġ1 55
th y
B lue
S tability
Ġc n
Ġc ot
sub groups
Ġrefere e
ategor ical
orth and
Î ¹
Ġin ducing
as in
ĠH igh
Ġcirc uits
ĠCon ditions
nor med
pgf for
inter p
K W
H ecke
B ou
Ġre new
$$ |\
qua ref
c ending
g G
var injlim
47 2
ĠHan kel
' )^{-
| }}
ĠI de
ĠC enter
Ġb end
Ġoscil latory
ta nd
. );
Ġsub categories
46 3
z ig
reat er
S ti
ĠBerg man
f R
Equ ivalently
impor tant
Ġlan g
acc u
Ġdest ination
W al
Ġins ights
Ġelectro magnetic
pro ps
Ġen gineering
ĠK al
modu li
character ization
q x
Le vel
w k
ĠZ FMISC
Ġfram ing
ELL OW
conju gacy
Ġvalu ations
Ġ1 17
Ġâī ł
Ġknow ing
* }}
ta tes
Ġde code
^{+ }$
left margin
}- >}[
87 6
Anal ysis
Ġre traction
le bra
mc F
abbre viation
A re
qu ate
e ad
A MS
stro ke
cal N
Ġpre coding
Ġtemp ered
4 45
[ [\
x max
sum s
hen sive
); (
stu died
0000 3
Ã ĺ
ĠW al
Ġpush out
Ġexper ience
Ġsur jectivity
Ġacc ord
bf A
Ġclo sures
ula nt
ĠSh imura
sol vable
P os
+ .
88 9
up d
Ġc ast
ma c
a cyclic
Ġpro p
ĠD I
Ġattrac tive
f ive
functor s
ĊĠĠĠĠĠĠĠĠĠĠĠĠĠĠĠĠĠĠĠĠ ĠĠĠĠĠĠĠĠĠ
M OD
look up
Con j
ag ing
Ġvol umes
\ ^{
ĊĊĊĊĊĊĊĊĊĊĊĊĊĊĊĊ Ċ
^* :
ĠKey words
ĠLang lands
F rame
sur vey
Ġn ames
Ġde dic
8 66
ph ra
pgf sys
Ġ}$ \
\` {
k ra
en yi
Ġprefer red
b bf
;\;\;\;\ ;\;\;\;\
ĠR S
Ġslo ts
pois son
$\ |\
Key words
Ġtermin ates
oron oi
S orted
Ed it
Ġcompres sed
Ġ20 10
F W
^{* *}
ĠAl ternatively
] [\
Ġa ge
Ġbre aking
Ġac tivity
Ġse ctors
mic ro
COMP ON
Ġexpen sive
x ra
Ġredund ant
{ =
il ding
IEEE author
\! =\!
nor ma
Ġto pos
ĠE M
FE M
Ġb a
60 2
simp ly
ĠN C
PP P
Al t
ĠSu bs
sh ot
Pa ir
pie ce
Ġe poch
y o
EX P
3 17
re move
_{ /
Ġslo pes
" }
Ġcon st
deg rees
indic ator
Ġop in
87 9
Ġthink ing
ĠTar ski
X t
de te
! \!\
b group
interpre tation
conv olution
Ġcorrect ness
wh ence
Ġrecipro cal
C ut
Ġr t
Ġs ensors
Ġc up
}) }(\
Ġanaly se
m N
she ll
Ġdiver ges
ounce d
he el
ess age
Ġavoid ing
Ġno ticing
\ )\
Ġt ubular
ĠM ic
Ġmathema tically
Ġde cla
,\,\ ,\,
me ister
z f
Ġconstru cts
ĠM ag
Ġauto matic
le af
coura ged
structure d
)$ ?
optim ality
BO UN
ĠS iegel
slo pe
ĠDar boux
Ġb us
ryst als
Ġ. =(
avi ly
Ġaccu mula
+ $
ĠL ast
Ġ{ |
dash v
3 23
H er
> ?
Ġdete cted
it ality
)} &\
Ġdiver gent
\, :\,
sub array
w alk
Ġn orth
T d
Ġthree fold
Su bs
}] ^
Ġlat ent
ĠR u
Ġuni versality
ĠC as
55 6
elt jes
en vironment
Ġachie ving
^{*} (\
sh ould
U se
C J
. ]{
fin ish
ĠZ FC
Ġrepro ducing
@{ .
tikz option
rest ingly
Ġi Edg
cal f
Ġ[ {\
ĠV al
Ġresol ved
Ġdecor ated
ĠA rn
D r
Ġvis ible
}) }\\
H Y
S mooth
p j
tur m
ma cher
ĠJo hn
}), $$
poin ta
Ġ1 13
T ensor
me thods
sub fig
C ategory
^{ <\
pe an
Ġu v
ĠD E
Ġdig ital
stan ces
Qu antum
lev ance
V dash
Ġdo cument
O K
S ize
], $
ĠDiff erential
Ġmis ses
Ġmaterial s
V AL
)* +{
Ġoff er
ĠVECT OR
I r
38 2
M p
Ġanal ys
Ġcha nce
\ }\,
0 48
x n
x e
50 9
Ġdetermin ation
pro cessing
at ta
Ġ1 44
Ġtime like
A ction
stri p
l bl
_+ ,\
Ġtun ing
4 30
m G
M umford
Ġi mb
Ġca che
ĠTe ichm
f F
Ġsta bly
Ġpro te
Is om
De g
L N
Ġs ke
tic les
&& \\
Ġ\; =\;
Ġhist or
Z ER
)} &
ĠM U
}} }^{\
Ġright most
Ġ$ };
Ġb ott
10 24
s ph
ĠE mp
cli que
Ġfactor ial
g H
v on
conver ge
N c
@{-- >}[
w tilde
05 8
i id
Ġfor bidden
ĠSub Grp
Ã ı
anal y
lebra ted
n T
99 1
Con vex
Ġ| {\
inde p
CM C
( &
ree k
depend ence
ĠC all
Ex act
58 6
ĠN atural
\}, $
} '}
\} )$.
' },\
Ġt ension
fa il
Ġtop ics
j aco
d T
ĊĊĊĊĊĊĊĊĊĊĊĊĊĊĊĊ ĊĊ
s al
res sing
Ġen sembles
Ġ[ #
C hi
erci ve
1 0000
Ġover head
000 5
su i
Met ric
Î ¼
ĀĀĀĀ ĀĀĀĀ
uch sian
e ve
irc le
cen tered
Ġrm Y
i da
97 2
S how
ch in
05 7
:=\ {\
06 25
W P
co herence
{( }
Ġfi les
orts name
]$ ;
Con st
rb rack
S he
Ġcons tel
}$. \
f resh
co variance
simpl ices
u der
Ġd ip
Ġcontinu es
Ġbase point
q f
ro id
000 4
Ġ}\ ;
ers en
for ces
pgf xy
68 3
pl ings
Ġproceed ing
Ġtrans por
Ġth or
h art
05 6
Ġsynchron ization
ĠE uro
satura ted
d E
re duce
ĠD rinfeld
Ġs b
index ed
supp orted
beha vi
ĠF re
Ġdia mond
ia ms
Ġmajor ity
co p
s j
Ġ10 4
Âĸ Ă
35 1
0 20
vi kov
intersect ing
front matter
ĠC AT
ĠN UM
Ġresol ve
}}( {\
lo so
qu id
Ġun knot
poly tope
I DE
over leftarrow
t ld
determin ant
J ordan
}{ }}
comple tely
ell i
Ġfit ting
ĠC r
ĠBes ov
, *}
G n
RR R
pro po
Ġex cur
ext ract
Ġent er
Ġtra ined
}\ :
pl er
R x
V ari
Ġp df
55 4
> :
or ms
}) }$.
Ġchallen ges
W here
m V
Ġbroad cast
inst all
N evertheless
pe z
Ġun knowns
che v
Ġcandi dates
u q
Ġmention ing
bf s
ms f
tar ity
Ġte le
Ġ} +
}). }
Ġins pection
Ġen riched
sur ing
}$ ]
trunc ated
ĠP DF
G er
Ġre member
t B
Ġsim ulate
c here
i T
Ġhe avily
Bound ary
Lemma s
Ġtaut ological
Ġheter ogeneous
Q p
Ġhype red
ĠPAR TFUN
be e
me x
Ġle gend
,.. ,
Ġb old
39 2
Ġattrac ting
. ,-
st en
defin ing
' }=\
Ġsol vability
L ow
tit ut
Ġcongru ences
n ary
80 2
48 2
Ġrece ives
ĠP S
ĠR ama
ide als
ĠS GD
Ch ern
con stants
Ġ[-> ,
S plit
ap an
ĠDav id
Ġam alga
ĠK e
c ir
ro tation
arith metic
C ell
ap pl
Ġup d
67 3
Ġinser ting
ĠO per
f ying
ĠF ried
Ġoccur rences
Ġlo o
Ġarray s
Ġ ^*
over brace
ct o
necess arily
do x
33 1
Ġan bi
titu tion
contro ls
)] ^{
l ish
ĠBS s
}] =\
218 75
qu iver
Ġ10 3
Ġmo bile
ympto tically
ĠV alue
Pa rameter
H cal
Ġdis continu
y max
)) ]
L d
Ġsub mersion
Ġ10 2
})$ ;
G U
Ġcontrol lability
55 8
Ġfaithful ly
Ab stract
Ġreli ability
l is
76 9
Ġlike wise
o scil
}\ }_{\
m w
ord inary
08 9
Ġinher its
+\ !\
ĠK dV
f lag
Ġl n
ian chi
- ,
D IV
Re v
Ġinter f
f rg
Ġinv olutive
f w
Ġsol itons
Ġ10 7
Ġen umerate
Ġ ess
over pic
rar row
quaref ree
ĠAccording ly
Integra ting
3 21
}) )$,
98 2
{ }^{
ynam ics
}} }$.
}{ -\
leave vmode
ec m
inter polation
pgfkeys get
ĠCa simir
d N
in bow
}} >
Ġnormal ize
Ġsubstantial ly
. ''
Ġpredic t
0 19
iz ability
Ġdiff u
B ase
ĠC gr
F lo
h z
con structed
4 25
g ive
u cker
Ġj ob
99999999 9999
ĠN LS
u to
Ġconsider able
Ġcode book
Z FMISC
Ġ& +\
Ġ1 25
tri but
in y
col lect
olog ous
inte rest
I ll
)$ &
pro ving
ce v
L t
r C
st on
g ue
}^* $.
car tesian
ra ther
Ġperturb ative
Ġprecondition er
M apping
ĠS cha
\, }
Ġcol ours
0 26
ĠG ronwall
divis ible
Ġmicro scopic
Ġvehic les
ĠS I
AD MM
wide bar
Ġ$* $
ha ra
ap plications
I SSN
ex mp
yn chron
stu dy
0 34
f rown
arrow right
' )}\
M il
l mm
}) }^{
equ ential
ide meister
j v
Ġdepend ency
mar sh
our n
ĠEuler ian
node part
Ġdimension ality
la sov
Ġs orted
0 27
}}{ }
96 2
spec ified
Ġalterna tively
li ps
Ġbijection s
S pa
Ġbis im
a j
t C
in side
calc ulus
Ġjo ined
Le b
&&&& &&&&
Ġsn ap
Ġcom posing
Ġ(\ {
ire n
mu nd
70 2
Ġreflect ing
Ġhtt p
Ġre tract
Ġce lebrated
12 12
ag ed
sem iring
Ġ ic
Ġmoder ate
ĠA c
D c
i tively
ĠB loch
@ =\
ĠS w
Ġglu ed
Fa mily
Ġdiagon als
Ġaccord ance
d M
i pa
50 1
ĠM I
pre ad
ĠCon trol
Can onical
b ited
Ġb l
RE L
Ġdomin ation
oper ation
C ARD
N ORM
Ġfil trations
Ġ$( *
ĠO perator
_ ,
| )^
Ġto ok
Ġde licate
expon ent
Ġquanti fier
comp at
re in
ĠTh urston
. *
pres ent
Ġsub modules
ĠV irasoro
ĠWh ite
}( [\
00000000 0001
Ġpro ducing
m Q
amb ridge
Ġpre paration
Ġe ver
arg s
A cal
small er
Top ology
MM SE
f B
ref lexive
Ġexpl oration
A e
Ġimmer sions
0 22
}, ...,\
Ġger ms
Ġ1 22
Ġrotation al
ru ll
Cho osing
in p
ar ial
om on
Ġdis appe
Ġshe ll
isha ble
dots m
eq align
for cing
Ġcontra variant
Ġinf ected
T G
un its
bb T
m q
ĠR ed
v matrix
su n
she aves
k ed
th rm
ĠG M
Ġsec ure
Ġbelie f
F O
si l
A RE
Ġph ot
Con stra
po staction
ay ashi
34 1
ĠErr or
bo ard
re w
19 73
000 6
essential ly
ĠPro gram
90 625
96 1
Ġres is
ĠB r
ĠN OT
Ġaugm entation
$ );
Ġaffir ma
ÂİÂİ ÂİÂİ
ac ro
Ġpartition ing
ĠTop ology
] }=
in ductive
First ly
Ġblow ing
t N
Ġ| _{\
. ~$\
Ġ\\ [-
OM ORPH
P n
er red
_{ *}\
z d
abs olute
Ġcoun it
Cal c
et te
âĤ ĥ
et c
ĠY ork
IS O
H odge
Ġquanti fy
penal ty
P Z
cor related
dash rightarrow
X Z
big O
Ġar tificial
en a
da st
zero s
ĠO pen
Ġtrans position
Ġparameter ization
ustra tion
BS DE
dynam ical
Ġz ig
b if
Ġimprove ments
ik i
H G
Ġn t
hand ler
perturb ation
Ġrea chable
ta me
EN O
se en
Ġdecision s
V M
m W
lec ular
Ġanom aly
0 97
h X
Ġin it
a sion
> ))
qu i
Ġc aching
ĠMo ore
ĠCR ing
ĠSV D
^{- }
; }
Al ternatively
Ġ ]\
Ġv l
Ġ| ^{
}+ {
Ġclo ckwise
fa mil
vi ties
Ad ditionally
C ard
f ourier
Ap plications
aff iliation
ic ity
,\,\ ,\
_- }
Back ground
S DP
H b
o ss
strate gy
lon gleftarrow
Ġq s
Ġoper ating
Ġrepro duce
res sive
ĠB on
il la
termin al
un tz
Ġ$+ $
configura tion
in ery
math ord
Ad j
Ġisogen y
Ġhyper graphs
Ġ1 15
ĠM A
|= |\
cccc cc
ĠV ALUED
}}{ =}
ĠA cade
ĠÃ Ĺ
}_{ #
A da
F alse
ex m
_+ ^{
ĠPo st
ECT ED
k as
fl ict
Ġin herent
Ġdifferenti ating
ĠA tiyah
-\ ,
Declare Option
Ġd ie
\\ \\
3 85
o ints
Ġpa ren
ob jective
Ġth resholds
Ġimpro ving
ĠD iophantine
37 1
Multi plying
Ġenhance d
4 24
in cl
rm default
Ġtext book
Ġmolecu les
j f
Ï Ģ
he im
ĠD L
ps arc
:\ :
Âĳ ā
fe ld
)-- ++(
ĠMany Sorted
00 11
! !
w c
la ys
Ġtransmission s
( (-
R am
Ġter nary
ĠAlgebra ic
F low
ĠR K
)} <\
ĠW itt
adj ust
S hi
Ġsatura tion
ĠI ter
= :
b ld
wide check
omet rically
chere l
4 64
Ġn om
off set
ZER O
{ ^
Ã ľ
ff i
_{+ }\
d D
Ġflexi bility
th ose
ha ving
Ġme dia
S ph
ĠHy per
r A
re set
graph y
Ġsuper ior
Ã Ĺ
Ġclar ity
Ġ( ((
Ġtight ness
Ġcompre hensive
' )-
w N
w icz
vi o
Ġtran sf
ĠCom p
pgfkeysget value
Com ment
}} )_{
ĠH ir
J un
Ġ10 6
=- .
o S
ĠM ESON
col imit
COMP LEX
s hi
Ġp lease
Ġd S
The ory
ĠM odu
Ġtur ning
Ġaut onomous
ĠA ND
Ġra ised
Ġ\! \!\!
Ġcaus es
&\ !
where as
Ġ lambda
Ġdedic ated
cl m
consist ing
19 70
19 74
0 47
Ġmon och
& *
] \<^
^{- }(
_{+ }$
ĠM od
k al
^* -\
Ġpush forward
pon e
Au g
Ġmach inery
' ^{
S hift
Ġsu be
pgf oo
m Z
ra b
lan guage
re pr
Ġdu als
journal short
journal full
doi abbr
b rack
ĠT s
A mp
R f
S quare
ua ges
z w
Al pha
)! }{
allow displaybreak
Ġle s
Ġmode lling
Ġsemic lassical
ĠSti rling
|}{ $
lo ops
We ight
ĠG old
thm ref
theorem style
ĠC s
lic z
Ġdeca des
Â §
}} ,\\
ĠF v
Ġoptim izing
H or
at t
ĠT V
}}^{ (\
c lar
0 94
Ġcont ours
circle dast
ĠBru hat
! [
para ms
Ġinv oke
Ġm s
Ġ{ }_
Ġspace like
Ġpolynomial ly
3 95
; (
Ġhosp itality
N d
we ep
Ġpun ctures
ĠS W
frame box
Q Coh
Ġfocus ing
J K
ĠB all
si mulation
AB S
)\ },
Ġsupp ly
B ro
â Ħ
48 1
Ġassign ing
ĠE d
Ġda tab
Ġstud ents
fibra tion
C nt
}_{ |
pon ent
57 4
and le
Ġla dder
Sum ming
P t
x scale
aa aa
ĠRes ult
Ġc ited
show n
C over
Ġs ie
Ġspe ak
h size
Ġtr im
Lat tice
Ġencoun tered
Ġindic ating
0 38
l not
ma nder
ĠĠĠĠĠĠĠĠĠĠĠĠĠĠĠĠ ĠĠĠĠĠĠĠĠ
e le
Ġs ine
f at
ti tive
ap plication
Ġdeal t
Ġfinding s
D ot
Ġh or
Ġsemin al
Ġal g
co hom
monoid al
oper ad
Ġreformula ted
ĠAD MM
N ECTED
S INR
imod al
3 18
y v
Ġsyn thetic
Ġsuper script
ic it
0 28
e valu
Ġpropag ator
27 27
Ġcli ques
\; ,
Ġcor ollaries
linear ity
Ġexpres sing
len beck
al ways
Ġoscil lation
repres ent
' ]$
Ġp ix
ys cale
n N
ĠY es
45 2
direct ly
Ġco compact
q i
it or
ĠS PEC
Ġ\\ &
cons ists
Ġpri ma
cal a
comple teness
ĠS equence
spec ific
Ġsucces sively
Ġminim ized
M x
h j
Ġre x
tribu tions
T ab
Ġsimplify ing
}^{* }$
Ġhar der
SI C
@{ ^{(
Ġcontrac ted
ball s
r L
radi al
âĢ Ŀ
Ġinher ited
ĠD i
Ġsome how
Com pact
43 1
98 1
Ġintro s
Ġ{ (\
> (\<
ĠP U
Ġneces sity
li u
Ġ< <
formula s
BE L
Ġleft most
Ġme ant
Ġiniti ated
res on
> +
lb erg
a mily
! }{\
k A
up shape
guillemot left
N OT
Ġpre tty
Ġ2 56
Ġout ward
Ġtwist or
Ã §
&= -
m K
)( (
on orm
ip ped
/ }
Ġcont ract
dis tr
)| <\
Ġapproxima tes
Ġro tating
Ġpla te
ric e
^{+ }\
divis ors
I mpl
}} }^
})\ ,\
erc ivity
s Y
ĠS z
)}\ |\
Ġre writing
)\, ,\
ext remal
Proper ty
r nd
vec x
V o
' )^{
^{- |
}- (\
ha te
Ġfirst ly
Ġj a
}| $.
4 75
d onald
ĠP i
r G
)) `
ĉĉĉĉ ĉ
compu ted
ar iance
0 60
^* )=
LL L
ĠS D
sc o
Ġmul Grp
Ġre places
36 36
Ap plication
Ġcompres sible
compu table
out side
l la
ve t
95 2
r E
sh ifted
H t
H all
is ach
ĊĠ ĉĉ
dis j
ver ti
Sch wartz
in lev
Ġf g
Ġ> >
Ġspace times
diamond suit
ĠB irkhoff
Ã Ī
57 9
tors or
Ġpro long
Ġb ud
commu n
Ġcapture d
Ġweigh ting
Ġm im
Su per
ĠH asse
ĠF ree
'' )$
en u
Ġlog istic
Ġmargin als
Ġsh orthand
Ġincorpor ate
H p
ĠL HS
B ru
_{\ |
Ġpre vent
Ġsole ly
0 70
Ġan onym
Ġap prec
Ġfol iated
B ol
Ġ\ -\
Ġeaves drop
h il
OP EN
ĠT S
ĠP RE
0 96
an ten
Ġsub str
ĠP al
0000 7
55 9
Ġbe sides
IEEE keywords
You ng
tar t
^- _{\
Ġattemp ts
Ġcarry ing
Ġh on
Ġdri ving
ast er
}' $,
M Z
Sub section
Ġutil ized
Ġbehavi ors
)( #
^{- }_{
.) --
Ġdiscus sing
ta t
Ġe legant
ĠB in
Ġhe art
arr is
star ting
g ar
F our
L ittlewood
ĠF H
OO O
k T
_{- }(
ĠA nn
Ġlexic ographic
@{ }[
Bound s
}^* $,
sur j
ĊĠĠ ĊĠĠĊĠ
ĠKo daira
F ib
guillemot right
ĠON CE
\ &
olu tional
ĠR ich
\| (\
Ġsl ices
ĠGroup s
' :=
Ġcre ation
Ġ1 18
MM A
ĠV ari
a ce
mo ving
Ġmonoch romatic
)] _{
E I
mark ov
Ġ tick
BB B
Ġirre ducibility
4 16
b last
ĊĊĊĊĊĊĊĊĊĊĊĊĊĊĊĊ ĊĊĊĊ
}' ,\
Ġp le
hi er
rec over
Â Ģ
Ġ\ %
39 1
Ġ[] "
ht ml
)\| _\
19 72
recur sion
}) }_{
mo p
3 66
f urther
il ing
47 1
3 27
Ġsta tus
ĠB ro
Ġre levance
Equ iv
L IM
dv d
) ?
ĠF j
ĠÎ ³
ynam ic
Sim ulation
Ġround s
Anal ogously
Ġmain tain
Ġmid point
Ġopp ort
refine ment
Ġ. (+)
ĠPa th
Ġline width
idel ity
ter ra
allowdisplaybreak s
lan ce
^{\ ,\
ĠP D
bu ll
Con trol
S pectral
ĠC D
x d
ĠE UCLID
] /\
hy ps
Ġprotocol s
Sh v
bb S
3 22
end er
_\ #
Ġ$= $
bf k
L f
po les
al em
he lp
f H
si zed
p olicy
Ġdis couraged
}} }}}
ĠP eter
>_\< ^
Ġlo ose
ĠĠĠĠĠĠĠĠĠĠĠĠĠĠĠĠ ĠĠĠĠĠ
s W
Ġas semb
arcs in
i en
})$ }
RE M
Ġpric es
Ġr gb
ho d
ĠX CMPLX
Ġar ranged
iv an
Ġpres entations
={ #
ĠD C
ĠY et
ak ov
con es
F ind
ĠEx ercise
ĠD P
Ġexact ness
Algebra ic
om it
ĠE lem
)} >
\[ (
Ġent ers
Ġradi o
im ply
we re
multiplic ity
rho bar
Ġsub varieties
Ġoccup ied
L ang
S chool
a gin
Ġ1 16
ĠS M
}[ -
Ġsuper position
Ġtheore tically
x g
Ġ} -
}) [
Ġj et
Ġcounterexample s
Ġen su
,\ !
Ġha m
the equation
Ġproj h
Ġinde finite
Ġref erring
Ġsubs equences
ĠLi u
,\ ;\;
Ġdiagonal izable
cu bes
thick ness
te en
OL D
86 9
P ST
r lap
Ġ10 9
\,\ ,\
ĠM DP
In eq
}}\ ;
Ġsur round
ĠCom mun
}} <
il enberg
ĠMon ge
$ ^\
lar ger
Re vised
bf c
Dis cussion
Mor se
F re
ĠL ip
T han
Ġacce pted
ĠProf essor
ĠA bs
er ay
se vich
ĠâĪ ĥ
Ġti gh
ga s
ps dots
L Y
a R
Ġsec ret
Ġwin ding
Ġh b
ĠĠĠĠĠĠĠĠĠĠĠĠĠĠĠĠ ĠĠĠĠĠĠ
Ġrel iable
inher i
ro pies
ĠF ermi
Ġan ces
Ġ0 5
Ġbu ffer
ĠMarkov ian
yl or
Ġ$ ;
m I
ou x
Ġh it
Ġsubsection s
Ġc le
ra tes
ri ori
Ġ* \
Ġobser ver
44 2
Me asure
Ġconstitu tes
ĠP I
mis sibility
ĠS pringer
]_- {
F inal
log ic
FF C
sw itch
dis si
78 1
ĠRemark s
O E
{\ @
Ġp Cnt
qu ig
Ġ3 00
Ġdv d
re view
es is
ĠBa ire
inz burg
Ġanom al
f L
CL T
H B
gra de
compa tibility
Ġcooper ative
th reshold
Ġtransi tivity
N I
l hs
ch art
SP EC
o a
ĠSe gal
) )=(
Ġfin ished
Ġpromis ing
Ġas cending
c art
ĠF G
>> }[
Ġfall s
Ġpullback s
INE AR
)! (
A rea
ag ent
Ġexpres ses
Ġneur ons
Ap prox
ĠHel mholtz
or a
eq tr
up lus
mc A
Ġflux es
Ġre tur
}- {
ĠT ur
ĠI ma
hand ra
requ ire
Ġabbre viate
i P
Ġmodel led
condition ed
ĠP areto
Ġ1 35
_{\ #
techn ical
| [
ĠT X
antr r
th et
)) >
)| .
b J
Ġuni versally
}}, $$
Q M
bo o
dis cussion
for k
ĠC L
'' =
58 9
_{[ -
spa tial
ĠZ ero
theore tical
Ġcof ibrations
b rho
vari ational
w orth
}+ |
âģ »
~$ (\
Ġru led
ĠL Hyp
sto ch
h ss
to f
[ |\
Ġre vis
We ll
se g
Ġat las
ĠĠĠĠĠĠĠĠĠĠĠĠĠĠĠĠ ĠĠĠĠĠĠĠ
ĠEuro pean
Ġsti ff
Ġconfir med
3 70
Ġimp er
ĠP O
Ġincre ment
65 625
ĠR L
Ġun constrained
Ġoff ers
ĠMAT RIX
pa nder
pgfplotsplothandler mesh
` \
- }\
a A
}) :=\
Ġs lower
\| $.
)} _{(
Ġpoly hedra
Ġvola tility
46 2
N u
In variant
Ġwrite s
ma z
Ġextrac ted
Ġself adjoint
Ġaff ects
mf g
Section s
Ġeffec tiveness
]+ [
3 98
g gle
Ġsub tracting
}| ^{\
Ġexecu tion
Ġradi ation
i pher
ad mits
Ġnear by
ve re
}^{+ }$
Ġpolyg onal
Ġexhaus tive
Ġ1 19
ĠRecall ing
ĠProper ties
Ġsub critical
Ġlarge ly
B eta
Ġlo ci
Ġtriple t
, ~~
med break
Sp c
Ġun fold
In verse
De finitions
Ġeq el
f rule
ĠPa uli
Ġre called
ad er
arc cos
Ġrou te
p P
^* }^
Ġper son
ĊĠĠĠĠĠĠĠĠ ĊĠĠĠĠĠĠĠĠ
estima tor
Ġmathematic ians
Ġ} &
L ength
o y
mu lants
}] )
ourho ods
Sem i
sf d
Ġfermi ons
PAR TFUN
Ġmaxim izes
math ema
Ġinte gr
combin atorial
C od
}} )=\
cm id
'$ )
is en
o ccur
re ath
ic ial
Ġw ants
lem me
3 28
Ġreformula te
T IC
Ġ+ *
Ġcustom ers
V c
}} <\
Ġs gn
Ġisomet rically
si a
Ġ ĊĠĠĠĠĠĠĠĠĠĠĠĠĠ
Ġ1 30
au ti
Ġinter faces
Ġdete ctor
ĠDec om
D x
\ }^\
k w
N r
Ġstra in
$ ,\
{{ {
}^{* }(
spect ra
N ull
l iter
cal Y
Ġper verse
Ġparame tr
Plan ck
C as
< ->
R p
Ġ ĉĉ
V alue
Ġcon cluding
ellip se
Ġcolour ing
Ġorbit al
Ġa periodic
inheri tanchor
at son
ĠN OMA
l x
s till
ad ditivity
Ġ ĊĉĉĊĉ
th a
Res ult
B d
_+ }\
S f
mp r
the m
hom otopic
Var iable
}} }$,
Ġh i
De gree
Qu asi
Ġlimi tations
Ġ< -
@{^{( }->}[
; -
jec tively
ac cessible
you ng
Ġ$ ^
Ġi p
ĠDe finitions
EL IM
ĠW ilson
ont sevich
Ġsuccess or
Ġquadri lateral
f ermi
F INITE
ĠM i
Ġser vers
Ġdeterminant al
nega tivity
lo u
right rightarrow
Ġinv g
0 40
re ach
the ight
hyper link
^*} (\
Ġcol labor
)+ (-
)). $
Ġop tical
Ġidentif ications
ma tro
ure r
Ġma r
com pose
cal Q
Lie b
0 37
Ġm es
rightrightarrow s
) '(
65 1
Ġke pt
dash int
Inte ger
)} ,\\
3 26
Ġ1 24
Ġk er
$$ [
.\ ,\
Ġapprec iated
ec han
flush left
)\ !\
C t
Ġco in
si tu
)}{ |\
Ġli brary
4 10
sc a
c ustom
z ip
}} }}\
85 2
ĠCom put
Equ ations
Ġeq tr
ref eq
Ġtrans versality
Ġ$\ \
Ġjus tification
per formance
ĠA dd
)" \/"
can not
M ult
ll ers
if ier
z ar
count b
Ġa id
ag ue
ĠS as
ces sed
actor y
D J
Ġinstant on
] },\
E igen
A belian
Ġex clu
Ġmaxim ality
ĠPe zzo
ri ties
Ġhyperbolic ity
N i
ĠS S
cong r
m j
65 2
stra nd
07 6
ĠL ittlewood
rame tric
5 25
res hol
## ##
n in
Ġsub class
Ġvis cous
- [
Ġen suring
Ġargu ed
[ \|
tr ule
con tain
Ġcorrespon dences
sol ve
Ã ½
Ġ1 21
}, &
build rel
Â ¶
... +
ĠPart Func
T b
}^{ {
Ġ" /\"
Ġuniform ity
Ġdifferenti ate
d rule
ro gate
Ġclo ud
ceed ing
b be
ĠB PS
ĠD R
ĠW riting
ĠSe ts
97 1
\!\! \!\
iso lated
Ġcre ates
let ons
Ġhom otop
F an
Ġloo seness
c j
ĠC y
T O
pec ted
ĠâĢ ľ
F ar
Ã Ħ
^{ <
ate ll
de ll
b orel
âĢ İ
ĠB our
66 2
try agin
Ġremin d
iel sen
footnote text
character s
C p
Ġis sn
pgfmath print
ell in
ac ulty
inde ed
textquotedbl left
ol o
po v
ex c
onal dson
ĠAp plied
Ġmulti scale
Ġshift ing
ĠT y
con verse
la nt
Ġdro pped
cmid rule
CLO SED
i X
index Grid
s pt
\\ %
pro ject
cur r
ot z
Ġ{ $(
ĠSecond ly
Q FT
the or
ĠG P
Cha in
M b
ĊĠĠĠĠĠĠĠĠĠĠĠĠĠĠĠĠĠĠĠĠ ĠĠĠĠĠĠĠĠĠĠĠĠ
en ough
pa d
Âĳ ą
Ġremark ed
sign ed
3 19
pri ori
V D
Ġ1 27
ul se
Ġp ol
Tra ce
TRAN S
op y
94 2
Ġ4 00
m U
&+ &
Ġnever theless
}- $
Ġanonym ous
U c
Ġadvers ary
ĠG F
Ġvisual ization
ob ser
K ato
do p
ĠB och
bigtriangle up
K an
l w
}\ }}
B et
L AB
ĠP en
Ġ1 26
0 36
)| $,
|_{ [
this pagestyle
}{ }\
la place
Ġsp ins
sulta nt
Ġ? \<
Ġabsor bing
com odule
Con ne
cha s
Cr it
iren berg
g L
Ġb ivariate
33333333 3333
Or b
>-\ <^
ho v
Ġpubl isher
}^{ +}
Ġ* *\
dia grams
$ ",
end xy
Cont inuous
K ra
t F
(= )
L ore
Ġco ales
s Z
Ex perim
Ġda ys
Ġh armon
Ġeigen spaces
R at
S ob
Ġdele te
4 15
J L
distribu tions
f G
i as
Ġ rho
pgf nodepart
no break
iter ate
c ra
Ġgover ning
on o
Ġquadr uple
Ġin j
multi pl
ĠF ran
ok er
s sed
)= {
ĠS eries
ĠJ an
}{ @{}
qu ant
ni er
000 8
Ġcomparison s
Ġ1 60
Ġ| }
x k
Ġchord al
d C
Ġfulfill s
L n
Ġnon compact
Ġext rem
new label
val s
recur sive
}{ !}{
K E
Ġmod al
ASS O
ampl itude
X cal
stack s
ĠTo da
Ġf eel
an other
po lari
P in
}}{ |\
ic an
Univer sit
Ġellipso id
v ph
00 18
Ġsubs olution
pgfmathprint number
es ter
ma tical
Cor responding
M EA
d binom
Â ¾
ĠS orts
Ġradi ally
Ġ& -\
ĠOn ly
Ġann uli
coord math
ĠCoun cil
78 2
4 12
avoid ing
ho vanov
), &
atter y
Ġt m
la h
Ġration ally
\| }
}^{ (-
fo cus
c um
con cat
us lander
ro d
bi partite
L ink
ĠĊĠĠ ĊĠ
manu al
par indent
pgfkeys current
cou pled
ĠIn tern
ro te
si zes
ex pl
ĠSc ott
| },
ep f
W I
b ble
and rov
Ġplace ment
ide mp
ĠC ap
pgfpath moveto
)$ }\
Ġ. ~
ond on
49 2
Ġclar simp
l h
Do es
ma ster
Ġforth coming
G c
Ġb oo
Ġh p
Th om
expec ted
t U
44 1
ASSUM E
Ġmass less
S Z
lo cs
ric es
}| }\
F g
ĠK ummer
_* ,\
Ġspin ors
Ġrecipro city
J B
S ource
od ory
([ -
Ġcon dens
Ġcou plings
})\ |_{
mf p
Ġpgf plots
Go od
ĠOb ject
it en
factor ial
ĠH er
ĠâĪ ¥
quig arrow
ĠProb ability
Res tric
Ġalign ment
q a
Ġspre ading
Ġoscil lators
ĠRama nu
C m
c sc
O ct
ph istic
Mo ore
Ġmer ge
ĠB R
ve k
Mar tin
O cal
19 67
zen ge
Ġke ys
s mi
la u
ys on
al ternating
P lugging
co variant
x h
in r
si mu
\, ,\,
Ġadvance d
We i
\}$ -
\ }=\{
NE G
Ġtrade off
makeat letter
Ge ometric
j r
Ġ& :
check mark
Y a
ij kl
$ ^{\
m entioned
page break
)) *
66 67
Ġtri al
Ġcomp ound
Ġ20 20
| }(
ĠL abor
Ġrecomm end
den sed
Poly nomial
W riting
Le gend
K im
ur b
Ġ= \,
Ġm ds
GH T
Ġbreak s
assum es
)$ }.
tic ular
)}. $
Ġf ourier
Ġat traction
prec ision
N t
Ġh uge
ĠAp plications
Ġlocal ity
Ġparalle lo
q k
Ġpredic tive
was awa
in line
+ *
Ġf at
Ġspecify ing
W itt
Ġ| \<
pe ating
Ġobstruction s
Or th
ri a
Ġqu a
Ġar ticles
Ġasser t
&. &.
R Hom
we b
M inkowski
alan cing
Ġcharacter isation
cy an
Ex ercise
L DP
Ġv ic
im plicit
ĠChe valley
pre ccur
preccur lyeq
H n
gp v
contradic tion
Ġ ~~~~
}^{\ ,
bi jection
Ġcon ta
12 00
Ġspa cing
repe at
che l
)| }{|
0 65
ĠF L
ob ner
b gamma
The o
ĠV oronoi
Ġmulti dimensional
c pt
W S
co q
:: "
Ġpro posal
Ġtur bul
Ġinvesti gations
Ġbenef its
mp ed
}= {
ĠY ama
4 17
7 00
abs or
J a
L cal
os hi
fra med
ĠH ol
)}$ }
4 96
-- >
Ġagg regation
im o
Ġsub lattice
un stable
ut te
Ġreson ant
Ġhence forth
Ġpers istent
}: }
Summa ry
B Y
mo v
g reater
ĠD F
Ġrever sing
w ski
vare ps
Ġ ĊĊĊĊĊĊĊ
de ep
}) {\
6 75
Ġper cen
ar do
sta ted
93 1
Ġinterpre tations
fa cts
] )}
re mum
Ġ1 32
U s
con cl
eps fig
Ġelastic ity
mon de
Ġt u
di ve
w l
bs on
ĠRamanu jan
math char
Ġrearrange ment
end demo
Ġ1 40
ĠJ ust
Ġqu asis
x F
F ra
ol ength
one y
sis ted
Ġstra nd
ĊĊĊĊĊĊĊĊĊĊĊĊĊĊĊĊ ĊĊĊ
ren ch
simpl ified
t R
Ġalterna tives
or is
de macher
Ġo mega
ull back
ĠAnal ogously
ĠR oughly
mo tion
we l
gm ented
Sta ndard
par ity
ĠE v
Ġs outh
ĠL im
AY BEL
ĠB ott
Ġ` !
Ro ch
W ill
} #
Ġen counter
ey er
Ġpas sive
h H
Â ı
ffici ent
Âĳ Ā
Ġmark ing
Diff erenti
N m
t ol
Ġfocus es
Ġalign ed
Ġsha res
Âł Âł
}) <\
* }$
Ġre nder
Ġa go
ta tively
ĠA SS
15 15
c rystal
Ġ+ +(-
in equalities
Ġqu ivers
Ġpla in
o e
po i
Ġdis plays
Ġmechan isms
Ġz s
In it
dis cr
Re lative
ll ig
ĠCom puting
curve arrowright
SU R
ar chimedean
ti ties
Ġun able
ĠBS DE
expan sive
Ġ *}
gra mma
Ġ${ }_
la sso
um in
Ġunita rily
)| <
j ac
F cal
Ġ20 13
im ity
rad ical
ti p
Ġc ry
qu ar
defin itions
ĠCho osing
Car tesian
st re
ĠS ign
f ref
Ġexceed s
Ġenviron ments
w g
ME TR
& ~
Ġanalytic ity
ĠS pin
ĠF p
67 2
Function s
Ġn c
il in
h es
tru ecm
Ġacknowled ges
Ġaffirma tive
94 1
d L
m Y
Ġb c
pu trule
N OM
N b
ĠF OR
back ward
}^* ,
no ta
Ġpa ti
Ġconcept ual
Fa ctor
d ent
Ġde cidable
pres sure
h G
Per f
N ame
I i
ĠP yth
var Omega
Ġ( ``
fa ithful
Ġnormal ised
OL OG
{ *}
G orenstein
se lection
Ġd ir
=\ !\
use ful
Ġtend sto
Ġnom inal
n A
Ġmodify ing
}] {\
ellow ship
Ġp end
)}) ^{
Ġ- {\
State ment
d Z
Ġde coded
Ġas ks
ven tion
] .\
ĠN ak
tra jector
Ġtack le
L AR
Ġlang uages
Ġh t
ĠE l
Ġmotiv ate
)} <
ĠJ apan
ri p
Ġp q
Ġma xima
co th
square d
rights quigarrow
Ġtour na
ĠĠĠ ĊĠ
as ymptotically
100 7
ĠRic cati
3 96
textquotedbl right
Dis c
flu id
Ġargu ing
la un
Ġin correct
bounded ness
pre liminaries
ĉ Ġ
Ġt ors
mp s
sec ref
Ġ${ }^
Equ ivalence
Ġplu g
Ġ/ =
Ġ~ ~\
Ġthick ness
]{- }(
er f
Ġfluctu ation
Ġhistor ical
ĠCON V
ĠW u
ack now
or acle
ĠU ND
Re lated
ib erg
q b
Ġelabor ate
po wers
}} ^*
ĠI S
}\, {\
Ġshort ly
Ġar ity
ĊĠĠĠĠĠĠĠĠĠĠĠĠĠĠĠĠĠĠĠĠ ĠĠĠĠĠĠĠĠĠĠ
Ġcycl ically
r Cl
)| ,
ĠRe idemeister
$ _{\
p et
tra in
Se veral
)| }\
Ġvis it
ous tic
19 68
fi ability
br c
ĠVer tex
cdot p
Ġcos ine
={ [
separa ting
ha in
es ting
Ġenjo y
Ġ ĊĠĠĠĠĠĠĠĠĠĠ
un ing
Ġconver s
_- )
hu ge
n P
ss en
Ġs quarefree
coun ted
b sigma
ĠM er
z k
Ġcol oured
sy mb
M cal
control led
ĠCont inu
faff ian
COMPON ENT
E K
)/ (\
ket ch
Ġs i
Ġregular ly
$\\ $\
phistic ated
@ <-
\ ;\;\
st one
Ġ| \,
ĠSm ith
L an
{ =}
)}, $$
input segment
Ġcondu cted
Ġb imodules
ĊĠĠĠĠ ĊĠĠĠĠĊĠĠĠ
Stru ct
Ġw ider
Ġquanti le
Ġdec ided
Ġin cur
5 000
d an
ĠC FT
-.-.-.-. -.-.-.-.
C i
H Z
Ġn erve
00 38
Ġli quid
FOR ALL
ka wa
qq q
Ġhard ware
Cont inu
remark s
spr ing
Ġprima rily
R ig
[ "
^{ #
ce ler
ci ate
b atch
Ġtor oidal
75 2
Ġupd ating
Ã ¾
Ġqu eries
Ġ$[ (
}}, $
Ġimportant ly
depend s
ad m
Le besgue
minim ize
,\ |\
Âį ÂįÂĳ
* ]
E cal
ma gn
ri ff
Ġindex es
Ġflat ness
Ġremo val
x q
)] _
}) |^
R ay
inf er
Ġrequ est
Ġdecor ation
)] =\
\ ~
how ever
sup pose
Sp f
m ot
Ġs es
56 25
App ly
Ġc hi
re ps
|\ {
con fig
F ried
}^{+ }(
Ġevol ves
)= &
B rick
\ #\
s pi
ta p
m irror
ander monde
W L
repres en
)} :=\
Ġnon parametric
Ġcapa ble
/ *
M er
Ġre lying
r M
ok ker
Ġun conditional
ĊĠĠĠĠĠĠ ĊĠĠĠĠĠĠ
ĠHar nack
P ATH
ĠApp ly
' )+
ĠVECT SP
S al
}$ ?
ĠW here
Ġcent red
Ġshe et
Estima tes
ĠStar ting
k is
ig er
)}( -
be g
ĠT a
un bounded
}). \]
E p
)* \
Ġhexag on
ĠF E
ĠR ule
ci ety
ĠT A
Ġpresent ing
Tri angle
: |
mo ves
\| .
Ġb illiard
): }
Ġdele ted
4 20
r V
ĠC hannel
ĠNo ether
~ :
ce l
ĠF INITE
ad ditional
w is
ĠR edu
)}\ |_{
prob abil
Ġaf fin
direction al
ĠRun ge
Ġer asure
es up
h ua
, ''
equ a
00 12
J ust
a round
umer al
Ġd X
ĠP erron
que e
Com puting
Ġp uzz
com parable
ĠV an
MM M
C handra
Ġi j
Ġquad rant
}$ --
decor ated
B ell
Ġcentral ized
por ts
Ġ }}{\
lower bound
new dimen
Ġsh ar
(- (
ta ck
Ġ@ >
Ġcosm ological
Ġ }{(
in ity
Ġconduc tivity
: }}
O k
S cha
pgf use
Ġt ending
ĠT ran
conne ctions
independ ence
Second ly
@{- >>}[
95 23
EN D
' ))\
K ut
ĠâĦ ¤
Ġfru it
var Delta
g S
Ġcof inal
Ġn ine
Ġpre images
bin omial
" ],
Ġmo ved
we yl
Ġadj oints
Ã ŀ
ĠUn like
vis ual
mo des
stru cting
ay ama
ON O
Ġcompan ion
C ong
re ason
text box
Ġclo pen
_- $.
ĠCol lege
Brick Red
il lar
Ġi ii
R s
Ġsub scripts
orth o
mc f
Ġbra iding
R t
ne ts
Ġpseudo differential
) }}(\
)) }$
' \\
4 40
x label
non trivial
trans formations
flush right
Ġconverse ly
RE FL
D X
be en
Ġ} +\
)) :
N oting
R ie
\{ |\
Ġfunctorial ity
m O
Ġh g
pp f
Ġla tency
'' )\
trans port
âī ¥
9999 99
po incare
Ġposterior i
pointa dd
ĠSe veral
pre vious
Ġu nex
Ġ+ (\
summa ry
ĠA nosov
un known
Ġme mb
pgf pointadd
(- ,
ĠE P
) '\
Ġre in
Ġround ed
B al
tech ni
ards on
Ġmo tives
inter ference
ta ylor
Ġtechn ology
Ġde lays
Ġover lapping
\ };
l und
Com mu
Ġvarian ces
pgfnodepart textbox
ta kes
_* )$
A cc
I Q
Ġour s
blow up
}: =(
anten na
ap pa
Ġsubs ystems
68 2
b lank
ore tical
Ġconsist ently
Ġz er
}^{+ }\
ĠY oneda
Ġsem iring
:: '
Ġdraw back
' )(
pa zo
Ġnormal izing
singular ity
Sol ving
i ors
t bl
Ġ }$$
An gle
Âĳ Ă
4 80
Ġcol linear
95 1
Ġacc ounts
Ġbe auti
ome o
_- $,
19 60
}] _{\
sho ts
High er
Ġsemi direct
'' ,\
rela tivistic
ĠPa inlev
chas tically
{ }}
Ġf loor
Ġ20 14
a mpling
op posite
Ġcombin es
4 60
Z e
Ã ¯
Ġ(\ |
m ise
ta ken
de mic
Ġimp oses
R ich
Ġcontro lling
ĠBoch ner
ib li
event ually
V F
compa c
typ ical
C f
4 94
ula tor
semis table
sp n
separa tion
del bar
qq qq
' \}$
Ġex pr
0 66
A ct
Ġl c
=- (
$, }\\
Ġspecial ize
}}_{ {\
Ġste psize
99999999 99
nd on
ĠP hase
Last ly
. $\
v ac
Ġdenomin ators
Ġ[# ]
Ġadj oin
K b
Ġde ath
sh uffle
ma ta
{# #
sh rink
Ġphi loso
ul sive
: #
a cl
Ġw rote
Ġen coura
N ov
ph ys
4 33
J P
'' }\
mc E
ĠDen oting
der s
ĠE r
4 99
^{ }
order s
In equality
me di
Ġre phra
\, |\,\
ĠPro blems
B ir
j us
ĠS il
Ġdiscontinu ities
A ng
05 9
Ġutil izing
Ġdigraph s
C ode
Ġnu cle
j d
ĠB ER
Sim on
co prime
\, |
dense ly
ĠR us
le ph
pt l
ord ination
o sp
ĠGS YM
' ^{-
Ġbra ids
K H
ogen ous
Ġstand ing
d Y
Ġenjo ys
Ġhere by
49 1
Ġpat ches
vari ates
PR OP
un folded
W Z
ge red
Ġdeli very
Ġs cre
bf w
T otal
similar ity
n S
smooth ness
; ;
H en
Z a
Ġopin ion
er tion
Ġintu itively
se ven
Ġconclude d
K lein
h orn
}{ }_{
asymptotic s
Ġs rc
ĠM O
Ġ} |
K ar
on ce
=-=-=-=-=-=-=-=- =-=-=-=-=-=-=-=-
rf l
pazo cal
bf e
ĠA dv
}_{\ {\
)! }{(
Ġstation arity
Ġg rants
cr is
_{* }(
embed ded
Ġpseu d
Ġescap e
sy mp
) #
ĠAb stract
R ule
st ore
ue l
][ ]{
Ġiner tial
A PP
Ġb ur
im proved
E W
ex e
)| =\
Ġhd map
}^{ [\
75 75
ob ayashi
p iv
{ }^\
ĉ ĠĠĠĠĠĠĠĠĠ
si vity
Ġpla ying
s mu
act ually
}}, {\
rac tical
Ġre normal
ĠH itchin
Top ological
ta ut
Ġvio lated
Ġcon cavity
\| ^{\
ack ey
be comes
000 2
SE C
ch r
ĠL R
Ġresearch ers
logarith mic
b Theta
C cal
Ġre versal
ĠM nd
}] ^{
ĠD om
: ,
v as
Ġneighb ourhoods
ĠT x
Ġplu gging
h ilb
Ġle ak
4 28
B m
Ġe lu
}) ^{(
ss a
Ġbi ological
Ġcl s
equival ences
super script
P l
Ġdis e
ĠCal der
> *{
y ra
go es
4 18
19 66
Ġsurprising ly
] ))
Âĵ Â±
Ġconjuga ted
monot onicity
reshol ding
ds p
CON NECTED
Ġdemand s
Ġcon d
Ġb rings
les on
Ġâī ĥ
Ġima ging
Ġwa iting
c ategorical
Ġimagin e
Ġb orn
ulari zation
ĠCan ada
)& :=
f al
Ġsome where
Ġde centralized
Ide al
T ang
sc ha
Ad S
te ta
MP C
Am ong
Ġsem if
0 44
B an
ĠT er
4 35
Ġg host
cy cl
Ġdef ects
)}. \
OLOG Y
Ġconnected ness
ilp ot
}} )^{\
Ġhom oclinic
symbol s
L andau
}} :=\
Ġre normalized
ount ing
46 1
K l
)}, {
5 23
ad van
x R
an tic
du ctor
Ġattrac ted
ne utral
Uh lenbeck
}{ }^
ĠL ower
div ides
Ġbud get
s set
Ġ" \/"
Ġ1 33
ĠS turm
}) "
inter mediate
pgfplotspatch class
}^{ |
aut onomous
ĠSt one
ref erences
Ġex otic
ĠS H
)] }
P rime
Ġloss es
Ġtar gets
ĠK as
ĠRe ed
Ġimplem entations
Ġ[ (\
li ers
Ġappeal ing
A k
ough t
rid ges
AN G
Redu ction
} *\
Ġu no
)}) }
Ġann ounced
Ġcustom er
07 9
D ou
Ġport folio
ĠE nergy
Re placing
4 22
c ru
AL T
yield ing
T ak
Modu le
Ġans wered
trac king
Star ting
Ġsemin orm
ĠSto chastic
cite d
}}\ !
Ġla belling
4 32
label ing
ĠD NN
sing ularities
Ġade quate
Ġreson ances
5 15
V A
}} })
}^* _{
Ġo pt
Ġc c
saved macro
H iggs
L ab
q d
O l
Ġhol ding
Ġ1 29
Ġsha ded
BO ARD
Ġu mb
ĠK rull
Ġmeasu ring
Ġindex ing
Ġv ast
D irect
Ġacknow ledge
R en
pre v
@ (
Ġke eps
)! \
ĠLat in
L usztig
S trict
ĠB asis
ĠTable s
Ġ Ã©
}^ *}
mes on
be it
" (
Ġb al
Ġsub optimal
Ġcur l
Ġ\( (\
0 80
ar range
iv i
}_ +\
bb F
cho sen
ĠOptim ization
laun ay
Ġper man
er i
c auchy
con clude
64 1
Ġelimin ated
Ġ- {
I K
inv olution
ĠASS UME
R Z
Ġinvesti gating
Ġfla gs
$\ ;
, >=
c st
im i
Ġpres heaves
Ġfound ation
commu ting
}" ]
Acknow ledgement
)^{ [
"/\" (
M n
uch s
Ġsuper solution
ĠAcade my
}} }\\
)] )
fill Color
summa ble
Ġso phisticated
B J
D y
ĠP layer
Ġsh uffle
}$ }.
mber t
fill ing
ĠM LE
), ~
Ġreason ably
dri ft
M al
| }.
k Q
Max well
e lastic
ĠD an
ee aa
CF G
Ġi id
Ġsuper symmetry
ti vities
Ġd A
til ting
S un
b rown
ĠPro cess
Ġvalid ation
Ġhon est
] }_{\
sol iton
ĠK ato
Ġsent ences
Ġ\ )-
Ġnec k
Ġa a
be aa
Ġnega tively
F lat
Ġf ro
50 3
ĠElect rical
hate ver
L Mod
ĠK az
nn n
ht p
S tyle
gra vity
Ġpart ly
Ġsuper algebras
Ġch ords
ĠPh ys
ĠD M
Ġw ild
Ġran ging
^* [
Ġmach ines
! }{(
P OLY
Ġsugges ting
Ġaccep table
Iden tity
ab la
)/ .
ĠInd ices
B ernoulli
Ġf m
In finite
h is
Ġcollision s
Ã ±
reg man
H f
b psi
Ġt rou
}) :=
pgftrans form
bs x
B rown
Ġnatur ality
ange vin
Ġpo se
ex change
Ġb r
{ )}
Ġb ond
Mo ody
h slash
su ma
ĠP CA
aba tic
ir m
posi tivity
~$ {\
76 3
decom pose
Ġalgebro ids
satisf ied
}\| _\
rigid ity
ĠT T
pro ba
ĠP ID
Âį ÂĴĀ
+ -
Ġ- |
co set
member ship
w ind
Ġf eed
)) ).
s de
Ġh its
trans mission
fol i
Ġdesign ing
}^{ }
Ġw ind
W C
)$ }}
)( -.
@{ =>
Ġsmall ness
se ch
ila ter
ti zed
ĠĠĠĠĠĠĠĠĠĠĠĠĠĠĠĠ ĠĠĠĠĠĠĠĠĠ
Ã ĥ
Ġtrans versely
domin ant
}} )(
ĠA nderson
qu otients
)| |_{
34 375
] }^
ĠU Es
Ġproject ing
ĠP ress
Reg arding
toff el
ĠR V
\\ &=
ES FUNC
Ġsup press
*{ .
commuta tor
Ġt ric
ance d
g ob
TMP b
Ġhomogen ization
ch on
Ġcontrol lable
0 78
0 21
ad dition
$\ ,.
ste ady
Q S
int en
Sto chastic
pand ing
V alu
A verage
de tails
}\! \!
V an
}) }$,
Ġ$\{ (\
Ġ] [
conne ct
Ġ1 34
Ġsemi linear
Ġschedu le
Ġreal izable
64 2
ED IT
INTER VAL
e es
4 27
Ġaxi oma
A ux
z ur
Ġb or
fil ters
S cript
Con cerning
T n
ted ious
ĠStr ichartz
Ġ* :
0 46
ĠB rown
O per
x L
ĠM V
ab cd
4 13
G re
Ġb alancing
K ernel
}}\ |_{
S YM
u erre
{ }^{\
bran es
D ar
co x
Z yg
c vx
Ġ Ċĉĉĉĉ
Ġ1 36
Ġ1 31
circ uit
hd an
cover s
ĠS hi
Ċĉ ĠĠĠĠĠ
^* .
Ġco products
5 40
C hannel
ilater al
C han
Ġx x
<- ]
Ġis os
qu o
sub caption
d bl
ves ti
led gment
Mo tivated
}' )$
Ã ĭ
Ġ) \\
ĠN orm
Col lect
}^{ |\
repres ented
c in
ĠLag uerre
ĠS pe
pgfplots coordmath
new environment
\| =\
Ġpartic ip
Ġdatab ase
) '$
parametri zation
re levant
Ġst k
I tem
N Z
Ġk n
Ġlook up
Per formance
ĠStan ley
t E
un s
ĠB og
he art
Ġreal izes
ve cc
}[ {
del ic
ull ivan
ith ick
)^{ (\
Po sitive
q m
Ġsuff ix
L H
Ġa ir
pgfplots point
ĠâĬ Ĩ
. }\\
}} }_
Ġevol ving
19 65
Â Ļ
Ġste ms
Bes sel
bru ch
Ġ) }\
ĠA g
)) }.
Ġga ther
ĠI D
bf b
ĠK ar
_- ,\
Ġdele tion
7 32
Ġn p
}{ }{}
I X
r us
ser ving
combin ation
W B
Ġsub differential
k wd
u chi
Ġrela ys
D p
Ġcont ents
xx xx
S LE
^{ }_{
Bel trami
\} }$.
et oris
Ġcor rup
Sch r
Ġund efined
C oun
}^ -$
3 94
ĠB ianchi
scri bed
al ternative
equ ipped
if pgf
\{ {\
ĠQ C
ĠState ment
se con
)$ '
integral s
sui table
de e
'' "
asu res
' }_{\
b alance
t unately
OO SE
Up date
}} :\
Ġmon ograph
A pr
i B
y ang
^* +\
Li kewise
ĠGeneral ized
ĠClo sed
non negative
bb X
Ġp g
Ġarg s
}^{- }
ĠOb servation
eq v
Ġ\ }.$$
mann umeral
- (-
Ġd simp
] ^{(
Ġign ored
Ġmulti plications
M H
f ies
,\ {\
_ )
M f
&\ |
66 1
ĠMathe matica
) )$-
il led
and s
pres entations
la sh
ĠA W
? )
Ġco domain
Fo ck
Ġb attery
isach ar
Ġun clear
Co hen
]\ }$
22 22
ĊĠĠĠĠĠĠĠĠĠĠĠĠĠĠĠĠĠĠĠĠ ĠĠĠĠĠĠĠĠĠĠĠĠĠ
Ġplan ning
Ġfermi on
Ġacceler ated
ex po
Ġger be
p se
85 1
Ġ$ _
ĠB G
Ġl ive
s ff
ĠD S
Ġscat tered
tribut ing
Ġbeauti ful
Ġtrou ble
g reedy
Ġab st
Et Al
5 50
]$ :
^+ )\
Map s
Ġexamin ed
G ar
n bd
bf i
Ġper for
ĠStru cture
k N
Ġb nj
H ardy
P ert
ĠĠĠĠĠĠĠĠĠĠĠĠĠĠĠĠ ĠĠĠĠĠĠĠĠĠĠ
am ong
@{- },
G p
ap s
Ġla x
ila rities
Ã Ľ
\| ,
b zeta
ĠIt aly
Ġinv oking
ĠR H
4 48
5 13
Ã ²
}$ },
to gram
ust er
sign ature
ima g
. ).
Ġoperation al
f req
Sm ith
n C
de lim
Ġobsta cles
bary centric
Ġt X
fib re
Ġcooper ation
Ġcharg ed
Ġcent ury
T Z
h ermitian
cal Z
our cen
Ġrational s
No tations
c cl
ĠV a
Ġpreser vation
tis ation
Den oting
pi ro
mc C
B ott
nes ted
Ġconfir ms
Ġredund ancy
5 35
Ass oc
V B
Â ½
Ġdiscuss es
Ġmo bility
ag o
CO MM
ĠExt ension
Ġs par
ĠG en
Cla ssical
Sm ale
ĠAR ITH
erg ed
for ts
label led
s or
Ġsy zy
bound ing
ĠPlan cherel
ne ll
4 23
Ġhyper cube
link s
00 13
Ġcompa res
' )]
Ġg aus
ĠB la
Ġdid n
z n
N x
})= (\
Ġfo ot
stru ctive
ext reme
general ization
)| >
s ound
ĠStr ong
ta ni
eq r
Ġre trac
ĠS EQ
ff f
Ġinterpo lating
cri ption
mer ge
T homas
Ġ( ,]
~~ ~\
Ġsymple ct
ĊĠĠĠĠĠĠĠĠĠĠĠĠĠĠĠĠĠĠĠĠ ĠĠĠĠĠĠĠĠĠĠĠĠĠĠĠ
im s
angle s
Aff ine
V W
u mb
or ov
ĊĊ ĊĠĠĠ
var Sigma
N etwork
bo s
19 69
mem ory
Ġdx dt
ret val
st k
A h
ĠC V
ĠP red
Ġorb ifolds
E b
\} )$,
)}) ^{-
re ads
ft ing
Ġhas h
Ġra re
ĠOF DM
}) }{(
CF T
A o
n X
^+ $-
)| ^{\
Ġdown ward
LAR GE
q z
ĠPa rameter
3 97
y an
Ġd ichotomy
Ġstabil izing
in ction
Ġ\\ &\
pe l
recur rence
00000000 0
Uni queness
Ġ-> ]
exp lo
uris ub
N or
glu ing
n subseteq
Ġ ĊĠĠĠĠĊĠĠĠ
Ġassign ments
Ġpre coder
mc O
G ro
ĊĊĊĊĊĊĊĊĊĊĊĊĊĊĊĊ ĊĊĊĊĊĊ
R k
un folding
Ġreach ing
Ġre m
Ġsubstitu tions
' /\
)) |\
_{( -\
P ER
ĠMate m
E mpty
e ight
{ <
ĠL imit
ĠM al
re placement
clar simp
4 11
B v
Ġarith me
L Z
f usion
Ġne ts
ĠF w
Ġ( âĪ
ĠF i
ĠM MSE
Ġobser ves
D Z
ext ends
EN S
}}. \]
6 12
unda ment
ĠP C
)}) ;
am enable
g uarante
ĠE ng
col l
pgfmath round
In serting
Circ le
Me thod
ĊĉĉĊĉĉ ĊĉĉĊĉ
k an
Le ftarrow
J u
p here
}), (\
resi due
k ine
ns ki
PR O
pg fflt
Ġconstel lation
ĠF uchsian
Ġsim pa
),\ ,\
ls d
ss f
r to
sub sect
Ġpermu tes
Ġgu ide
Ċĉĉĉĉĉĉĉ ĉĉ
40 625
coinc ides
Ġ) \,
bul k
van s
ÂİÂĳ Ą
Ġdee per
Ġmanage ment
gra nd
Ġham iltonian
ma sh
4 78
b imodules
Ġ1 45
text superscript
ynchron ous
ĠD yck
| &\
Ġrecover ing
N irenberg
Ġx shift
Ġsyste matically
Ġw t
partic les
Ġimb i
vi i
Ġen lar
Ġthree folds
un less
found ed
di o
Ġpara dig
Ġob jectives
5 77
Ġ1 37
ĠLagrangian s
Ġin nov
ĠVer ma
8 0000
] )=\
z v
}) }=
mon ic
uni q
Ġap pre
bb H
R set
t kz
Ġb ot
Ġb oolean
pe ak
urisub harmonic
& {
Q c
res cal
Ġsu spect
smooth ing
assign ment
Ġapplic ability
new count
vD ash
Ġm iti
local ized
Ġmove ment
Ġjus tifies
}}$ };
Ġp ants
\}. \
la bell
Ġinfe asible
Ġgraph ic
Ġreal izing
cp x
ĠB IN
comp E
ĠUN ION
Ġs ig
inter face
process es
B our
en z
Ġg irth
ent ries
X c
ti ous
Ġ\' {
smi le
h D
Ġpla u
ĠWhit taker
Ġs atell
de formed
)} =(
ves ter
Ap proximation
Ġdual izing
Ġeq com
adj unction
hier arch
ti ques
Ġu nt
Ġv ide
ĠSu per
P cal
la mb
AP H
11 00
4 65
t to
10 16
[\ |\
hol onomic
Ġoff line
Ġpun cture
Ġevol ve
ri al
Ġelliptic ity
cor ol
local es
Sub Sp
contrac tible
bel le
ĠL asso
f uture
60 60
Ġharmon ics
> #
0 32
Ġ tedious
Ġpoly mer
Ġco boundary
ĠEx plicitly
ALL Y
Ġre ality
&\ ,
c nd
ta ctic
Ġra inbow
ent y
vel ength
ĠRe p
Car tier
tran si
semis imple
ĠCou rant
& <
] }|
Ġh int
Ġ: \,
Remark s
Ġcre ating
ĠT D
eta ils
au ff
Ġresidu ally
> <
v T
Ġsuc ceed
Th ird
Ġnice ly
Ġinser ted
f V
us a
Ġla mination
Ġtrans versally
ze bruch
pgfmath parse
P lot
| )^{-
ĠM PC
Ġ$[ -\
Ġstabil izes
Ġcolor ings
cons equence
Ġmaxim ized
trivial ly
marsh al
19 71
Ġ\| (\
Ġ ĊĊĊĊĊĊĊĊ
di rac
Ġmanip ulations
9 78
ĠB asic
Ġhe ights
Mathe matics
A rc
su ally
Ġimplement ing
IN F
TOP C
}^ -(
ĠCar rier
dig it
o ided
^{* },
E mp
j c
)$ },
Ġpres entable
Ġlimi tation
Â ī
ĠInd uction
Ġcapa cities
eq I
Ġsie ve
V P
Go B
-\ |
Ġ\{ (\
Ġd ark
mall matrix
)* +{\
Ge ometry
S X
wa ra
4 29
repres entable
ĠPut ting
as soci
Ġdis car
25 00
Ġclo ck
ĠEX P
n H
er ial
Ġpro f
)} }$.
Ġ$ &
Ġf re
ĠCom paring
B rownian
K al
Ġcom pose
Ġmanif est
slo ped
S en
Ġco variates
48 24
4 97
ha i
di p
sk ian
U I
ĊĊĊĊĊĊĊĊĊĊĊĊĊĊĊĊ ĊĊĊĊĊ
Ġeigen states
Ġ20 16
ĠLDP C
{\ #
mu ra
Ġtre ating
y label
,\ :
ĠF P
nd ash
ar cto
der ive
)). (
al king
Ġen large
D l
] }=\
ĠB run
Ġequic ontinuous
R X
}}$ )
resi dual
_{- }\
lap sed
S ymmetric
cus pidal
Ġprior ity
4 26
m frak
Z FC
Ġcirc ulant
Ġcontradic t
N f
> )\<
ĠS R
Ġun ary
V C
b zero
ens kip
t Q
Ġ$\ #\
Ġle gi
SV D
J X
ĠA MS
ĠV o
flow s
}} /\
93 65
}} }=
ĠP u
Ġcorre cted
Ne g
Ã ·
Ġsatisf actory
Ġper mits
M ic
as z
Ġcoinc idence
regulari zed
F m
Ġpro tot
Ġconv olutional
Ġpick ing
x A
Ġre pair
Un if
er ro
}) )}
a Q
Ġsto chastically
Ġfruit ful
Ġh n
)| +
ev ol
ne th
Z hu
ĠC untz
pres ented
Ġeavesdrop per
L ater
F ixed
ĠP l
ob ert
hand les
uc as
re ws
is ible
s Q
ro mannumeral
}) &\
Ġh at
DE D
06 9
ĠB is
dist ortion
Ġattract ors
Ins titute
al ing
ro y
na ive
)^ -
names pace
f T
Ġde form
)] (
SE RT
special ly
Ġcu mulants
gebro id
F t
\ })=
| }$.
ĠM N
man i
ĠKal man
is tically
ĠStein er
Ġx a
j q
Ġma rtingales
ĠK irch
famil ies
n M
Ġpermu ting
Ġwonder ing
col s
mark ings
pre cisely
be am
Ġ20 15
accu racy
90 90
ĠAda ms
b sup
Ġsur rogate
ĠMe thods
$ }(
ov a
:\ :\
e al
s cl
,\ |
Ġfore sts
5 85
A nosov
e asi
bf n
}^{- }\
Ġbifurc ations
de si
Ġmer idian
Decom position
}). \\
Ġser ved
Ġent ropies
)\ \[
Ġlog ics
Ġinter n
ĠA A
^+ =
en velo
et ch
lu a
ĠPa ul
F DIFF
}> >
i V
CH OOSE
R ho
ĠGe ometric
}) )=\
te lli
Ġbi ased
Ġinf lation
M t
e group
00 15
,- )
Ġef forts
00000000 0000
Ġsub problem
Ġro tated
bow tie
D ouble
n B
Ġstu ck
Ġmpb id
Ġresis tance
ph en
Ġun ivalent
} !
Ġb ins
Ċĉĉ ĠĠĠ
ĠC T
ĠWe ll
Ġany more
Ġsummari zes
M IN
| {
Ġmembers hip
ap propriate
K c
l to
w it
ĊĊĊĊ Ġ
ĉĉĉĉ ĉĉ
M ix
' }^\
Ġreveal ed
ĠN ORM
Diff erential
similar ly
ĠInd ex
ĠS an
Ex plicit
Ġproposition al
d cat
Ġpro min
Ġcon duct
Ref erences
Ġtrans parent
Ġcounter clockwise
amb igu
Prim itive
se v
}\, (\
bet ter
Ġsurv ival
pa spect
ĠS pa
Ġla g
paspect ratio
frame work
inter action
)), $$
A z
(\ (
Ġquadric s
Ġinfe ction
Ġad ditivity
Tr n
\{\ |
physi cs
lem ref
or f
Ġmo lecular
Ġapparent ly
Ġ) +
Ġaddress es
66666666 6666
$ },\\
4 68
Ġanalys es
IM E
text font
we g
)}{ =}
ĠS imple
ĠW ol
Ġfore cast
publ ished
h P
ĠW ick
pr ing
se ctor
lo zenge
Ġtranspor tation
ĠS A
Ġadj usted
48 48
Ġtransmit ting
x bf
S pe
m essage
Ġlo se
l X
ĠDo F
Z b
}_+ ^
Ġsus cep
Ġpi one
pgfplotstable read
Ġaccompl ished
D g
k ins
Ġtetra hedra
domin ated
Ġcorresponding ly
ĠM DS
trans formed
= +\
\\ -
)& (
E mb
Ġo d
Ġstabil izers
5 27
I c
S AT
h q
ER Y
Te mp
4 34
da m
Po st
Sp here
ĠM ellin
si mula
(\ !
orn ia
ĠC ambridge
sh ifts
Ġabsor bed
set u
Ġtri als
bran e
Ġsurround ing
Ġfourier dlem
ĠCon tra
Ġpic tures
y en
ĠWhite head
] |{\
a way
Ġc d
im mer
Ġse lects
^* )^{-
ĠK KT
ĠJ ack
U D
^ <*
de ter
ow ers
mat ched
Ret urn
h ilbert
ĠF und
tic a
ĠG ross
pgf manual
KK T
t V
Ġa leph
E ps
is or
G Z
Ġ$\ {-
ĠSpec ial
c ry
Ġh oro
FF E
ĠCh ar
_{\ {|
IT Y
Ġorder ings
os a
T ru
if ornia
ex it
Ġcontro llers
Ġvis ited
(" $
The ir
neighb ourhood
Kut ta
l it
in ese
Ġal ter
]{ ->
ang ular
allow s
tend sto
R esearch
Ġbu mp
Ġjo ins
}{ *{
bur n
P ack
}^+ _
x X
tribu tes
home omorphism
$\ \\
mme d
Ġ1 39
Ã °
)\ \\
)} [\
ĠS al
Ġne gation
Ġsubs hift
}^* )
M ass
In c
is able
Ġsearch ing
H al
P LE
ĠUp per
virt ual
Ġfactor isation
M tok
Ġre sultant
Ġalloc ated
ĠA uslander
sy st
Ġdivis ibility
Ġautoma ta
W E
Ġw s
ON E
clear page
s addle
ha ust
pgfuse path
}) ^{-\
ĠK hovanov
sul t
H ir
Ġrun time
, ,
IEEEauthor block
Ġconvers ations
ĠR em
Ġflu ids
Con ditions
ĠUn it
Ã ķ
ĠC DF
coun tably
Ġdiscreti zations
pher ically
ĠMas lov
}{* }{$
l ds
Ġfacili tate
ĠCat alan
et z
Ġh l
Ġ. ^
ĠOptim al
R ot
ĠS G
ĠM cK
ck e
and el
Ġcom pl
Ġpo wr
mathema tical
Al most
ĠCha racter
behavi or
Ġdimension less
cur ly
5 11
ĠPon tryagin
0 49
over bar
un skip
metric s
ith metic
ir ically
In j
Ġav oided
Ġadvers arial
ĠK ing
list ing
}) ]\
e valuation
it ched
Ġro uting
ĠFig s
S table
Ã Ķ
ms c
)}) =\
tran sf
ĠG ar
Ġad vection
Ġmpb ird
\ }},
b O
Ġcomplex ification
q v
ĠÏ ĥ
' :=\
ĠA iry
ĠL ondon
ĠÎ µ
Tar get
) _*\
P at
k D
ĠPro ject
bb m
.~ (
Ad ding
col umns
Ġe poly
S d
W o
z g
ven ue
Con stant
N H
Ġsa ve
ĠS ay
Hu ang
ĠI R
ĠF C
Den sity
Ġ1 38
ĠH is
ĠD a
trans p
Ġpa rac
Ġu ne
len eck
Ġantipo de
7 15
R HS
n L
Ġderiv es
Ġhe ads
grad ation
&& -\
integra bility
ĠT u
Ġ\| ^{
Ġ_{ {\
cle an
_{+ ,
li k
ĠUn iform
Ġar chimedean
duc ation
Ġv ac
' \,
g ene
ĠP arse
[\ ,
))\ <
= /
10 11
Ġrela tivity
r B
Ġapproach ing
MA GE
9 25
ĠHa ving
' }+
Â °
ol is
sub subsec
ĠN or
bb D
Ġtransmit ters
ĠMac donald
beha ved
{ }_{\
ĠM ach
Ġsub tract
Ġvio lation
Ġle g
}= (-
ĠWe ak
e me
Ġpa ired
fig ref
sy l
Ġ$ <\
)} :=
DD D
f eedback
as ci
con cept
spa cing
4 90
com puting
rest ore
{- >
Le v
prim es
ĠDI FF
ck i
Ġdec imal
W ork
Ġrad ar
ĠC LT
{$ {\
F er
ss p
_+ ^\
SE G
ĠW itten
Ġfor all
t K
ĊĠĠĠĠĠĠĠĠĠĠĠĠĠĠĠĠĠĠĠĠ ĠĠĠĠĠĠĠĠĠĠĠĠĠĠĠĠĠĠĠĠĠĠĠĠĠĠĠĠĠĠĠĠĠĠĠĠĠĠĠĠĠĠĠĠĠĠĠĠĠĠĠĠĠĠĠĠĠĠĠĠĠĠĠĠ
odu les
Ġrecogn ize
j ourn
Ġop ens
^{*} _{\
s st
}{ }^{
Ġannihi lated
O s
ĠC amp
cos frac
05 88
Ġdepic ts
s parsity
Ġd ash
ĠSche me
Ġtermin ate
ĠUniver sida
le aves
unique ly
\ ))
si e
math e
lin eno
Ġ&:= &
Ġbi im
Ġpric ing
4 38
ĠL Trn
Ġma nu
Ġstar s
Ġsyn thesis
Ġstri ps
] <\
{ :
Ġe ta
Ġ~ <
Ġsemic ontinuity
d dagger
Ġspecial ized
6 18
ĠB F
Ġg s
ps polygon
)| |\
mon om
Ġinver tibility
ĠC E
un lhd
Ġla te
&=& -\
)}. \]
s norm
ch ord
g oto
ĠJ ac
Ġstud ent
\! -\!\
gen ta
O bs
Ġ| (\
sample s
Ġbic om
m ig
ss y
ij en
ĠF ra
Ġpredic tor
s age
ta s
ĠM echan
Ġdiscover y
Ġsa f
Ġqu as
condition ally
ĠAcknow ledgements
\ +
Ġf as
Ġ. <
Pro positions
ĠD A
Ġc ri
ĠT homas
me chan
4 37
Ġste ep
0 93
ro oted
ĠA M
_* ^{
gob ble
i ft
Ġspec ifies
:" \<
interest ing
f ct
Ġ. }
ĠY ELLOW
'' +
D OT
d st
67 1
ti les
)\; .
^{( +
tu be
DI F
yp ically
Ġst ory
)}\ ,.
Ġiter ating
19 64
circ les
F X
v N
'' :
ib er
ud in
Ġ1 42
Ġcol location
inf ix
Ġral rim
^{ }_
ha sh
v fill
Ġ) }{
pro tocol
sch ke
Del igne
60 25
bran ching
ĠRel Str
matro id
S ys
ĠI P
ss es
play er
Ġd k
Ġhom otopies
ĠAp proximation
)*{ }="
Ġsumma r
Ġx i
O me
77 3
g las
ĠNUM BER
ollow s
G Sp
N Y
Be gin
Ro ot
Ġaggre gate
w rap
in tic
Ġco pu
TU PLE
l ers
ĠN il
Ġsto ps
Ġs chool
VECT OR
8 000
k C
ĠCon stra
cal J
ĠE m
)] \\
tr n
D IM
77 2
line thickness
}; \\
Q b
Ġco ercive
le ased
Ġen n
Ġpseudo convex
Ġf lips
Ġback wards
V u
l if
Ġm n
Ã Ł
Me as
to wer
orth onormal
ll ist
)^{- (
ĠF unc
k H
Ġhydro dynamic
}) )^
par sen
$\\ $
Ġvor tices
M ul
w x
over lapping
establ ished
|^ (
^- _\
* $
ĠI wasawa
ie u
ĠK rylov
ĠSte fan
Ġdisper sive
ĠRe placing
Ġoc ta
C os
G d
ha mel
Ġs k
}( #
ĠP OLY
ulti plication
tem pa
' ^{\
6 48
ĠP res
ac s
ĠIn verse
s mc
Ġd q
Ġsub word
nu lar
ĠĊĠ ĊĠ
Ġ~~ ~
margin al
d sum
upper bound
on en
6 13
m ers
Ġsplitting s
E ss
S GD
ĠL I
)} "
Ġinequ ivalent
Ġhand les
f ron
)\, $
Ġmm Wave
ĠBur gers
Ġpro vable
pl ines
sta tistical
Ġintegra tor
6 17
K ol
is ers
du ally
ĠMet ric
Ġde duces
\< \
PE CL
' );
5 16
}\! \!\
w ater
Ġ2 08
Ġcomple tions
6 28
S pringer
Ġinter act
Ġchamber s
){ $-
^{ ''
Ġ\# \
ĠP P
75 1
ma te
ol or
Ġex clusion
ĠC B
5 10
W H
00 14
Ġocc asion
Ġannihi lation
Nik od
ĠJo hnson
0 29
al gorithms
})$ :
b io
âĤ Ĺ
projection s
Eu Script
ore an
ĠCom parison
$\ ,\
ĠD n
,- )$
Ġlegi timate
I AL
ph is
ad dt
ĠL eray
^+ }$
Ġinver ting
Ġb ord
sta tistics
T echn
Ġexcur sion
w y
Ġ\, {\
68 1
D m
Ġent ering
dig raph
a mma
b ases
ĠM AC
sso ft
ĠIn v
Che ck
5 37
Ġprojec tively
}} }_{\
P lus
sign ific
G I
Ġempha sis
Mo ser
h ot
t Y
Ġm ill
A dap
ĠSta ndard
ĠVar iable
w ick
}} ))
Ġ_ ),
Ġminim ally
z m
Ã ģ
ĊĊ ĉĉ
op man
Co homology
/ #
4 98
ol ing
Ġpair ings
sy ssoft
syssoft path
$ ^*$
l ich
trans verse
C ross
Ġ\, $\
Ġnew ly
B as
RE V
W hy
'' -
ĠLast ly
7 20
7 16
F ran
Ġs seq
ces sive
Ġrespon ses
Ġcom men
], $$
symme tri
v line
Ġ& \,
Whit ney
v X
Ġconj I
M AC
R iesz
un til
)| \\
Ġ~ |~
Ġfrac ture
Ġdiffu sive
ĠP T
ĠC x
Ġ\! +\!
b th
*#*# *#*#
] ]$.
ig raph
Ġ` &
: _
| )}
ĠS cho
pgf syssoftpath
&= (\
ĠS itter
Ġha ven
ĠL ist
)- $
vanish es
Ly apunov
int ert
Ġsub gradient
}\; .
provide s
@ {#
ge p
7 85
19 53
$$\ {
ĠSo ciety
cur ry
Ġstraightforward ly
Ġsuper critical
situ ation
hom omorphisms
A J
S il
Ġs can
Ġ1 43
res ta
^* ),
k P
Ċĉ ĠĠĠĠ
ĠD ou
Ġsim ilarities
Ġj unction
)) <
Ġprojector s
om er
ĠB L
v pi
Ġco adjoint
usu ally
lm d
rea chable
h bt
apply ing
Ġpeak s
+ }(
s ms
ĠAd S
Ġ err
\ >\
re cipro
oper ations
ÂįÂĳ ā
b st
ĠEx perim
ah l
Ġvali date
Ġcub ical
di ame
Ġnon increasing
50 2
Ġdynam ically
its hape
tor i
G ibbs
Ġ- '
au d
ric tion
ol ov
ss sec
Ġdim er
G reek
Ġ& &&&&
Ġ1 57
ĠR i
}}\ ,.
Ġcol l
ok a
B f
S yn
$$\ |\
bo v
Ġmemb rane
Ġm oll
le ctor
antor ovich
5 60
Ġup ward
Ġmu tations
Ġb id
sub spaces
Ġvar s
Z d
ro me
^- )$
R ange
¥ ¤
Ġmon th
ref ined
oper and
Ġscore s
Ġâ ¥¤
rough t
pect rum
Pa ram
Ġbary center
experim ents
Ġs il
Ġu lt
up ut
ĠA v
Ġext raction
5 28
S CM
Ġc vn
ra el
}| $,
dele te
' ),\
S ING
ĠE H
nh ds
cccc ccc
Ġswitch es
ĠF undamental
mo other
OD UCT
4 36
ĠDiff erent
? ?
Ġsu ited
Ġrepe tition
}, (\
ap pr
no dal
sc u
irc ase
Ġst ret
Ġfiber wise
Wi ener
S paces
q h
Ġ eqn
pla cian
ĠT hose
pre image
Ġreser ved
\| {\
ĠNe ighb
Ġti p
Rec ur
Ġconf used
= *,
sub graph
})\ )
cr v
sm t
N is
42 105
Ġ& <
resol vent
on y
Ġqu bits
ĠDer iv
b our
Ġ$\ !\!
Ġ$( [
5 17
Ġ1 46
cl t
Ġeq s
ĠInt uitively
Ġpor ous
{( }\
] })$
}] }\
Ġsl iding
ĠL SubSp
Ġelect rical
Ġbin ding
/ |\
5 67
Ġ1 53
Co st
fe asible
rie mann
B ayes
S lo
v A
Ġs po
Ġclassi fier
Le ib
Ġbar s
Ġ1 56
ad i
ĠN ode
Ġac cept
ĊĠĠĠĠĠĠĠĠĠĠĠĠĠĠĠĠĠĠĠĠ ĠĠĠĠĠĠĠĠĠĠĠĠĠĠ
5 30
P DF
ĠOr nstein
ar n
Ġper mit
fore st
Ġsaf ety
if pgfplots
array colsep
ĠIn put
TT T
com posite
Ġro ad
emp irical
= '
no tice
ince ton
Ġpla nt
Ar chimedean
Ġm inu
Ġ1 47
}) &
Le vi
End For
ĠAl gorithms
ĠR OM
ĠG i
0 64
Ġat ten
dis per
J ORDAN
Ġheuristic s
lo aded
ĠD un
ĠSDE s
SUR ABLE
Y X
Ġrear ranging
z ard
in prod
Ġcon gr
pro cedure
5 45
olu tely
Ġtensor ing
ĠMic hael
ĠI tem
ag ree
Ge os
de cre
ĠI MAGE
Ġs weep
Ġj obs
Ġpul se
88 3
eff ding
N V
Ġso cle
Ġff vel
smu ggle
ar m
cal g
ĠI M
Cla ssification
ĠRa demacher
or tant
{\ ,\
ic ing
he x
Ġ1 68
\| $,
z q
Ġ1 48
ĠPro j
eq P
si tes
ĠL em
Ġhol onomic
ĠâĪ ĺ
CO S
ĠCal ifornia
parsen umber
) %
Ġincreasing ly
Ġfol ding
= ,
E i
G ab
ie f
li pschitz
HH H
Ġdo i
/ ~
im prove
\, $,
ĠDis crete
W atson
Ġcry pto
Ġprac tically
W il
s sup
Ġp al
circ ular
ger m
Pre liminary
ĠUp date
Ġp tr
00 17
Ġevolution ary
ĠĠĠĠ ĊĠĠĠ
}} )^{-
ĠB al
Ġprox imity
o il
ef el
Ġquaternion s
pro posed
Ġnon vanishing
Ġsub div
lm er
ĠQu ad
ĠSci entific
T imes
b vec
Ġw reath
\}\ ]
00 78
ĠB ox
Mathe matical
es ti
Ġtw in
ĠA BC
ĠMean while
Ġ$\ <
cal W
th o
frac tal
forma tive
sha de
5 24
le ads
Ġpopu lations
La TeX
Ġoptim ally
d Q
r D
}\ ,\,\
enc ils
ĠCent ral
D n
Ġhomogen ous
ober ts
i I
Ġin fra
at oms
man ces
g onal
ĠC lsd
ish es
fon ts
J ones
S ample
g A
ĠT HE
tot ally
Des pite
row th
Po ints
According ly
ĠCor ollaries
Ġbroad er
}}$ ;
Ġconf erence
Ġannihi lator
00000000000000000000000000000000 00000000000000000000000000000000
nor me
00 16
Ġvic inity
C oker
W ol
ĠE dg
Ġbic ategory
ĠB O
Ġinitial ized
Ġspeed s
Sing le
k on
ĠSe gre
}] ^{\
D an
Ġcom m
ĠE V
' }-
F b
pack ing
Ġcore s
Ġindividu ally
ĠS yl
ĠEx istence
)) },
sur gery
Ġvisual ize
H older
T ERM
ent o
ia vin
Ġdise ase
Ġ1 70
au thors
ara th
P m
Ġ\ =
Ġcon fined
Ġsub domain
^*} {\
Ġmemory less
Con cluding
453 125
Ġ ]{
se veral
ap riori
Ġcollaps es
7 29
bu d
eff ect
ri o
bf d
sta tion
cc i
ov al
piece wise
n us
Ġunlike ly
m oto
end align
P x
Ap proxima
ph ic
Ġex its
Ro bust
ĠM it
$- {\
Ġ\, :\,
ĠQ R
ĠĠĠĠĠĠĠĠĠĠĠĠĠĠĠĠ ĠĠĠĠĠĠĠĠĠĠĠ
se ta
]= [\
* '
j ap
in l
ĠH ahn
Ġcontain ment
Ġ[- ]
]\ )
77 77
Ġ$\ ;
the ast
ĠChe eger
a ided
Ġdis place
Ġ20 17
Ġnonlinear ities
5 26
= +
Ġv ague
un ct
]$ )
-> }[
}[ [
b rackets
res erve
> _{
ĠD ol
Regular ity
F x
ĠG re
)}} ^
he lm
and es
Ġap p
fun ct
Ex ponential
R OM
Ġla min
sk a
rg an
5 97
V is
}| }{
}\, }
Ġrec ast
sch ur
$\, ,
b om
Re lations
Out line
g q
Ġro ll
Ġ$| {\
Ġrespon sible
}), (
5 65
vaila bility
text end
Ġpri ors
indexGrid Node
gener ation
DF OR
Ġcomple mented
cess or
ĠRes tric
}= [\
ow en
)< +\
IEEE membership
Ġcap ital
Ġabsor ption
88 2
PS K
mb o
ĠN L
Li ke
Ill ustration
Ġre define
ĠB A
ga u
Ġnon smooth
O dd
Pro c
Ġenn real
3 93
Ġde duction
S ketch
c is
o cc
ĠH art
ĠCon nes
}} },\
Ġg ad
Ġ" ((
ialgebra ic
24 24
ĠCalc ulus
Ġparadig m
}} }=\
&& -
alks N
P X
Ġantipo dal
4 66
Ġ$ ]
Ġl ives
vec b
resta table
Ġs ought
ss c
Ġunita ries
ma king
Ġ1 52
ĠF okker
ĠEx p
F Y
Ġc rystals
Ġfa iled
_+ )\
Ġring ed
Ag da
J ul
CONV EX
5 75
7 67
9 60
EV ERY
] #
q l
cro ssed
Ġin du
under bar
s pread
po sterior
ĠB OOLE
Ġ/ $
EN DFOR
ĠK im
))\ ,\
6 99
d cases
_* ^{\
Ġfro zen
aut omorphisms
ad ant
Ġstri king
ĠForm ally
f rm
B og
V AR
s J
ĠB ose
S tan
b ab
j z
re mo
Par tition
Ġantic om
f K
H OL
S an
Ġensu red
ĠC G
Com pare
0 68
Ġgeneral ise
\| <\
Ġpara dox
Graph s
^{ >
Comple te
in di
ref s
^{* }$-
Compu tation
Ġthor ough
Ġre actions
ke e
Ge o
Ġrenew al
5 66
in str
up to
makeat other
hrule fill
H m
O SS
w hether
rela tively
Ġadap ting
}} =(
addto savedmacro
u o
Î ²
ĠB B
Ġar Xiv
Ent ropy
s nake
fil t
MS C
ess sup
w inger
Ġqu andle
pp y
stop ping
Pr ism
/- !
Ġzer oth
$ +
g iving
Ġ$ &$
ĠS ze
ĊĠĠĊĠĠĊĠĠĊĠĠ ĊĠĠĊĠĠĊĠĠĊĠĠ
Ġneur on
isot ropy
HI LE
Ġt om
* >,
fin iteness
6 33
ak ian
Ġs qu
varian ces
bf H
)}\ ;
congru ence
Ġin eq
)) ,\\
Ġ\! \!\!\!\!
9 45
I u
Ġin exact
ĠU K
}^+ $,
Z z
9 14
Ġad missibility
_+ =
' }^{-
m tr
ĠS igma
ĠM E
\}$ )
Ġdisturb ance
R un
sel ian
\, ,\\
ici ency
con servation
Ġsign atures
Ġsub linear
^* }}
G ap
no isy
Un like
force ment
Ġhtt ps
auff man
ĠE ither
Ġ@ .
g rids
sq n
bf g
}| ,
nc line
ri el
pro ach
ignore spaces
Zyg mund
Ġcon flict
Ġmat ters
Wh ite
M K
Ġtrans mits
en chel
D Q
Ġ1 41
19 63
num obs
M oment
)}( {\
hy brid
re construction
De fining
ĠK ra
s Set
6 40
ĠB D
G x
}_ *(
Ġess ence
o M
ri zing
^* \|^
intro duce
Tor us
Ġcompe titive
6 60
ad v
:= [
mat A
Ġ( *)
ham iltonian
ĠRo sen
Ġc it
&=& (
ĠDo main
Ġstiff ness
K k
lo cus
)| }{\
pre pare
Ġclassical ly
Ġoper ate
Ġcom on
)[ -
Ġinver ted
] );
\, .$$
Ġnoise less
Ġimper fect
D imension
X CMPLX
Deriv ation
W c
Ġ Omega
}=\ {(
(* )
ĠScha uder
ch romatic
00 25
Ġsta tions
Ġbec ame
^{* ,
pec tive
il t
Ġsubt rees
b ir
})$ )
Ġdiver ge
^* )^{
ij ing
i man
ĠD O
/. @
Ġlogarith ms
T its
x bar
ti gu
ĠT est
' }^{(
Ġle m
iden tification
7 12
ĵ Ŀ
ist or
color map
Ġtermin ation
ĠTop Space
omen cla
i H
Ġp f
Ġe man
Ġb rought
Ġâ ĭ
Ġlexic ograph
$ )]
GR APH
T m
temp erature
] }]
Ġ rid
ĠL angevin
Ġsa nd
Ġn ilpot
equ s
Ġrela ying
Ġcontrac ts
( }
ct on
pa c
tex theight
)| +|
78 78
_{+ }^{
Ġsket ched
Ġoscil lating
J oin
R bb
Ġ- ,
ourcen ode
ĊĠĠĠĠĠĠĠĠĠĠĠĠ ĊĠĠĠĠĠĠĠĠĠĠĠ
8 16
non ym
rg odic
9 28
z hou
| _{(
Ġpercen tage
for s
}^+ $.
le aving
Ġl ic
}= &\
omet ries
ri k
Ġretri eval
O u
ig it
Ġp our
to pos
19 61
Ġpla t
{$ (\
Ã ¬
et ing
Ġ Â¬
Ġex posed
Ġ2 50
Ġ\< \
plic ial
ĠOr licz
E mail
On ly
Ġvis its
Ġcrystal line
en ame
ĠJ ournal
var Lambda
Qu anti
Ġhighl ighted
ĠWi kipedia
P erm
Ġsubs heaf
omencla ture
( ,)
AN T
Ġexpla ining
'' _{\
ĠSe iberg
al ready
}) +(
frak p
Ġcollaps ing
}) =-
Ġsp ine
Ġdiagon ally
unctor s
6 45
D etermin
F ul
$\ +
Ber nstein
! )^
c ausal
'$ };
78 947
step counter
vi linear
sol ved
intersection s
15 00
riff ith
ĠD r
bb B
iter ated
Ġrece iving
r N
ĠF eller
ma ple
N G
ref er
em er
ĠMa urer
tis tically
ĠHar ish
ĠAp pl
si o
ĠF rank
)} |^
C enter
om pact
cite s
Ġ$( (\
ĠMax imum
lan i
_+ }$
ĠLog ic
Ġ ~$
Ġc rack
Ġreview ed
uk aya
ĠMar k
ĠElem ents
\ }+
ma k
Ġ+ |
Ġle cture
Ġ... \
Ġ20 12
ĠSim on
_{\ !\
}' _{\
ĠN ull
58 3
X x
Ġ= {\
9 16
ĊĊĊĊĊĊĊĊĊĊĊĊĊĊĊĊ ĊĊĊĊĊĊĊĊ
ĠLe arning
ore lli
ĠTh ough
TOP OLOGY
r ality
ut z
Deriv ative
] =-
b Delta
Ġf rule
Ġi k
703 125
9 12
f N
i di
r sf
u j
Ġw hatever
Ġequ ilateral
_+ -
pri vate
ĠAust ral
( ),
son ic
86 3
K U
}$. )
Gra dient
distribu tive
ĠQ FT
compu tational
ot er
sh all
remain der
}{ *}{\
5 14
5 18
text md
bf r
EN G
. +
},\ {
)}) (
ilb er
Ġoff spring
Ġtang ency
Ġle verage
Ġpre print
hu is
)- {\
ĠParse val
' ]\
F eb
loo seness
Ġ1 49
sm allest
Ġcommen su
ĠBer lin
ĠK ontsevich
6 23
A rn
F Z
m se
ps pace
i pro
ĠL AT
n F
new ton
End o
\} }$,
Ġperfor mances
Ġ) -
Ġpenal ized
Ġa di
ce iver
ĠM orphism
ĠD onaldson
Ã¶ lder
Ġ1 65
}) )^{
0 67
Ġc txt
Ġsub ordin
Ġdecom posing
im u
}^{ #
Ġ15 1
I w
ĠD T
sin c
Ġconstitu ent
dra ft
ni tive
Ġvide o
Ġbe ams
vare p
Ġquanti fiers
Ġanomal ous
> ,\<
c df
ont ally
sen sitive
L ines
ĠS N
Ġhe mis
4 67
)}\ }_{
Ġsy lib
Ġc i
Ġresemb les
6 16
& :=\
7 25
ĠI sa
di al
In n
dic t
ĠGra dient
ĠInte restingly
\ }}}
Ġsu perp
Ġlead er
Ġun correlated
et t
)\ |^{
ĠM umford
Ġ* -
Ġb ridges
ri ll
ur ally
Ġsmooth ed
ĠLabor atory
* ((
up p
)=\ \
XX X
Ġw ins
ot ts
Ġwar ped
Z hou
$- --
$: }
7 17
ÂĲ Â¸
ĠDes pite
Ġprogression s
4 19
5 95
] }^{
a xi
ct xt
'' }$
b un
ĠF y
Ġresol ving
4 70
Ġ| =
all iavin
Ġfund ed
p H
Ġtes sel
Ġl m
Ġ} -\
Ġconver ted
Elem ents
Ġ( @
eq d
Lo cally
Ġplau sible
pu rious
9 65
Ã ļ
ts s
)$. )
11 12
ĠAu thor
A mb
Ġ} )\
Ġas set
Ġ~ =~
discre tization
H AS
da bility
sp line
par skip
orth ogonality
}) }=\
ĠPro gra
ipher al
T p
e o
y k
^{- }$
so b
ĠCh inese
reg ions
Ġ tikz
}) )\\
}) =\{
ĠN oting
Ġinfinite sim
ve ys
Ġhe ld
Ġgrading s
Ġw ra
Con nes
i M
Ġ( &
Ġqu ote
Ġsy li
ÂįÂį ÂįÂį
ĠModel s
pi le
man tics
K A
Ġsp line
ĠA U
do c
UN T
ĠWhen ever
Sing ular
em m
ĠX u
Ġout liers
distingu ished
Ġnon constant
Ġobserv ability
Ġexponential s
aux iliary
en riched
ĠIn f
)= |\
Inter section
is ition
Ġin distingu
Ġsur pr
Ġformal ize
203 125
propa gation
in sky
pgfarrow linewidth
9 13
l man
Ġqu bit
ĠJ u
mm y
ĠF A
ĠR et
end ar
ft en
lie g
ĠSti eltjes
5 33
in ess
int l
), {\
W atch
do v
Ġentangle d
qu aternion
w en
10 13
)) )=
pres cript
La x
Ġsci entific
Ġcompe tition
}[ $\
minim izing
' )^{\
k num
~ |~
Ġexamin ing
ĠCN RS
are r
ĠMulti plying
Ġpiv ot
absor bing
l two
55 3
ĠDecom position
Ġen gine
Ġ20 11
^{* }_
h erm
Ġtemp or
A Z
sp inc
DB LP
ĠGau ge
bf M
}] \\
Ġdivisor ial
Ġoff set
Ġun necessary
a ther
Ġ\! -\!
7 65
Ġ0 0
}| (
Ã į
theorem s
ĀĀ Ā
quanti zation
0 77
b Lambda
ou p
llip se
IEEE tran
S in
Ġra t
Ġqu al
Ġemp irically
scat tering
G f
iden tities
Hil m
ĠE ar
Ġdis order
ĠDe launay
Fa ce
Ġg ran
trac table
p ment
x w
., ~\
pun ctured
D w
_ !\
Ġn x
)\, =\,
Ġbig ra
6 11
Ġs pherically
P hysi
]\ ,\
ĠP ub
Ġstabil ize
Ġund e
69 1
Ġdecou pled
C how
M nd
Ġb asin
ĠR ate
88 88
Ġde ck
Ġpath wise
ile y
Ġanalog s
Ġque ues
J R
ĠIs om
WT ON
Ġdistinguish ing
sol ving
g M
Ġbuil ds
Th esis
ĠS pan
c pl
par ta
Ġ$ {{
ar ri
ĠI FS
tr ical
Ġstabil ized
k L
co bord
ot one
ĠV ia
{- }(
Ã Ģ
ĠF UNC
Ġcomponent wise
Ġval ence
x m
mp ler
bb c
ĠÏ Ĩ
ĠF actor
iv a
ĠCom pact
bound aries
Ã ´
ĠB lack
co cycles
m entation
r K
Ġno table
Ġ\, (
tm mathbf
Ġe psilon
tran cl
ĠV i
Ġtransform ing
] &&
as sisted
sf ield
55 55
ĠI oT
Ġquasi conformal
pro ves
ĠS un
po pu
8 24
D h
Ã Ĵ
b im
F lu
Ġexci tations
w ald
Ġ" $
Ġtra pez
* =
ĠN orth
(( -\
beq s
U l
and ering
Ġcdlem k
s ps
8 34
: :=
f ii
Ġrecor ded
C k
ĠR P
fan cy
im plying
Ġsu ble
')\ <
ĠL Span
Ġtra pped
Al go
ĠNetwork s
L Q
og ous
Ġac oustic
IS M
g om
- #
u line
}(\ {\
Z M
}$ &$\
Ġwork ers
Ġsw itched
8 35
ĠA NR
as k
R ational
se gments
ĠFUNC OP
I to
co algebra
IS J
in version
Ġun ordered
Ph ys
Ġ$ :
In ner
Ġmaxim izer
Ġ0 1
" ])
Ġ20 19
J C
ĠCON TINUOUS
orb ifold
Legend re
6 15
X S
Ċĉ ĠĠĠĠĠĠĠ
ten ing
bp f
, <
ne u
eeq a
omin o
ĠR en
sto kes
tens ors
yn olds
aver aged
cal h
Po incare
ĠĠ ĊĠĠĠĠĠ
bf p
^- }\
57 3
to s
pair wise
Ġ\ `
Ġas ynchronous
Ġpen tagon
vio let
r j
Ġ1 75
f all
Ġ1 62
ĠTh ree
ĠG W
odrom ic
Ġcapa bility
u ck
ha d
Qu ot
Ġp yra
Â ¡
Ġma gne
Ġsa ving
Ġpursu e
Ġoptim isation
Ġremo ves
Ã Ĥ
Ġhom o
Ġsto pped
ĠNo vikov
Ġrec nd
ran ishi
}[ $
ĠSUB ST
Ġtangle s
6 98
in set
ĠĠĠĠĠĠĠĠĠĠĠĠĠĠĠĠ ĠĠĠĠĠĠĠĠĠĠĠĠ
RE D
Ġflo ating
t W
is ogen
ĠR ank
Ġun imodal
Ġ. |
at tribute
Ġ) _
opy right
T v
7 22
in top
Ġver tically
Ġappre ciate
A nt
ĠV andermonde
Ġnormal izer
tin omial
Ġpredic table
Ġ '\
Ġpre order
}_ +(
mm m
Dia gram
t ta
Ġdefin iteness
ass n
OF DM
sem ithick
le a
Ġtourna ment
ĠH S
pi er
ĠW W
^- ,\
ĠMe asure
the footnote
v ices
Ġm x
ĠDis tribution
Ġcompac tifications
{\ {\
})\ |
ĠGraph s
Ġcon ormal
ou ra
Ġser ious
Ġexpon enti
UNION S
* (\
Ġsub interval
Ġrela tional
_- )$
M r
Ġ ^{-\
ĠD D
ĠLi ke
Ġ20 18
)^* $.
)] ^{\
Ġsubstitu ted
h ide
ĠPre cisely
Compu te
ĠP hi
ĠNone theless
colour ing
simu ltane
" ']
om o
Ġbi holomorphic
)) <\
_* }\
j y
w ti
ec ess
Ro bin
' ))$
5 70
\ }+\
om ics
ĠI F
ĠWe instein
X s
j w
Ġ1 54
}}\ }$
Ġtre nd
B lack
su e
ow itz
ĠIma ge
Ġ( (-
ĠR G
ĠE C
connec tivity
L k
Ġt rg
Ġto wers
ĠF T
Ġarchite ctures
x o
leq s
Ġbo ard
int d
Ġr cases
A y
ic ol
ex ten
Ġ$< $
M em
\ }\,.
Ġnon positive
bs ym
Ġreal isation
Ġextra polation
TOP REAL
perturb ative
Ġr p
Man in
Ġpref erence
Ġ1 63
Ġpr int
Ġex changing
ĠR an
Ġr k
remain ing
Ġ= $
ĠE ilenberg
;\ ,\
) ^*(
ĠC ong
ĠF aculty
ue lle
dis plays
}\, $
ĠMo ser
well formed
Ġsymmetri zation
Ġdelay ed
ticular ly
7 68
Ġh m
ĠM ackey
Ġk illed
00000000 00
Function al
, }\\
st ers
* _
: {$
Ġmo tive
s bs
Ġ. ||
Cor r
ĠTop ological
Min imal
: {
Ġter med
AC S
^{+ }_
Ġpull ing
Ġtrac ial
Ġlo ck
pic k
Ġte am
Ġsp iral
RG B
ĠT ree
hom ological
Ġemplo ys
ril lov
Ġpromin ent
bb a
cu toff
%% %%
ĠV V
}[ ][
B inary
^* /
Ġmulti grid
={ /
o ot
Ġ. ,
ĊĠĠĠĠĊĠĠĠĠ ĊĠĠĠĠĊĠĠĠ
groupo ids
56 3
Ġske in
ENG TH
bur ger
Ġreser vo
7 75
lim iting
Ġparallelo gram
@ >>>
Ġno tably
mo e
96 96
Ġ# #
bb z
26 315
publ ic
Ġintern ally
L K
Ġb ide
)= +\
O ps
Ġpre pare
Ġepi demic
lineno math
9 23
ĠR I
ĠS ER
ĠP ier
)) /(
Ġexce ptions
3 000
ĠI mpl
Ġexchange able
6 34
r F
Ġsub harmonic
Nikod ym
B erg
); }
Ġhol omorphically
parametri zed
ĠAW GN
se ed
ag orean
0588 235
ĠP faffian
&\ |\
[\ {
V E
{ ``
Ġd end
ĊĊĊĊĊĊĊĊĊĊĊĊĊĊĊĊ ĊĊĊĊĊĊĊ
ĠDiv ision
ĠLAT TIC
x B
Ġn r
gh m
)+ {\
X I
ĠU L
Ġrec tifiable
Ġphysi c
Ġprolong ation
V T
infinite simal
ga wa
Ġh ours
mo tiv
Ġatta cks
Ġelimin ating
GO BOARD
P w
17 17
oc ab
ĠS olutions
fra m
}^{\ {
Ġinter play
e uclidean
Ġma gic
Ġdiscreti ze
0 43
\, |\
ĠArtin ian
' }|
Ġsnap shots
Ġi h
re ll
ke ep
Ġro om
or ry
MA X
S J
ĠB ert
Ċĉĉĉĉ Ċĉĉĉĉ
6 78
Ġde ad
ĠD omin
ura te
Ġwa velength
]{-> }(
ĠJ ames
Ġ* >
DER IV
f ly
Ġ| |_{
triang ulation
p A
Ġ[ |
Ġcharacter ised
ĠAlex androv
Ġquasi linear
il st
pur ple
Ġnegle cted
ve lling
ges tion
la tional
ĠCor responding
' _{(
ĠC I
ĠD Vec
ĠRe presentation
logarith m
F U
^{ '}
16 16
mon ad
M Q
R ow
Ġcouple s
e ul
re ier
Ġt x
^+ -
57 2
ĠPer haps
F h
i R
Ġs hed
cu ts
thick lines
ĠAss oc
Ġhexag onal
t mop
Ġcon sult
Ġpropa gating
5 98
D rinfeld
in berg
sm al
$ )$
je e
beq q
diffe omorphism
ĠK le
ator ics
rou wer
ĠSub group
Ġrefine ments
r ist
ĠTh ird
AL S
^{** }$
B ran
Ġ} }$
Ġact u
Int uitively
ple s
Ġdecou pling
Ġo R
ul is
pgf extract
Ġra ise
)}\ }$
Ġshorten ed
19 58
Ġasser ted
8 85
N ak
p seu
ĠS LE
Ġdia gramma
9 85
tr g
87 3
^* )=\
Ġspace d
Po i
' ;\
m left
Ï Ĩ
ĠB et
Ġ{ }\
I OR
Character ization
0 92
ĠB lock
ist ency
old en
)| -
ois ing
P op
en ability
measu red
ĠPoincar Ã©
r st
ĠS IN
ĠM M
x tick
Ġ1 67
bf E
})\ ]
ĠEs timate
\, ;
S cale
Ġ1 59
Ġuncertain ties
& |
W b
Ġsw apping
ĠW il
k M
g ons
ĠHigh er
kee paspectratio
+ },
^+ =\
|}{ |\
7 26
O ff
le pi
ta rily
Lore ntz
0 39
Ġsh allow
iew icz
conclusion s
Ġoutper form
Ġpre vents
tab colsep
explicit ly
Ġdro ps
Stu dy
Ġsatell ite
ge x
ad ding
w ich
^{- }\
_{- }$
Ġign oring
Ch ris
Ġth read
5 20
Ġe lf
}} _{(
is se
ĠS CMP
Re ar
caption setup
reg ret
Ġcircum stances
f hi
Ġx vec
Ġnon standard
Ġ ĊĠĠĠĠĠĠĠĠĠĠĠĠ
Ġthere of
11 10
Ġarri ves
ĠChris toffel
W idth
ĠR ussian
cont ent
OMORPH IC
ch ern
ĠE mail
pr n
Ġm erging
ri ques
Ġ2 40
ca pa
requ ired
itch fork
st ress
ĠVol terra
Ġre ci
Ġal le
so bolev
Ġrequ ests
s an
ia m
\, $.
dim s
Î µ
stra t
h ori
j g
{ },
76 2
p N
ur ning
con forming
con servative
)) }^
0 31
c ms
eq a
Ġre tain
Ġ} )$
=( (
87 2
}^+ (\
m right
ak u
Ġsub schemes
conne cting
ĠM D
ps k
pre cise
Ġgo als
ĠP ell
Ġ[ \<
Ġbise ction
labell ist
if tikz
ĠE ve
)\, (
ĠMAT LAB
Ġ| \{
bu bble
Gal erkin
Re presentation
ige on
n K
Ġ1 66
la v
show ing
Ġ1 92
Ġtrans positions
m fa
a vailable
' )-\
Ġ\ })
^{* }}
ĠH ong
ok s
in stant
tt S
eeq q
infinite ly
deter mine
ĠRe gular
| )$.
ho pf
Ġpick ed
ĠF R
sy nc
und le
Ġdepend encies
Ġhe alth
ob serve
decom posable
ĠSTR UCT
ne ider
No ise
Ġparametri ze
t sum
Ġre ducibility
ĠSch midt
su g
Ġ2 10
_* :
expand ed
7 18
x to
z is
to po
ĠM ori
ĠLore nz
M is
ĠF ellowship
|| _\
)\ :
goth p
obser vable
Ġun ic
Ġ/ (
trunc ation
Ġabbre viation
p rm
Ġnormal isation
Ġho st
Ġcobord isms
@{. >}[
r set
5 68
Ġin fin
ĠS quare
ĠPo ints
Ġpi pe
i N
Ġs se
atur ally
mini max
Ġ1 58
corre ction
ĠMathema tik
Ġbenef icial
Z ar
n ick
Ġpara bola
ĠD irect
Ġfla vor
i S
no tations
Ġexplo its
m oreover
fine ment
tra ining
Ġdom inate
: }\
Ġf p
ĠP M
H uge
Ġd l
ref oil
BV P
Ġbor row
t j
Ġin tr
. }$
rr vert
ibra ted
5 90
A rtin
q g
s bt
\,\ ,\,
Ġg l
Ġview ing
8 40
7 80
ll vert
prec sim
ĠCS IT
8 25
ire less
Au to
win dow
ny i
C yl
Ġto y
\{\ ,
Sh ort
Ġ200 8
)*{ };
V N
Ġv oid
res pective
sub head
ĠW AYBEL
abbr v
Ġbott leneck
}. ]
Ġj ca
asi ew
Ġcol lar
ĠRE L
Ġpul led
5 88
de ux
ĠM odule
ctor al
ĠCon vex
ex pressed
K as
c prime
h ess
Greek math
Ġconveni ently
Diff erent
7 35
ĠL usztig
symme tries
Ġpredic ts
GG G
10 12
\! +\!\
NN N
ĠSol ving
C SI
i D
56 1
cal o
\ }}(\
)} :\
Ġsem ialgebraic
combin ed
^* |
)_{ |
Ġrank ing
>* )
ĠDiff erenti
h lin
ff unc
Ġoptim izer
rr n
Def of
f j
g pl
o om
sk etch
the enumi
9 35
o Z
}^{\ #
En v
ĠOrd inal
Ġm i
As sumptions
ma sk
ĠT ak
ĠA ra
ĠL ind
Ġcu rious
{ _{
colon equals
^{* })
ĠC ard
Ġsepara bility
ĠCar not
Constra int
9 24
N atural
G h
ch oo
Ġund ec
K oszul
c ould
ynam ical
Ġtransf ers
5 78
G ray
J Y
ĠF ar
_+ ^{\
tur ing
Ġpuzz le
olu mb
Ġn m
}{ }^{\
Ġpubl ication
permu tations
ĠKaz hdan
F ormal
Ġencoura ge
A ST
a ro
Ġi v
100 1
Ġsub problems
Ġresidu als
6 14
P eter
ĠEx act
Q H
ver ts
qu bit
ĠC over
Q CB
v fi
card inality
@ $\
J H
a tivity
Ġsche matic
Ġwish es
9 11
Ġ( ~
du als
19 62
ĠĠ ĊĊĊĊ
23 4375
{( -\
natur ally
ĊĠĠĠĠ ĊĠ
iv l
Ġsol itary
abs olutely
cs v
dec oding
sym Phase
geodesi cs
Q AM
S cho
~ \\
cal s
im m
}[ (\
pend ence
n D
pa y
Ġhyper k
ro ster
ist ing
Do F
Ġconnec tive
Ġsyli br
}] +
coinc ide
l ct
def ect
Ġsub monoid
R oughly
in ser
)} }\\
v oid
Ġex cluding
fin ding
Ġdia m
Ġwave lets
6 94
N U
] })\
ĠK K
Ex pect
Ġabs ent
Ġimpro per
, +}
Ġin direct
ĠM el
my def
easi ly
ĠS PDE
is cent
)} /\
Ġsub path
SU C
Ġcombinatorial ly
ams plain
}) &=
sume d
Com position
{{ :
pgfplots retval
Ġorth o
re ds
Ġ& {
V ia
ig a
Ġ3 60
ting s
Ġgra de
conju gation
discus sed
ÂĢ Ā
Ġco algebras
9 66
; "
)} }$,
Acknow ledgment
F AM
ĠS F
am il
ata ke
Ġpl urisubharmonic
Ġboo st
ilin son
bf V
Ġco ercivity
20 48
angle d
] ]\
Ġ _{(
Ġc p
ha ul
an onical
Ġstre ams
E h
Ġb ag
color able
' ^\
c ub
resul ting
ĠUn iv
Y e
Ġs moother
Ġg rey
ĠH al
Ġde par
ĠF f
ĠF g
Pen rose
f rob
ou los
ĠM ad
bu f
Ġ200 9
Pal ey
Pro jection
beq a
Ġwar m
fC enter
5 80
ib re
w isted
+\ \
Ġl cm
ĠChern off
horiz on
S ze
Ġle gal
ul um
ĠU P
Ġa z
}(\ |
* },
87 1
00000000 001
@ .
\ }:
ol ine
Ġcon cord
Ġse x
Ġexhibit ing
Ġatten u
z il
su ffic
}) &=\
Ġen compa
ĠDVec H
) Âĵ
6 27
Ha damard
ans atz
7 38
H essian
ĠT emp
&- &
Ġpro hi
Cont inuity
dou bling
ĠD uring
k le
Ġ\ }$$
ĠH OM
Ġev idently
Ġadjust ment
Ġland scape
ĠÃ© tale
. $}
Ġsp ot
real ization
Ġincorpor ated
8 68
t om
Ġ tim
Ġsp ent
T cal
ĠG ab
ul in
Ġsta tistically
_* ^\
ĠCont inuous
un t
ms cr
Ġtri valent
Ġex cited
ĠP OD
gen frac
Ġtigh ter
Ġo wing
po d
Ġle ver
con ic
Pa per
H g
Ġtrans lating
30 30
Ġ$$ |
Uni versal
7 23
}_{ |\
Ġfa v
ĠIntern ational
Ġ) ^\
mu ch
Ġnon abelian
under lying
Ġsequ ent
NUM SEG
)"\/" (
ĠS pectral
ĠO dd
)). \]
rig or
6 95
Ġde ffunc
so s
at ten
ĠC Y
nt om
ag g
Ġbasi cs
Ã ¸
ab in
ĠCom pared
regulari zation
pr d
CON ST
ut ter
ĠSCMP DS
Ġ tilde
ĠP lease
)= [\
Ġ16 1
Ġexperiment ally
( .,
st p
Ã¤ hler
Ġp uts
gin ary
Prob ability
ĠIns titut
ĠC u
vec v
Ġuno b
Â º
Ġin su
Ġco p
triangle s
Ġcom ultiplication
Ġ&&& &
0 42
Â ³
on ese
mu p
ĊĉĊĉ ĊĉĊĉĊ
Ġtemp er
98 4375
ĠWh ich
D ol
Ġ) _{\
trans versal
ester ov
5 44
H ermite
Non linear
Ġincorpor ating
}+ |\
uu u
trop ical
q ss
Ġgra d
Ga uge
Ġinter changing
idemp otent
] )^
Ġevalu ates
Ġframework s
Ġexper ts
ĠS IC
$$ =\
|| .
TH OR
level s
Ġre pr
commuta tivity
ĠTrans form
upharpoon left
8 12
d ence
be an
ĠB ack
ound s
ration ality
ish art
vo la
ĠBIN OP
r br
Ġlo ads
dd t
aff il
Ġgrateful ly
Ġexclu sively
k R
di er
hom ogeneity
Ind uction
EO I
I g
} --
Ġsub domains
un ch
ĠK P
ob vious
56 2
inte g
7 28
up lot
), ...,
Ġconstitu tive
{ >
ce les
repres ents
TU RN
Ġm pd
ne eded
}{| |
B t
M el
W ITH
k F
ĠĠĠ ĊĊ
replace d
Ġparen theses
Ġexpec ts
ĠAlgebra s
impor ts
g host
Ġpro poses
itu d
w m
Ġ1 64
ĠK ap
ow ed
Ġinves t
@@ @
_{- ,
B and
mid point
vers a
Ġindetermin ates
S inger
Ġi e
}^ -\
9 17
}} |^
link ed
Ġdro pping
Wh ich
Ġamalga mation
H aus
Ġ1 69
74 1
9 30
i L
center dot
)^+ $
8 95
on ov
re et
de cidable
)) )$.
})\ ;
ĠI A
ĠBell man
12 50
ĠV lasov
pgf decoration
SS P
develo ped
Ġin tra
wel ve
}) _{(
tikz library
Ġtu bes
}, [
parta ment
6 24
Ġun fortunately
Ġpar ties
Ġ1 73
07 4
& [
ĠB ere
13 24
\; =\;
number within
}} :=
ĠInter val
P ow
ĠInd ia
Ġadi abatic
E f
] _{(
ĠP SL
)) *(
ĠPh D
c un
Ġround ing
7 14
Ġf idelity
)| =|
S ci
col lision
' )}{
ĠL IN
ĠG ray
lst listing
C ay
Ġde sing
ĠA ns
^{- {
pe at
Ġpla cing
ĠW a
Q N
Ġst alk
K C
nu th
bo ots
non lin
}^{- }(
Ġaccom mo
il er
asiew icz
] |\
] =\{
k lo
Ġsuffici ency
Ġexhi bited
Ġdegener ates
Ġwitness es
6 85
b bar
Ġf riend
Ġre state
10 9375
_* )\
Ã ĸ
ĠK ore
Ġhoriz ontally
S ymp
Ġ1 90
M bar
r it
Ġ0 2
16 67
ĠFun cs
9 15
Q A
S x
Ġ- [
h ta
la d
ith ub
bf S
ssi ze
Ġmultiple x
gre y
ĠSchwarz schild
diame ter
$ ]{\
N OMA
Ġ ticks
sha ded
I O
Ġs pon
7 45
is sa
Than k
C Alg
or gan
ce ption
ds s
Ġdx dy
Ġmove to
S parse
Ġcon ics
00 22
Ġ2 05
Ġal beit
Ġtri es
Ġdecla re
p G
ĠL arge
ĠG lobal
ger ies
mon odromy
Ġd d
); \\
bb x
til t
analog ue
K ap
x E
ex terior
Ġ- $
ex er
Ġblow s
multipl ier
d lt
ff ler
}_{ [\
el le
Ġrelax ations
Ġconcrete ly
k B
Ġ$- (
No etherian
Ġexci tation
b ayes
al og
^* )}
M ur
Ġproble matic
functor ial
U ser
ver i
ĠD ual
on gest
ĠĊĉ Ġ
G rant
Ġf n
Ġb b
Ġco al
77 1
Ġinfer red
" \
Ġmeasu rability
Ġult rametric
}{\ @
IN D
ĠEq n
ma ted
Ġg ates
of ic
are y
cr l
Ġma sk
Ġsub intervals
sq cap
ĠRe LU
)$ &$
ĠK err
Se lf
conven tion
L ind
i lo
label enumi
Con n
ĠV II
ure wicz
Ġfol ded
uris tically
ĠM CMC
Ġhand ling
Du ality
>_ .
gra f
ĠMo tivated
}{ }{\
mathb in
au gmented
vec u
long to
modu lus
addto counter
Ġsupple mentary
x or
=\ \
ĠB regman
Group s
/ $
Q bar
X v
Ġin vert
ĠF S
Ġany where
Ġrequ ested
equ ire
17 28
mi er
ĠâĪ ©
' <\
pres sing
Ġtemp late
Ġsemin orms
a ware
es cap
Ġrepe lling
Ġou ts
ĠBound ed
6 35
I mm
Ġb io
Ġ| >
vi ations
ĠBo hr
ĠAdv anced
6 30
8 33
=\ |\
Ġsub modular
ind rom
or sion
Ġde gradation
ĠS till
family default
Ġ) }{\
ed en
Ġ& ~
Ġf riction
bo p
Ġinte llig
hl fors
F ano
Ġfin Supp
minim ization
8 45
nd ot
an nihi
Ġg al
ss m
pre p
ju gate
ĠEstima tion
6 96
ĠN aka
Ġseman tic
f ading
iter ative
7 13
C ob
h T
ĠSim ulation
" :
r ref
struction s
Ġmono pole
ĠE S
ĠE uclid
iter ia
linear ized
dec ision
K t
qu at
par row
over lap
Ġ\| {\
Ġ/ /.
&& =\
Inv G
Âļ Â¸
. ),
M Y
9 33
Ġ) ;
length s
ĠC ra
ĠR ING
_* =
Ġb ending
ĠRa ther
re placing
No ether
ĠSub space
Ġsubt raction
FI G
end input
ĠAl g
Differenti ating
8 64
ma ts
ĠThe oretical
dot size
tang ential
$ )-
]- [
5 99
ĠF EM
}] ,\
A le
B la
C ore
k ii
sub type
Th ough
Ġpgf p
g ner
x leftarrow
de mand
Ġre jection
Ġlocal isation
NN s
] >
Ġf vex
)) /\
umber some
00000000 00001
ĠPo sitive
ĠBound s
ĠBa um
Ġn an
Ġat tribute
Ġrefere es
ĠI MP
non degenerate
que ue
Compu tational
Ġarithme tical
, }\
S eries
ĠP ure
Ġga ined
' :\
S ort
Car lo
P age
W in
] |-
unc tive
8 28
_ }
f mf
Ġth resholding
Ġ+ \|
Ġcom posi
Ġun perturbed
Ġfound ations
Po set
Ġfavor able
th ref
}{ +
span ning
H alf
Ġpre pared
ew ner
F CA
P an
b omega
d To
t Z
te gy
ĠM F
ĠFunction al
Can telli
Ġhypered ge
Ġe mb
ĠF m
Ġamong st
- },
ro ll
ĠH H
ĠG Hz
ĠÎ ł
5 19
R ING
Ġperman ent
ĠEng lish
ĠB an
}) :\
id ity
}}\ )
}| +
CO M
58 2
Ġalpha be
Down arrow
Ġtors or
5 48
p ics
ad ically
ĠReg arding
Ġcon cise
Ġ| $
'' '(
Ġbo ils
Ġcas cade
v j
to y
Ġ$$ (\
ga ta
us p
Ġr ul
Ġtransfer red
Ġp n
pp r
s tima
Ġh en
ĠAn gle
Ġsu ffer
Ġar r
}_* (\
Ġhypered ges
G rothendieck
} ---
ref lect
ste psize
Ġtru ly
Ġretur ned
M X
W D
W ilson
Ġh ints
CD F
ĠFOR ALL
o matic
ĠS IR
ĠC ov
ms pace
Ġc t
ĠC os
}| {\
Ġ=== >
my label
ijen huis
)& :=\
5 38
8 78
ĠWe i
pre l
Opt A
independ ently
Ġre ada
g F
| ~\
Ġu id
ĠC ases
We ighted
id om
)" )
Ġkine matic
Ġ) ,\
mu s
are n
Ġsylan cr
h ra
par ti
ĠFor mulation
ni ties
sen ing
B k
it man
Ġconf lu
Ġshar per
F ore
g ln
Ġy ellow
Ġtrans finite
Dec ay
iden tified
Ġeman ating
}_{ _{\
Ġremin iscent
F ol
G J
M orphisms
Ġphra se
p ss
v th
Ġ( [\
ĠT au
}) )_{
set R
Th rough
ĠD ie
)}} {(
tite m
fint ype
$ ]\
}} )\\
Ġ1 86
5 36
b aki
Ġa vailability
ĠCon way
Ġcrucial ly
Ġres cale
prising ly
ĠIn ternal
ting er
inter acting
Ġsuper singular
re turns
Ġ@ >\
j ima
11 37
F redholm
[ --
n ls
^{+ }(\
Cent ral
Ġ }^{(
}} )}\
$$ =
Ġharves ting
9 18
ĠS eq
)) ),
plic ate
Ġconver sion
} ''(
' }}$
z ak
se min
Ġse vere
Ġle gs
ĠAs ymptotic
Ġbran e
})\ }$
Ġcal ibration
hu ang
she et
H r
til ing
cross ings
Â Ń
temp oral
ĠMat lab
Inter val
E lliptic
int u
ide m
Ġim pa
Lo ss
^- )\
Ġin consistent
Ġsing letons
kernel s
8 18
^{ '}(
)}, $
SO L
Ġdiver gences
fit ting
Ġstrengthen ed
Ġat tributed
Ġen rich
Ġcommunic ate
t binom
Ġle ts
co oper
}| -
06 2
ĠâĪ Ĵ
Inf C
.... ....
ĠA oI
Ġcopu la
iz u
Ġco action
\\ &=\
7 27
h A
Ġ& (\
ĠStar t
int O
We ierstrass
|- |\
Ġdeploy ment
5 64
y r
Â ©
is te
OU T
5 34
Ġformal ized
ĠMay er
* .
D on
ri f
ĠK ura
mark size
Ġser ving
5 47
ie g
Ġab und
Gener ic
Ġunex pected
m ref
s lot
ĠK en
Ġcer tific
4 93
Ġs r
)\ ,\,
Au thors
G ru
Ġob j
)--( .
ĠEqu ality
Dav is
J oint
b pi
S ay
w itness
colon eq
})= -\
ĠAd ding
channel s
Ġantic hain
^* }$.
RE E
Ġsto ck
g O
Ġb d
ĠG abor
Com mand
, :
id dle
OD O
n ic
sq r
Ġoccup ation
Ġequidis tant
itud inal
D Y
S ymmetry
ven umber
foli ation
es pecially
ha mmer
du mmy
ĠB aker
Ġen closed
hy pe
L ions
ref or
Ġ1 89
omega hat
ĊĠĠĊĠĠ ĊĠĠĊĠ
tr rd
Ġinter iors
Ġd h
ne gligible
Ġr sp
diff ic
Str ing
equal izer
ĠSum ming
k nots
Ġc ite
Ġ6 00
oun tain
Ġsix th
o j
ĠA nt
bis im
Ġffvel rnd
i dable
in vesti
Ġ$ ).
Ġrepe titions
H omeo
] \,.
ti que
&\ ;
)}$ ;
05 3
') ^\
ĠBe ijing
T K
\| <
TM L
ĠT utte
F k
N k
Ġliter al
S at
la cing
Ġmon omorphisms
ytic k
CV ec
++ (-
ĠT ensor
au ville
ab ling
ss d
Ġ`` \
7 11
i E
Ġdec iding
Ġillustra ting
Ġantic ipa
ĊĉĊĉĊĉĊĉĊĉĊĉĊĉĊĉ ĊĉĊĉĊĉĊĉĊĉĊĉĊĉĊĉ
T ext
ert on
Ġ200 6
en eq
Ġimp ulse
vi er
Ġsup pressed
`; ;
s able
ĠI ll
sub sub
'$ ;
ĠCar leson
Ġby pass
Ġex pan
}_+ $,
_{* ,
Tri vial
Ġassemb ly
E vent
n is
ĠH ess
LE TE
periodic ity
Ġqueue ing
desi red
S heaf
l ens
Ġwe alth
Ġstabil iser
K s
omorph y
Ġcompa ra
54 1
5 96
B p
F isher
}) }_{\
lar gest
Th urston
vis or
Ġa e
Ġreal ised
Ġaffin oid
7 97
X A
Ġseem ingly
syn tax
Q l
bf B
Ġtra ver
arg uments
ys in
14 14
ci on
contents line
55 2
Ġcompr ises
6 47
Ġin accessible
bf Y
\, ,\,\
ĠY au
&& &\\
Ar ray
Ġultra filters
ĠCent re
i prod
Ġp mf
ĠT erm
pr in
Ġregar ds
C ahn
H as
] }\\
}) })
ind ivi
44 44
$ _\
var Psi
bs k
ĉĉĉĉ ĉĉĉ
ĠDes ign
Ġs ch
Ġen clo
Ġshe ets
Ġdecre ased
Ġorgan ization
ĠMulti ple
rgan ization
arrow size
5 87
Ġsub object
Ġoper ates
Ġstrengthen ing
C ayley
ĠA long
, $\
9 10
en ched
Ġra ises
r P
Ġ` \
{[ }
ĠAr chimedean
pgfmathround to
gra ve
ĉĉ Ċ
vari ous
ĠNrm CVec
7 48
ĠH OL
ke ley
]. \]
under stood
Min im
ore ma
BOUN D
Ġturbul ence
5 22
Ġb as
Ġ. \\
hy dro
W A
Ġc lone
Ġpre para
Max imal
9 34
b at
amb le
en code
Ġs mart
ĠR B
pr v
Ġmanip ulation
< {\
Ġex changes
Ġx cp
[\ ![
'' }(
Ro sen
Â £
Ġ\{ |
gu yen
ĠGo od
ĠSti efel
network s
n ul
ĠF x
Ġhyper bol
es sel
rac es
Ġl iving
| )^{\
Ġ1 84
}}\, ,
th ms
ĠTh rough
ise ux
Pro ve
k E
sum es
ple ctic
ĠK re
Ġ$(\ {
spec ies
Ġ$(* )$
th ur
ĠKo opman
Ġacqu isition
ĠIden tity
li ardo
Ġobe ying
Ġmultic ast
ĠHir zebruch
10 34
Ġquanti fied
d K
ĠC irc
Ġab c
be ault
to v
ĠL C
16 00
Ġem erging
Ġdegener ations
Ġepoch s
V v
Ã ĵ
ĠT C
l V
l ub
Ġ\ }_{\
ur in
Ġmulti graph
sin k
| }$,
Ġd ans
ad o
& &=
8 27
tra pping
Ġbelie ved
Ġexecu ted
ord inal
]^ (.
expon entially
B ul
i F
ll corner
Ġprocess or
Ġtechn ically
ma d
is ker
}_ *\
partial ly
ogon ally
}} )_{\
0000 02
acc urate
bid v
ĠEqu ivalence
Ġsynchron ous
basi cs
' )}$
Ġmain taining
Ġindic ators
Ġs purious
ĠCon stant
d ff
ĠA E
ĠT QFT
ch uk
ab er
ĠE valu
ob serv
sn ap
commun ication
R ham
or ok
Ġcent rally
g ens
ha ber
Ġfin itary
determin es
ĠREL SET
L ess
Ġf l
Ġquanti fication
Fig s
L HS
numer ics
Loop Str
Ġf irm
e uclid
ma terial
ĊĊ ĠĊĠ
ĠE ducation
Ġco chains
ow ards
bb er
i um
Ġ+ {\
_{+ }(\
Ġepim orphisms
S yl
Ġindistingu ishable
K re
Ġa delic
Ġc umbersome
base point
b ip
ch ner
b ma
Ġ(_ )
inter po
Ġ ridge
Ġint end
Ġspi ke
R g
qu ist
\}$ }
Ind e
ĊĠĠĠĠĠĠĠĠĠĠĠĠĠĠĠĠĠĠĠĠĠĠĠĠĠĠĠĠĠĠĠĠĠĠĠĠ ĠĠĠ
suff ix
ĠIntegra ting
O ri
de form
Re als
)| ^{-
AL SE
Ex tended
ĠP ara
19 55
LE FT
Ġanaly sed
multi set
E PS
08 4
Ġmy self
COMP ACT
ĠR C
Ġsub cases
Ex pansion
iden tify
Ġcollect ing
Ġphot on
Ġses qui
< *)
var d
MEA SURABLE
Ġgaus sian
8 15
9 70
CONJ UNCT
L INEAR
make cell
ĉĉĉĉĉĉĉĉ ĉĉĉĉĉĉĉĉ
Ġleak age
Ã İ
ĠS outh
cont ract
ĠRo ta
P CA
Ġs sel
fra mes
Ġc am
ĠĠĠ ĊĠĠĠ
)}+\ |
ĠBour gain
{ --
pro v
ext d
pgfplots array
e as
Ġg t
ĠIn c
0000 07
Ġaccom pan
Y o
Ġ ĊĠĠĠĠĠĠĠĠĠĠĠĠĠĠĠĠĠĠĠ
ĠA MP
âĪ ŀ
"\/" (
smuggle one
5 94
ĠT om
Ġforget ting
7 24
8 14
19 50
SP S
AM E
: \{
da d
ĠI SSN
}}( (
Ġrecogn ized
5 46
^+ )^
ma kes
me dian
ĠĠĠĠĠĠĠĠĠĠĠĠĠĠĠĠ ĠĠĠĠĠĠĠĠĠĠĠĠĠĠ
pgf dv
sto ck
8 65
ĠĠ ĉ
^* \|
ĠSu mma
Ġinjection s
Ġextrac ting
COMM ENT
.. /
Ġcar ds
ĠTar get
@ =
si d
Ġconnec tives
6 90
K at
P seudo
it le
Ġequiv ariance
isc id
par ser
RE CT
mc a
tex p
ĠW ron
ud ent
\> $
en tangle
Ġf undament
ĠU V
}] )$
Ġeasi est
mu ta
tr al
get M
Ġpanel s
Ġattach ment
Ġco simplicial
Set Kw
6 38
Ġexceed ing
C age
Ġex pander
Cal abi
ĠYama be
4 21
te tra
ce x
Ġlim sup
sha red
B oolean
N cal
S olutions
Ġto day
17 23
ĠJ ORDAN
dash line
ject ures
Ġtrace less
Ġdefinite ly
| .$$
)] ^{-
e us
pon ents
footnote mark
SI G
_ .
ĠJaco bson
R IS
Ġ1 76
Ġvar ied
Cur l
Ġelectron s
Ġopport unity
M ilnor
Ġcon tributing
ĠA ff
8 67
U A
s ke
Ġfactor ing
)" /\"
ĠLie b
Ġequidis tribution
[ ][
cal m
Ġ1 79
Ġ$\{ {\
{$ #
Ġhandle body
Ġbary centric
7 98
8 94
v L
}$ _
Ġin structive
Ġquali tatively
le ur
\[ (\
Mat ch
descri be
He at
&+ &\
ĠN ik
ĠZ e
ee an
Ġcharg ing
ĠBla schke
asymp t
riffith s
}\,\ ,\,
Ġvio lates
Ġ( â
Will iams
ha racter
,- ,
ĊĊĊĊĊĊĊĊĊĊĊĊĊĊĊĊ ĊĊĊĊĊĊĊĊĊĊ
Ġab surd
w q
trinsi cally
Q T
xi ties
13 13
pr g
Ġinterf ere
Ġin tractable
oo o
Ġsyn tax
d va
Ġin formal
Ġgra nd
Pro vide
J e
k ur
s and
Ġ5 12
Re view
): =(\
z hu
N erve
sc en
^{* }$.
ĠCha p
ĠMechan ics
Ġs quee
bra k
)\, |\,
un neth
Sy mb
7 33
ĠPro v
Ġsimpl ifications
ĠCompu tational
represent ing
M g
Ġb ij
)^{ *}
Ġanswer ing
Vi etoris
Ġdiagonal ization
s equ
te li
Ġm or
Ġ2 20
L r
append ices
Ġcohom ologies
J T
00 23
ĠW ood
kov ich
L infty
Ġb ill
ts hor
16 05
Ġgraph ics
[] );;
. '
Ġdomin ance
Anal ytic
Ġnum bered
10 17
Ġany way
Ġconv olutions
ĠPri mary
Ġst range
]: =
|}{ $\
Mu kai
}) ^*\
no tes
@< .
S ame
Ġpla sma
Ġsec ant
Mar k
zi one
Ġbord ism
ore g
Ġ2 07
otz kin
We iss
El se
ĠNak ayama
] )"
ĠF our
ĠG inzburg
Ġances tor
ã ģ
IN DE
Ġfib red
four th
immediate ly
signific ant
; Âĳā
ann ulus
Star t
}\ /
od in
Ġro bot
Le ibniz
Ġ\! \!\
U W
Ġu u
Ġover laps
[ $,
Ġ{ .
b Phi
k at
Ġ1 71
Ġrandom ization
Co eff
Ġrevis it
5 43
@ >\
ĠK n
^+ }(
dv ol
ĊĠĠĠĠĠĠĠĠĠĠĠĠĠĠĠĠĠĠĠĠĠĠĠĠĠĠĠĠĠĠĠĠĠĠĠĠ Ġ
Ġshadow ing
Ġbide gree
i C
Ġ2 007
Ġta ctic
les ky
+ ...+
z r
re nd
Ġwe l
19 57
Ġweak ened
{$ '$}
th om
Def n
link ing
neighb ors
Ġheter oclinic
Leib ler
.\ @
trajector y
}{ =
Ġration ality
}} }+\
big o
Ġsub jects
coun terexample
M k
^ ^
ĠIn variant
}}\ !\
\|\ |
Ġtermin als
tshor ne
)| &\
har m
ĠÏ Ģ
Ġ1 95
bf T
58 1
6 36
{ :}
Ġin tric
Ġne at
cr ys
ĠPo incare
7 78
ma genta
fa xis
ĠAmer ican
ra gged
let ters
}$- $\
Ġdemonstra ting
m ol
^- =
Ġco ordination
55 1
ĠDe fining
IS PECL
}\; ,
Ġzig zag
i Y
al ex
eq sp
Ġcol lective
7 39
ot onicity
^* },
ordinate s
$ (-
F undamental
W asserstein
v re
ĠM ONO
6 10
}} ~
') +\
Ġintegra tors
Âİ Âĵ
7 95
K MS
Ġf urn
rever sible
> &
\ }}{\
Equ ality
Ġpack ings
Ġins pi
us ta
ĠP F
7 34
hi k
Ġent ropic
! }.
P otential
ĠC ategory
ser ves
ura ev
He isenberg
ĠGM RES
Ġpix els
[ .
h ari
Ġ) };
ĠS tability
ger up
K I
K Y
c zy
ĠG NS
Ġper me
cell ular
Ġinteres ts
Gu o
Ġ1 85
Ġadvan ces
oft en
: &
> ))"
At om
Ġfron tier
ĠB ran
sa w
7 44
H ULL
im mersion
Ġh c
Ġenumer ated
se tof
inde composable
ĠMate matica
me z
Z c
sub goal
:=\ {(
86 2
summa tion
lo p
Ġ{ }^{
re versal
co ords
Ġthermodynam ics
Ġm pan
pa st
hist ory
}\ },\
Ġmark ings
SI R
Ġremo vable
ĠPOLY NOM
l ists
ri ends
Ġlast S
CL AU
Ġmotiv ating
Ġfair ness
Ġmolecu le
I b
Ġ rights
Ġo cton
Ġ{ {{
B z
c ies
en rod
Ġ2 25
di e
26 26
ĠCon struct
suma bly
@ {|
B ern
^ !\
h Q
o si
en umer
00 24
Ġun folded
INTEGR AL
Ġsy nd
Ġpas sed
Ġdiffusion s
tric k
ste l
}' =
Ġsignal ing
Ġ1 99
all en
ĠInd e
Ġreconstruction s
}_{ _{
A O
ĠT ao
Ġcom posable
AB CD
M LE
}^+ ,
P red
}. (
if pgfarrow
ĠP at
Ġob s
ĠHu ang
ĠĠ ĊĠĠĠĠĠĠĠ
ĠI MATCH
ĠF ukaya
par tim
ĊĠĠ ĊĠĠĠ
ĠB ir
pgfplot marksize
z an
^{* }$,
aa gerup
t J
ĠI EC
ĠC re
}/ (\
Ġpost pon
triv list
p orted
Ġf ee
ra g
ich er
proof of
Ï ĥ
qu al
ps d
form er
bl Fn
Per iodic
BOUN DED
Ġfill ings
intr insi
se x
no tion
com bine
oo per
Ġillustra tive
ĠSem i
C amp
65 65
W FF
Ġan nular
ij n
Ġcorre lators
Ġmis match
end owed
pro f
)}} =
ĠStein berg
7 47
cal ing
Ġlook ed
ID s
LE MMA
_{*} (\
d U
ĠX X
near ly
Form ally
' )$-
re cent
he uristic
we ed
Ġmis take
is um
ĠF IN
Ġ2 26
L two
[ ]]
Ġ1 81
ĠI so
ĠF eder
]{ @{}
let t
Ġ/ .
Ġtru st
Z E
sub manifold
J N
c star
Ġa rtin
ĊĠĊĠ ĊĠ
Ġpre de
){ }
ine x
ĠM T
ĠM il
ĠRe lations
Ġ '$
Ġg h
Con nected
calc ulation
ĠBR ST
' \|_{
g rant
M ed
Z W
] }}\
g C
ĠH F
19 59
ĠSta tes
Ġecon omic
00 20
I RS
w bar
Ġst ro
Estima tion
intert w
\ }}{
}} }{(
id imensional
oun kov
79 1
ĠQu anti
m ild
ĠS en
res sively
12 35
DE s
E rw
Ġexecu te
6 70
on n
la in
mc S
' )\,
op norm
ott ky
C v
s ent
la dder
^{- |\
Ġ* '
ag ier
triang ulated
configura tions
5 29
s om
urc ation
ĠNE WTON
g R
im oto
pro gram
Ġv i
01 00
Ġprescri ption
( +
8 47
p R
Ġm sg
Ġfact ored
ĊĊĊĊĊĊĊĊĊĊĊĊĊĊĊĊ ĊĊĊĊĊĊĊĊĊ
ens ored
;\;\ ;\;
y pos
ul iar
dic tion
Ġstand ardi
set t
Re ad
D yn
th read
un ipotent
ev an
' }+\
8 13
A long
U Y
Ġestima tions
Ġ1 74
ry m
Ġin st
Ġdef iciency
cod imension
{ }_\
ĠP SD
Ġtrivial ity
57 1
ZZ Z
Ġca vity
fr s
A dv
plic ity
plic ative
uniform ity
rm H
Ġk lt
sq subset
16 33
}| =\
Ġ{ |\
sc ow
addt olength
ĠT IT
Ġnumber ing
Ġremain ed
Ġdevelo ps
H urwitz
b ialgebra
ĠL ow
') _
7 66
h F
ho colim
Ġ2 16
Ġdete cting
o O
lem entation
)}\, ,
[...]
