{"<|endoftext|>":0,"!":1,"\"":2,"#":3,"$":4,"%":5,"&":6,"'":7,"(":8,")":9,"*":10,"+":11,",":12,"-":13,".":14,"/":15,"0":16,"1":17,"2":18,"3":19,"4":20,"5":21,"6":22,"7":23,"8":24,"9":25,":":26,";":27,"<":28,"=":29,">":30,"?":31,"@":32,"A":33,"B":34,"C":35,"D":36,"E":37,"F":38,"G":39,"H":40,"I":41,"J":42,"K":43,"L":44,"M":45,"N":46,"O":47,"P":48,"Q":49,"R":50,"S":51,"T":52,"U":53,"V":54,"W":55,"X":56,"Y":57,"Z":58,"[":59,"\\":60,"]":61,"^":62,"_":63,"`":64,"a":65,"b":66,"c":67,"d":68,"e":69,"f":70,"g":71,"h":72,"i":73,"j":74,"k":75,"l":76,"m":77,"n":78,"o":79,"p":80,"q":81,"r":82,"s":83,"t":84,"u":85,"v":86,"w":87,"x":88,"y":89,"z":90,"{":91,"|":92,"}":93,"~":94,"¡":95,"¢":96,"£":97,"¤":98,"¥":99,"¦":100,"§":101,"¨":102,"©":103,"ª":104,"«":105,"¬":106,"®":107,"¯":108,"°":109,"±":110,"²":111,"³":112,"´":113,"µ":114,"¶":115,"·":116,"¸":117,"¹":118,"º":119,"»":120,"¼":121,"½":122,"¾":123,"¿":124,"À":125,"Á":126,"Â":127,"Ã":128,"Ä":129,"Å":130,"Æ":131,"Ç":132,"È":133,"É":134,"Ê":135,"Ë":136,"Ì":137,"Í":138,"Î":139,"Ï":140,"Ð":141,"Ñ":142,"Ò":143,"Ó":144,"Ô":145,"Õ":146,"Ö":147,"×":148,"Ø":149,"Ù":150,"Ú":151,"Û":152,"Ü":153,"Ý":154,"Þ":155,"ß":156,"à":157,"á":158,"â":159,"ã":160,"ä":161,"å":162,"æ":163,"ç":164,"è":165,"é":166,"ê":167,"ë":168,"ì":169,"í":170,"î":171,"ï":172,"ð":173,"ñ":174,"ò":175,"ó":176,"ô":177,"õ":178,"ö":179,"÷":180,"ø":181,"ù":182,"ú":183,"û":184,"ü":185,"ý":186,"þ":187,"ÿ":188,"Ā":189,"ā":190,"Ă":191,"ă":192,"Ą":193,"ą":194,"Ć":195,"ć":196,"Ĉ":197,"ĉ":198,"Ċ":199,"ċ":200,"Č":201,"č":202,"Ď":203,"ď":204,"Đ":205,"đ":206,"Ē":207,"ē":208,"Ĕ":209,"ĕ":210,"Ė":211,"ė":212,"Ę":213,"ę":214,"Ě":215,"ě":216,"Ĝ":217,"ĝ":218,"Ğ":219,"ğ":220,"Ġ":221,"ġ":222,"Ģ":223,"ģ":224,"Ĥ":225,"ĥ":226,"Ħ":227,"ħ":228,"Ĩ":229,"ĩ":230,"Ī":231,"ī":232,"Ĭ":233,"ĭ":234,"Į":235,"į":236,"İ":237,"ı":238,"Ĳ":239,"ĳ":240,"Ĵ":241,"ĵ":242,"Ķ":243,"ķ":244,"ĸ":245,"Ĺ":246,"ĺ":247,"Ļ":248,"ļ":249,"Ľ":250,"ľ":251,"Ŀ":252,"ŀ":253,"Ł":254,"ł":255,"Ń":256,"th":257,"in":258,"Ġ\\":259,"Ġ$":260,"on":261,"Ġa":262,"Ġth":263,"ĠĠ":264,"ti":265,"re":266,"en":267,"Ġthe":268,"al":269,"er":270,"_{":271,"Ġs":272,"ma":273,"or":274,"le":275,"is":276,"Ġo":277,"Ġc":278,"tion":279,"te":280,"ta":281,"be":282,"Ġf":283,"ra":284,"nd":285,"Ġof":286,"Ġw":287,"Ġ$\\":288,"Ġ(":289,"ro":290,"la":291,"ig":292,"de":293,"{\\":294,"Ġp":295,"es":296,"Ġin":297,"ar":298,"Ġt":299,"eq":300,"ĠĠĠĠ":301,"at":302,"Ġis":303,"se":304,"^{":305,"Ġand":306,"}\\":307,"si":308,"ing":309,"om":310,"(\\":311,"Ġe":312,"Ġb":313,"ic":314,"ve":315,"ha":316,"ol":317,"he":318,"math":319,"su":320,")$":321,"end":322,"}$":323,"Ġn":324,"ts":325,"Ġto":326,"ce":327,"Ġthat":328,"Ġd":329,"me":330,"ĊĊ":331,"Ġi":332,"ref":333,"gin":334,"Ġfor":335,"begin":336,",\\":337,"rac":338,"an":339,"ft":340,"Ġ=":341,"lo":342,"ly":343,"ation":344,"equ":345,"}}":346,"igh":347,"_{\\":348,"Ġwe":349,"ĠT":350,"ver":351,"Ġre":352,"Ġg":353,"Ġcon":354,"st":355,"frac":356,"}{":357,"cal":358,"ll":359,"ite":360,"mb":361,"Ġ)":362,"$.":363,"ed":364,"Ġu":365,"Ġ&":366,"Ġbe":367,"ph":368,"it":369,"ou":370,"ction":371,"ch":372,"ct":373,"righ":374,"$,":375,"ent":376,"Ġon":377,"ga":378,"ith":379,"im":380,"et":381,")\\":382,"Ġby":383,"ot":384,"mma":385,"Ġ-":386,"Ġm":387,"ri":388,"Ġpro":389,"Ġsu":390,"Ġ1":391,"ĠĠĠ":392,"ĊĠ":393,"Ġde":394,"pa":395,"Ġas":396,"})":397,"}(":398,"left":399,"right":400,"equation":401,"Ġan":402,"},":403,"ho":404,"ĠA":405,"Ġ0":406,"da":407,"ore":408,"ĊĠĠĠĠ":409,"ine":410,"Ġwith":411,"bel":412,"ge":413,"qu":414,"pro":415,"label":416,"pha":417,"ĠS":418,"mu":419,"^{\\":420,"Ġha":421,"alpha":422,"eta":423,"Ġma":424,"to":425,"=\\":426,"_\\":427,"mp":428,"ĠI":429,"Ġex":430,"int":431,"mbda":432,"Ġ+":433,"mathb":434,"ble":435,"ĠC":436,"ĠL":437,"mathcal":438,"of":439,"Ġh":440,"ĠF":441,"ted":442,"ir":443,"ad":444,"-\\":445,"Ġare":446,"Ġx":447,"psi":448,"line":449,"iv":450,"per":451,"Ġv":452,"ter":453,"low":454,"tim":455,"}.":456,"res":457,"cite":458,"do":459,"du":460,"tex":461,"00":462,"un":463,"if":464,"ur":465,"Ġcom":466,"ec":467,"us":468,"po":469,"ĠThe":470,"lta":471,"ĊĠĠĠ":472,"ĠB":473,"lambda":474,"sub":475,"Ġ2":476,"}^":477,"ign":478,"$\\":479,"leq":480,"phi":481,"}^{":482,"times":483,"Ġal":484,"up":485,"as":486,"igma":487,"Ġwh":488,"}_":489,"here":490,"ome":491,"lar":492,"ity":493,"*}":494,"dots":495,"We":496,"fin":497,"Ġ|":498,"tive":499,"tial":500,"ĊĊĊĊ":501,"ap":502,"ran":503,"lon":504,"Ġthis":505,"The":506,"sum":507,"ĠP":508,")}":509,"ĠĠĠĠĠĠĠĠ":510,"ence":511,"ĠR":512,"$$":513,"tic":514,"ĠM":515,"tr":516,"fty":517,"infty":518,"+\\":519,"il":520,"ut":521,"Ġhave":522,"til":523,"ĠH":524,"\\\\":525,"ds":526,"Ġse":527,"big":528,"align":529,"^{-":530,"for":531,"Ġpo":532,"set":533,"rom":534,"$-":535,"tar":536,"}_{":537,"orem":538,"Ġcan":539,"ne":540,"^\\":541,"Ġ(\\":542,"mathbb":543,"Ċĉ":544,"pi":545,"par":546,"ich":547,"di":548,"Ġor":549,"ĠN":550,"text":551,"var":552,"um":553,"pl":554,"tilde":555,"row":556,"eqref":557,"tri":558,"id":559,"ollow":560,"~\\":561,"beta":562,"ĠTh":563,"sion":564,"no":565,"|\\":566,"ide":567,"Ġ\\\\":568,"der":569,"Ġif":570,"ab":571,"dot":572,"rm":573,"Ġ`":574,"}{\\":575,"sigma":576,"xi":577,"psilon":578,"Ġfollow":579,"iz":580,"Ġle":581,"ate":582,"ure":583,"the":584,"Ġ[":585,"tions":586,"gamma":587,"over":588,"ase":589,"Ġfrom":590,"tau":591,"Ġk":592,"),":593,"}(\\":594,"Ġno":595,"theta":596,"/\\":597,"Ġ{":598,"Ġy":599,"Ġthen":600,"Ġat":601,"unction":602,"rho":603,"gle":604,"De":605,"Ġl":606,"quad":607,").":608,"nt":609,"delta":610,"ener":611,"ĠG":612,"Ġit":613,"ĠE":614,"Ġsa":615,"con":616,"ex":617,")$.":618,"Ġme":619,"ie":620,"pe":621,"hat":622,"Ġsuch":623,"Ġall":624,"Ġwhich":625,"com":626,"ound":627,"ple":628,"ss":629,"Ġ$(":630,"ell":631,"ul":632,"so":633,"cdot":634,"ĠX":635,"}$.":636,"ther":637,"od":638,"ĊĠĠĠĠĠ":639,"Ġ{\\":640,"ck":641,"ms":642,"Ġfunction":643,"all":644,"ies":645,"ty":646,"pace":647,"^*":648,"def":649,"tain":650,"Ġpa":651,"Ġr":652,"lem":653,"item":654,"bar":655,"Ġset":656,"partial":657,"Ġun":658,")=":659,"bf":660,"and":661,"Ġob":662,"ces":663,"ĠD":664,"how":665,"ps":666,"12":667,"Ġsub":668,"proof":669,"Ġdis":670,"ray":671,"tarrow":672,"Ġ\\<":673,"}$,":674,"ill":675,"Ġ}":676,")$,":677,"omega":678,"Ġnot":679,"Ġco":680,"Ġmo":681,"nu":682,"sta":683,"mathbf":684,"geq":685,"mber":686,"ia":687,"Ġap":688,"ach":689,"10":690,"&\\":691,"orm":692,"section":693,"ctor":694,"))":695,"ial":696,"mega":697,"min":698,"Ġ:":699,"Omega":700,"Ga":701,"ys":702,"array":703,"ote":704,"ff":705,"--":706,"are":707,"Ġ/\\":708,"ĠĊ":709,"Ġ<":710,"posi":711,"cl":712,"Ġsta":713,"20":714,"Ġ3":715,"bra":716,"ĠWe":717,"ian":718,"Ġthere":719,"Ġz":720,"roup":721,"Ġdefin":722,"Ġgener":723,"Ġany":724,"Th":725,"sc":726,"gra":727,"Ġus":728,"umber":729,"Ġone":730,"rightarrow":731,"hi":732,"ents":733,"Gamma":734,"]{":735,"orph":736,"Ġfin":737,"ru":738,"ular":739,"Ġpar":740,"ince":741,"em":742,"ĠK":743,"we":744,"mo":745,"pon":746,"Ġfa":747,"Ġwhere":748,"rt":749,"sf":750,"bo":751,"Ġshow":752,"Ġhas":753,"ere":754,"olu":755,"Ġbound":756,"Let":757,"ous":758,"\\<":759,"sul":760,"sed":761,"wo":762,"iff":763,"ke":764,"Ġsim":765,"\\|":766,"og":767,"Ġ.":768,"ĠIn":769,"wide":770,"In":771,"Ġ|-":772,"irc":773,"Ġgiv":774,"Delta":775,"position":776,"trix":777,"sq":778,"co":779,"varphi":780,"Ġcase":781,"ld":782,"Ġ\"":783,"ree":784,"ical":785,"[\\":786,"ĠV":787,"ĠW":788,"ator":789,"cap":790,"11":791,"epsilon":792,"Ġnon":793,"und":794,"ĠU":795,"^{(":796,"Ġresul":797,"op":798,"}}\\":799,"ldots":800,"pec":801,"Ġfollowing":802,"alu":803,"gf":804,"ding":805,"mple":806,"Ġequ":807,"Ġne":808,"tation":809,"sqrt":810,"Ġlo":811,"red":812,"fig":813,"Ġden":814,"ist":815,"Ġj":816,"Ġsome":817,"ension":818,"olds":819,"otimes":820,"pgf":821,"eqn":822,"Ġcont":823,"Ġtwo":824,"ition":825,"\\[":826,"pres":827,"irst":828,"gebra":829,"ip":830,"overline":831,"Big":832,"where":833,"cc":834,"Ġver":835,")^":836,"}[":837,"omorph":838,"tric":839,"lan":840,"Ġalso":841,"Ġad":842,"Ġra":843,"Ġwill":844,"}^{\\":845,"emma":846,"mathrm":847,"Ġ,":848,"},\\":849,"19":850,"}_{\\":851,"Ġinte":852,"ĠTheorem":853,"ting":854,"lim":855,"Ġeach":856,"La":857,"13":858,"Ġonly":859,"Ġ->":860,"Ġ\\,":861,"sider":862,"nab":863,"Ġqu":864,"\\]":865,"\\!":866,"Ġproof":867,"ix":868,"Ġlet":869,"nabla":870,"Ġar":871,"Ġfollows":872,"au":873,"ĠO":874,"fra":875,"Ġdo":876,"ĊĊĊĊĊĊĊĊ":877,"Ġimp":878,"pt":879,"lemma":880,"vare":881,"circ":882,"Ġcla":883,"Ġ4":884,"\\,":885,"varepsilon":886,"Ġgiven":887,"Ġassu":888,"pp":889,"15":890,"ĠThen":891,"gor":892,"Ġcomple":893,"Ġobtain":894,"ĉĉ":895,"Ġso":896,"Ġdiff":897,"clu":898,"ĠLet":899,"Ġspace":900,"col":901,"14":902,"ally":903,"ary":904,"}=":905,"dition":906,"ists":907,"Ġgroup":908,"ment":909,"ess":910,"Phi":911,"Ġnumber":912,"ast":913,"frak":914,"perator":915,"log":916,"Ġcor":917,"Ġres":918,"Ġcha":919,"tisf":920,"very":921,"raw":922,"new":923,"ality":924,"16":925,"oth":926,"ĊĠĠĠĠĠĠĠ":927,"ample":928,")=\\":929,")(":930,"je":931,"subset":932,");":933,"pend":934,"ves":935,"linear":936,"Lambda":937,"na":938,"Ġgra":939,"ard":940,"imension":941,"Ġfirst":942,"del":943,"Ġinter":944,"nce":945,"thm":946,"ism":947,"Ġfinite":948,"ise":949,"rk":950,"Ġst":951,"duce":952,"rangle":953,"Ġsatisf":954,"ĊĠĠ":955,"Ġover":956,"ĠY":957,"Ġla":958,"\\{":959,"put":960,"ĠFor":961,"Ġform":962,"ties":963,"18":964,"kap":965,"its":966,"rans":967,"ĠLemma":968,"Ġta":969,"25":970,"Ġequation":971,"''":972,"bu":973,"Ġvar":974,"chi":975,"plic":976,"draw":977,"kappa":978,"cent":979,"Ġsolu":980,"old":981,"..":982,"Ġq":983,"space":984,"langle":985,"ĠThis":986,"yste":987,"emph":988,"Ġper":989,"Ġprove":990,"Ġusing":991,"99":992,"For":993,"main":994,"ĠZ":995,"stru":996,"eqnarray":997,"Ġevery":998,"Ġes":999,"pla":1000,"ger":1001,"gh":1002,"Ġrela":1003,"mathfrak":1004,"vector":1005,"ize":1006,"Ġdefined":1007,"17":1008,"ges":1009,"})$":1010,"Ġop":1011,"Ġpoint":1012,"Ġstr":1013,"mall":1014,"cdots":1015,"Sigma":1016,"matrix":1017,"ffic":1018,"umer":1019,"ility":1020,"widetilde":1021,"Ġter":1022,"oly":1023,"ĠQ":1024,"};":1025,"ĠJ":1026,")}\\":1027,"ser":1028,")^{":1029,"zeta":1030,"equence":1031,"Ġ>":1032,"Ġmap":1033,"Ġorder":1034,"Ġalgebra":1035,"Ġelem":1036,"Ġproble":1037,"non":1038,"Ġsee":1039,"ĠĠĠĠĠĠĠĠĠĠĠĠĠĠĠĠ":1040,"ind":1041,"Ġconsider":1042,"ssi":1043,"Ġdiffere":1044,"tima":1045,"time":1046,"tes":1047,"ero":1048,"theorem":1049,"Ġdenote":1050,"ong":1051,"sec":1052,"Ġsy":1053,"sim":1054,"ations":1055,"eps":1056,"Ġother":1057,"Ġproper":1058,"prop":1059,"|^":1060,"olog":1061,"Ġgeneral":1062,"pect":1063,"led":1064,"respon":1065,"ric":1066,"ĠPro":1067,"ox":1068,"}-":1069,"'s":1070,"ight":1071,"Ġits":1072,"pu":1073,",-":1074,"ork":1075,"rime":1076,"Ġsyste":1077,"cor":1078,"asu":1079,"Ġ$(\\":1080,"ry":1081,"mark":1082,"}).":1083,"nder":1084,"fine":1085,"ases":1086,"Ġuni":1087,"Ġwhen":1088,"75":1089,"ust":1090,"Ġ\\{":1091,"les":1092,"inu":1093,"rame":1094,"finition":1095,"Ġuse":1096,"idth":1097,"ak":1098,"ĊĠĠĠĠĠĠĠĠ":1099,"man":1100,"ten":1101,"let":1102,"Ġexists":1103,"cture":1104,"cup":1105,"ints":1106,"ral":1107,"mand":1108,"Ġour":1109,"subsection":1110,"ord":1111,"ply":1112,"Ġ5":1113,"now":1114,"cre":1115,"out":1116,"fa":1117,"ival":1118,"23":1119,"ert":1120,"vi":1121,"Ġvalu":1122,"graph":1123,"Ġassume":1124,"bove":1125,"den":1126,"Ġsame":1127,"not":1128,"our":1129,"ay":1130,"Ġabove":1131,"pose":1132,"ĠIf":1133,"\\<^":1134,"tical":1135,"}+":1136,"ow":1137,"]$":1138,"clude":1139,"Ġcorrespon":1140,"Ġoperator":1141,"Pro":1142,"mula":1143,"Ġpre":1144,"ire":1145,"24":1146,"ffici":1147,"command":1148,"ated":1149,"Ġen":1150,"tit":1151,"sh":1152,"Ġvector":1153,"pm":1154,"})\\":1155,"Ġtrans":1156,"tribu":1157,"mme":1158,"Ġresult":1159,"ant":1160,"ĊĊĊ":1161,";\\":1162,"Ġthese":1163,"ci":1164,"Ġinde":1165,"qquad":1166,"33":1167,"newcommand":1168,"ue":1169,"{(":1170,"Ġmodel":1171,"refore":1172,"ven":1173,"Ġgraph":1174,"Ġrepres":1175,"jec":1176,"Ġposi":1177,"Ġ\\|":1178,"dis":1179,"asi":1180,"teq":1181,"li":1182,"ĊĠĠĠĠĠĠ":1183,"wh":1184,"scri":1185,"Ġpartic":1186,"norm":1187,"bb":1188,"Ġclo":1189,"vert":1190,"]\\":1191,"Ġup":1192,"Ġconsta":1193,"Ġman":1194,"ould":1195,"Ġbet":1196,"Ġproblem":1197,"Ġreg":1198,"sing":1199,"bm":1200,"Ġunder":1201,"Ġimpl":1202,"Ġestima":1203,"}=\\":1204,"Ġ_":1205,"max":1206,")-":1207,"mi":1208,"Ġtime":1209,"Ġmeasu":1210,"Ġ--":1211,"ond":1212,"mbol":1213,"map":1214,"Ċĉĉ":1215,"che":1216,"ĠSe":1217,"Ġcur":1218,"omorphism":1219,"omial":1220,"neq":1221,"sup":1222,"ii":1223,"Re":1224,"Ġfunctions":1225,"Ġcho":1226,"Ġmul":1227,"Ġmore":1228,"kip":1229,"figure":1230,"Ġpoly":1231,"0000":1232,"able":1233,"cm":1234,"Ġdefine":1235,"widehat":1236,"}),":1237,"Ġtheorem":1238,"vec":1239,"60":1240,"ization":1241,"ween":1242,"){":1243,"Ġcompa":1244,"Ġext":1245,"plit":1246,"Ġsection":1247,"Ġmatrix":1248,"ied":1249,"Ġsolution":1250,"Ġsince":1251,"center":1252,"ive":1253,"varian":1254,"ield":1255,"forma":1256,"Ġbut":1257,"Ġpres":1258,"ded":1259,"Ġcontain":1260,"22":1261,"Ġappro":1262,".,":1263,"Ġholds":1264,"width":1265,"one":1266,"valu":1267,"long":1268,"}}{":1269,"Ġequival":1270,"Ġcondition":1271,"Ġconstru":1272,"Ġsh":1273,"Ġresults":1274,"Ġph":1275,"Ġanal":1276,"Ġlinear":1277,"30":1278,"Ġlocal":1279,"&=":1280,"}^\\":1281,"tively":1282,"Ġclass":1283,"ory":1284,"ij":1285,"mbox":1286,"ula":1287,"Ġbetween":1288,"Ġexample":1289,"tab":1290,"Ġ${\\":1291,"Ġcontinu":1292,"plus":1293,"Ġcal":1294,"45":1295,"Ġmay":1296,"'$":1297,"Ġimplies":1298,"seteq":1299,"bin":1300,"mm":1301,"Ġty":1302,"Ġ:=":1303,"cy":1304,"ilar":1305,"prime":1306,")]":1307,"umerate":1308,"(-":1309,"66":1310,"Ġsequence":1311,"Ġro":1312,"28":1313,"bs":1314,"Ġparticular":1315,"\\}$":1316,"enumerate":1317,"Ġtri":1318,"ics":1319,"ib":1320,".}":1321,"Ġnorm":1322,"Ġmulti":1323,"This":1324,"}}$":1325,"90":1326,"node":1327,"ĠIt":1328,"see":1329,"Ġmin":1330,"Ġstru":1331,"Ġ/":1332,"Ġstate":1333,"Ġsystem":1334,"Ġnow":1335,"Ġcol":1336,"40":1337,"Psi":1338,"35":1339,"^+":1340,"table":1341,"subseteq":1342,"Ġconver":1343,"27":1344,"Ġcompu":1345,"ion":1346,"ose":1347,"mul":1348,"duced":1349,"tro":1350,"Ġpoints":1351,"Ġed":1352,"Ġformula":1353,"under":1354,"ext":1355,"Ġfix":1356,"Ġcomplex":1357,"minus":1358,"Ġhom":1359,")|":1360,"Ġthan":1361,"with":1362,"){\\":1363,"gorith":1364,"eng":1365,")+":1366,"}|":1367,"ers":1368,"ategor":1369,"}]":1370,"<\\":1371,"Con":1372,"Ġconstant":1373,"If":1374,"Ġpositive":1375,"form":1376,"),\\":1377,"act":1378,"cha":1379,"nomial":1380,"nonumber":1381,"Ġrepresen":1382,"ential":1383,")}{":1384,"Ġhence":1385,"Ġiden":1386,"Ġfact":1387,"Ġ&\\":1388,"ving":1389,"80":1390,"oplus":1391,"Ġknow":1392,"que":1393,"prod":1394,"{-":1395,"Ġ6":1396,"}\\\\":1397,"duct":1398,"ized":1399,"Ġinto":1400,"iable":1401,"Ġget":1402,"Then":1403,"econd":1404,"setminus":1405,"ee":1406,"textbf":1407,"am":1408,"Ġ$\\{":1409,"Ġwell":1410,"Vert":1411,"ng":1412,"ish":1413,"ymbol":1414,"Ġ&=":1415,"Ġdimension":1416,"Ġreal":1417,"edge":1418,"dd":1419,"ĠAs":1420,"box":1421,"95":1422,"}:":1423,"ov":1424,"finite":1425,"Ġlar":1426,"lary":1427,".\\":1428,"Ġref":1429,"pre":1430,"sto":1431,"mpty":1432,"Ġmeth":1433,"ĠProposition":1434,"ollary":1435,"kz":1436,"$$\\":1437,"rameter":1438,"Ġhy":1439,"26":1440,"Ġder":1441,"Ġpaper":1442,"val":1443,"}+\\":1444,"mooth":1445,"ology":1446,"Ġcons":1447,"imal":1448,"Ġbounded":1449,"Ġdeg":1450,"indent":1451,"Ġinequ":1452,"ength":1453,"85":1454,"ack":1455,"Ġdefinition":1456,"tikz":1457,"racter":1458,"ub":1459,"ĠSection":1460,"group":1461,"As":1462,"70":1463,"Ġend":1464,"bed":1465,"exp":1466,"Ġexist":1467,"ability":1468,"Ġwas":1469,"AC":1470,"Ġsur":1471,"Ġapply":1472,"ĠBy":1473,"ĠSince":1474,"Ġmean":1475,"Ġdistribu":1476,"omet":1477,"Ġout":1478,"Ġdire":1479,"~$":1480,"Ġpolynomial":1481,"Ġnode":1482,"bolds":1483,"By":1484,"dy":1485,"cess":1486,"Ġau":1487,"star":1488,"boldsymbol":1489,"Ġwr":1490,"Ġidenti":1491,"Ġboth":1492,"Ġcorresponding":1493,"equiv":1494,"Ġzero":1495,"Ġsecond":1496,"lf":1497,"bit":1498,"mon":1499,"}^{(":1500,"nel":1501,"paces":1502,"Ġused":1503,"ently":1504,"Ġ*":1505,"65":1506,"}&\\":1507,"EN":1508,"ze":1509,"jective":1510,"34":1511,"):":1512,"tep":1513,"_*":1514,"}}(":1515,"^{-\\":1516,"Ġlim":1517,"Ġ-\\":1518,"ort":1519,"ĠRe":1520,"}-\\":1521,"ĊĠĠĠĠĠĠĠĠĠĠĠĠ":1522,"split":1523,"pr":1524,"name":1525,"200":1526,")}$":1527,"gorithm":1528,"duction":1529,"cus":1530,"98":1531,"ndom":1532,"noindent":1533,"nec":1534,"bigg":1535,"urther":1536,"ors":1537,"_{(":1538,"Ġfield":1539,"Ġprob":1540,"plo":1541,"Ġstructure":1542,"Ġdia":1543,"Ġsatisfy":1544,"_+":1545,"soc":1546,"Ġpair":1547,"mid":1548,"Ġterms":1549,"ice":1550,"ditions":1551,"by":1552,"Ġ(-":1553,"RE":1554,"Ġintro":1555,"Ġ$$":1556,"ag":1557,"Ġdoes":1558,"Ġ$[":1559,"Ġwork":1560,"ok":1561,"Ġsmall":1562,"Ġte":1563,"wedge":1564,"Ġmax":1565,"colon":1566,"bound":1567,"Ġtype":1568,"Ġright":1569,"Ġvariable":1570,"Ġsing":1571,"\\|_{":1572,"Ġmeasure":1573,"Ġstu":1574,"ata":1575,"Ġcontinuous":1576,"oint":1577,"It":1578,"}\\,":1579,"Ġmodu":1580,"Ġparameter":1581,"Ġran":1582,"io":1583,"variant":1584,"78":1585,"small":1586,"call":1587,"Ġdescri":1588,"igen":1589,"ull":1590,"Ġge":1591,"ni":1592,"Ġdepend":1593,"\\}":1594,"Ċĉĉĉ":1595,"ner":1596,"which":1597,"itemize":1598,"dimension":1599,"Ġtop":1600,"forall":1601,"dim":1602,"48":1603,"vial":1604,"el":1605,"Ġcharacter":1606,"Ġide":1607,"definition":1608,"fill":1609,"tional":1610,"hom":1611,"omorphic":1612,"wer":1613,"color":1614,"atur":1615,"Ġ@":1616,"96":1617,"wise":1618,"38":1619,"xima":1620,"sty":1621,"Ġ_{":1622,"scr":1623,"21":1624,"Pi":1625,"ough":1626,"Ġboundary":1627,"rou":1628,"gral":1629,"ac":1630,"dic":1631,"Since":1632,"ns":1633,"less":1634,"socia":1635,"fter":1636,"36":1637,"ause":1638,"inate":1639,"iel":1640,"Ġtheory":1641,"Ġrandom":1642,"bul":1643,")^{\\":1644,"mapsto":1645,"Ġsmooth":1646,"={":1647,":\\":1648,"stric":1649,"Ġ$|":1650,"Ġconditions":1651,"sity":1652,"Ġinequality":1653,"style":1654,"}_\\":1655,"ĠThus":1656,"Ġclosed":1657,"cs":1658,"Ġspec":1659,"Ġelement":1660,"Ġexact":1661,"Ġsatisfies":1662,"pic":1663,"Theorem":1664,"err":1665,"Ġsymme":1666,"ved":1667,"Ġcompact":1668,"Ġinteger":1669,"pectively":1670,"tice":1671,")_{":1672,"oreover":1673,"ĊĊĊĊĊĊĊĊĊĊĊĊĊĊĊĊ":1674,"Ġdeter":1675,"Ġdifferent":1676,"play":1677,"ategory":1678,"formation":1679,"97":1680,"als":1681,"limits":1682,"ens":1683,"uppose":1684,"ument":1685,"50":1686,"para":1687,"tices":1688,"|_{":1689,"$}":1690,"}}}":1691,"Ġproduct":1692,"ĠCon":1693,"Ġneed":1694,"Ġâ":1695,"'\\":1696,"Ġcompon":1697,"Theta":1698,"Ġrespect":1699,"Ġ|\\":1700,"000":1701,"}}{\\":1702,"Ġthus":1703,"hline":1704,"Ġoptim":1705,"vious":1706,"gy":1707,"=(":1708,"94":1709,"sin":1710,"iform":1711,"empty":1712,"bullet":1713,"mption":1714,"ields":1715,"oun":1716,"stra":1717,"clo":1718,"Ġleft":1719,"nected":1720,"Ġelements":1721,"dx":1722,"'_":1723,"modu":1724,"vex":1725,"remark":1726,"vide":1727,"Ġobtained":1728,"Ġchan":1729,"Ġhe":1730,"tations":1731,"~~":1732,"dimensional":1733,"Ġsimilar":1734,"ture":1735,"'(":1736,"TAC":1737,"pan":1738,"skip":1739,"ordinate":1740,"Ġlarge":1741,"Ġfixed":1742,"onal":1743,"Ġobser":1744,"Ġsimple":1745,"&&":1746,"37":1747,"Ġassocia":1748,"top":1749,"Ġpla":1750,"gence":1751,"Ġarg":1752,"Definition":1753,"cases":1754,"pendent":1755,")}(":1756,"side":1757,"cong":1758,"ication":1759,"Ġlemma":1760,"Ġ7":1761,"Ġunique":1762,"Ġeigen":1763,"Ġtheir":1764,"Ġprobability":1765,"algebra":1766,"Ġsol":1767,"ink":1768,"Ġmon":1769,"Ġsum":1770,")^{-":1771,"sla":1772,"->":1773,"----":1774,"jection":1775,"Ġ8":1776,"Ġaction":1777,"ature":1778,"Ġ``":1779,"age":1780,"Ġprocess":1781,"effici":1782,"Ġbeing":1783,"Ġdegree":1784,"Ġvalue":1785,"Ġbase":1786,"',":1787,"include":1788,"Ġwho":1789,"caption":1790,"Ġpossi":1791,"ifold":1792,"ject":1793,"Ġshows":1794,"arrow":1795,"mc":1796,"display":1797,"Ġdata":1798,"proposition":1799,"^-":1800,"asis":1801,"Ġsets":1802,"AL":1803,"Ġproperty":1804,"verse":1805,"Ġopen":1806,"cr":1807,"Ġgives":1808,"graphics":1809,"lation":1810,"Ex":1811,"inf":1812,",\\,":1813,"cos":1814,"Ġapproxima":1815,"Ġnatur":1816,"--(":1817,"Ġfind":1818,"lear":1819,"44":1820,"Ġmetric":1821,"Ġcalled":1822,"Ġ\\(":1823,"includegraphics":1824,"ick":1825,"To":1826,"Ġbec":1827,"Ġequivalent":1828,")$-":1829,"ically":1830,")\\,":1831,".$":1832,"Ġspaces":1833,"Ġterm":1834,"Ġpart":1835,"ĠĊĠ":1836,"vel":1837,"32":1838,"Ġhand":1839,"Ġlimit":1840,"bility":1841,"Ġrespectively":1842,"ax":1843,"IT":1844,"Ġrequ":1845,"underline":1846,"Ġcy":1847,"cale":1848,"Ġmethod":1849,"ST":1850,"mathscr":1851,"work":1852,"Ġequations":1853,"Ġcommu":1854,"Ġpr":1855,"Ġmost":1856,"itial":1857,"Ġcirc":1858,"cur":1859,"IN":1860,"face":1861,"Ġfactor":1862,"Ġpath":1863,"Ġintegral":1864,"LE":1865,"ual":1866,"ndard":1867,"rough":1868,"Ġassociated":1869,"05":1870,"ang":1871,"ĠĠĠĠĠ":1872,"Ġedge":1873,"Ġdifferen":1874,"tt":1875,"}^{-":1876,"Ġprovide":1877,"hed":1878,"Ġab":1879,"zero":1880,"ract":1881,"istic":1882,"inc":1883,"$)":1884,"ness":1885,"Ġbeen":1886,"ON":1887,"tiv":1888,"ile":1889,"Ġlow":1890,"Ġvalues":1891,"Ġ}\\":1892,"Ġmain":1893,"Ġ^":1894,"tra":1895,"Ġli":1896,"Ġgo":1897,")/":1898,"Ġdom":1899,"ĠFig":1900,"textit":1901,"Ġeven":1902,"HEN":1903,"Ġsign":1904,"$(":1905,"47":1906,"AT":1907,"owe":1908,"ating":1909,"Ġproperties":1910,"Ġnormal":1911,"deg":1912,"Ġlength":1913,"sy":1914,"Ġthey":1915,"Ġvari":1916,"Ġ\\;":1917,"Ġvertex":1918,"Ġ10":1919,"Ġdiv":1920,"owever":1921,"imum":1922,"cla":1923,"mann":1924,"ĠRR":1925,"],":1926,"Ġsche":1927,"Ġway":1928,"Ġcomplete":1929,"Now":1930,"dt":1931,"Ġexpres":1932,"Ġline":1933,"))\\":1934,"Ġcoeffici":1935,"Ġsolutions":1936,"tan":1937,"Ġwould":1938,"]:":1939,"Ġtra":1940,"Ġsupp":1941,"Ġclassi":1942,"ĠHence":1943,"Ġtak":1944,"))$":1945,"Ġrestric":1946,"Ġvertices":1947,"Ġhigh":1948,"Ġdetermin":1949,"angle":1950,"olution":1951,"lat":1952,"hspace":1953,"ln":1954,"Ġdistribution":1955,"pmatrix":1956,"68":1957,"Ġ$.":1958,"Ġmust":1959,"that":1960,"ymp":1961,"rr":1962,"isms":1963,"Ġhyper":1964,"ame":1965,"ures":1966,"Ġequal":1967,"Ġac":1968,"ings":1969,"aligned":1970,"29":1971,"\\{\\":1972,"unctor":1973,"\\!:":1974,"SE":1975,"Ġbi":1976,"Ġacc":1977,"Ġuniform":1978,"ative":1979,"df":1980,"Note":1981,"gram":1982,"ments":1983,"Ġwrite":1984,"Ġ+\\":1985,"joint":1986,"Ġhow":1987,"Ġlat":1988,"\\!:\\!":1989,"Ġleast":1990,")}{\\":1991,"Ġweak":1992,"Ġgroups":1993,")-\\":1994,"MP":1995,"mily":1996,"cted":1997,"lack":1998,"67":1999,"back":2000,"~$\\":2001,"Ġside":2002,"Ġbecause":2003,"Ġthree":2004,"size":2005,"thes":2006,"Ġalgorithm":2007,"Ġsubset":2008,"{{\\":2009,"((":2010,"Ġmaps":2011,"Ġcases":2012,"iew":2013,"_{-":2014,"point":2015,"Ġconstruction":2016,"Ġconnected":2017,"Ġima":2018,"EE":2019,"Ġderiv":2020,"ither":2021,"Ġindependent":2022,")\\\\":2023,"Ġrepresentation":2024,"quare":2025,"pgfmath":2026,"Ġestimate":2027,"Ġmorph":2028,"ĠTherefore":2029,"loor":2030,"=-":2031,"')":2032,"Ġgenerated":2033,"Ġmany":2034,"Ġinfinite":2035,"ĊĠĠĠĠĠĠĠĠĠĠĠ":2036,"simp":2037,"ker":2038,"Ġem":2039,"55":2040,"Ġ?":2041,"error":2042,"Ġstandard":2043,"tur":2044,"Ġnatural":2045,"ste":2046,"Ġnote":2047,"ful":2048,"ks":2049,"Ġsay":2050,"duc":2051,"Lemma":2052,"est":2053,"Ġdomain":2054,"Ġbund":2055,"Ġsubgroup":2056,"sume":2057,"fo":2058,"add":2059,"Ġcategory":2060,"Ġhere":2061,"inter":2062,"Ġstra":2063,"Ġdiscus":2064,"abs":2065,"Ġbasis":2066,"Ġser":2067,"\\,\\":2068,"mis":2069,"Ġinitial":2070,"ĠTHEN":2071,"Ġcontra":2072,"nam":2073,"lob":2074,"Ġregular":2075,"operator":2076,"stack":2077,"ob":2078,"CC":2079,"64":2080,"ton":2081,"Ġ=\\":2082,"ĊĠĠĠĠĠĠĠĠĠ":2083,")+\\":2084,")_":2085,"[(":2086,"hen":2087,"ĠTo":2088,"Ġcontro":2089,":=":2090,"lu":2091,"Ġshown":2092,"**":2093,"ont":2094,"Ġisomorphism":2095,"Ġcoordinate":2096,"wa":2097,"Ġapproach":2098,"Ġadd":2099,"round":2100,"gative":2101,"}},":2102,"Ġdecom":2103,"Ġstar":2104,"vers":2105,"bitra":2106,"Ġgive":2107,"Ġextension":2108,"olic":2109,"Ġnew":2110,"FF":2111,"77":2112,"Ġknown":2113,"Proof":2114,"bl":2115,"ep":2116,"Ġdirect":2117,"Ġpossible":2118,"tance":2119,"Ġdy":2120,"88":2121,"open":2122,"sp":2123,"sign":2124,"Ġstudy":2125,"\\'":2126,"aus":2127,"note":2128,"Ġconvex":2129,"iven":2130,"rue":2131,"ighb":2132,"xy":2133,"Ġspect":2134,"cle":2135,"}$-":2136,"picture":2137,"ĠSo":2138,"93":2139,"Ġcontains":2140,"energy":2141,"Ġsup":2142,"Ġ\\]":2143,"ympto":2144,"ĠAl":2145,"tin":2146,"gain":2147,"tag":2148,"reg":2149,"ĠNote":2150,"ene":2151,"Ġtake":2152,"Ġgeomet":2153,"rem":2154,"Ġwhose":2155,"lock":2156,"RR":2157,"orollary":2158,"rel":2159,"Ġsuffici":2160,"Ġthrough":2161,"most":2162,"bigl":2163,"$;":2164,"sure":2165,"ning":2166,"*{":2167,"cise":2168,"Ġent":2169,",$":2170,"bigr":2171,"ities":2172,"ĠĠĠĠĠĠĠ":2173,"Ġarbitra":2174,"ance":2175,"})$.":2176,"Ġfree":2177,"DE":2178,"crete":2179,"Ġvariables":2180,"lin":2181,")\"":2182,"Ġremain":2183,"ences":2184,"01":2185,"Ġfamily":2186,"Ġsize":2187,"Ġassumption":2188,"Thus":2189,"inally":2190,"Ġbelow":2191,"\\\"":2192,"Ġlast":2193,"ented":2194,"mathsf":2195,"Ġ~":2196,"trices":2197,"posed":2198,"oted":2199,"plicit":2200,"Ġmeans":2201,"anti":2202,"clusion":2203,"vee":2204,"Ġconvergence":2205,"Ġsen":2206,"Ġsimp":2207,"Ġoperators":2208,"ĠMoreover":2209,"velo":2210,"Ġproved":2211,"Ġaddition":2212,"Ġinv":2213,"Ġnotation":2214,"dfrac":2215,"diff":2216,"ca":2217,"tor":2218,"duci":2219,"son":2220,"fi":2221,"displaystyle":2222,"wn":2223,"ological":2224,"Ġcontrol":2225,"Ġabout":2226,"Ġfunctor":2227,"path":2228,"\\}$.":2229,"Ġcurve":2230,"ura":2231,":=\\":2232,"\\|\\":2233,"vspace":2234,"div":2235,"ese":2236,"Ġcalc":2237,"II":2238,"Ġcircle":2239,"Ġev":2240,"thor":2241,"ĠNN":2242,"Ġsymmetric":2243,"sian":2244,"Se":2245,"iod":2246,"tary":2247,"_-":2248,"stract":2249,"Ġsubs":2250,"Ġprevious":2251,"Ġconclude":2252,"Ġstep":2253,"iter":2254,"ĠDe":2255,"Ġtrivial":2256,"]$.":2257,"}}(\\":2258,"Com":2259,"Ġsatisfying":2260,"ount":2261,"Ġrelation":2262,".$$":2263,"eed":2264,"43":2265,")},":2266,"ysis":2267,"stic":2268,"black":2269,"iota":2270,"Ġir":2271,"Ġintegra":2272,"ward":2273,"alle":2274,"Ġeither":2275,"Ġsp":2276,"Al":2277,">\\<^":2278,"Ġeigenvalu":2279,"pand":2280,"Ġnext":2281,"longrightarrow":2282,"Ġinvariant":2283,"af":2284,"otes":2285,"}&":2286,"order":2287,"Ġanaly":2288,"ĠLie":2289,"Ġ#":2290,"}^*":2291,"foot":2292,"Ġindex":2293,"ĠHowever":2294,"more":2295,"Ġch":2296,"cont":2297,"ĊĠĠĠĠĠĠĠĠĠĠĠĠĠĠĠĠĠĠĠĠ":2298,"PP":2299,"Ġcent":2300,"rest":2301,"lection":2302,"]]":2303,"SS":2304,"close":2305,"asing":2306,"rier":2307,"ducible":2308,"Ġincre":2309,"Ġallow":2310,"Ġ...":2311,"fore":2312,"sk":2313,"Ġlower":2314,"tative":2315,"meds":2316,"Ġpower":2317,"Ġtrue":2318,"module":2319,".~":2320,"'}":2321,"Ġring":2322,"$};":2323,"08":2324,"Ġscal":2325,"Ġargument":2326,"footnote":2327,"etwork":2328,"scale":2329,"umn":2330,"Ġmanifold":2331,"Ġmatrices":2332,"igin":2333,"medskip":2334,"trm":2335,"\\/":2336,"Ġcombin":2337,"Ġinterval":2338,"ĠĠĠĠĠĠ":2339,"lobal":2340,">\\<":2341,"Ġrank":2342,"Ġunit":2343,"entation":2344,"46":2345,"Ġnumbers":2346,"Ġneighb":2347,"tfrac":2348,"Ġwhile":2349,"nal":2350,"Ġlike":2351,"estion":2352,"ified":2353,"Ġnec":2354,"bi":2355,"Ġerror":2356,"ode":2357,",\\\\":2358,"Ġedges":2359,"sen":2360,"otop":2361,"plots":2362,"tabular":2363,"textrm":2364,"other":2365,"function":2366,"Ġidentity":2367,"^*\\":2368,"plication":2369,"Ġsetting":2370,"}{}&\\":2371,"Hom":2372,"emptyset":2373,"ods":2374,"Ġvery":2375,"operatorname":2376,"Ġembed":2377,"Ġdenotes":2378,"cat":2379,"asy":2380,"ightarrow":2381,"example":2382,"Ġoptimal":2383,"inde":2384,"Ġtherefore":2385,"Ġche":2386,"39":2387,"Ġclear":2388,"Ġenergy":2389,"ords":2390,"Rightarrow":2391,"Ġcoefficients":2392,"Ġupper":2393,"comple":2394,"Ġabs":2395,"Ġasympto":2396,"centering":2397,"rule":2398,"wt":2399,"ever":2400,"oid":2401,"ect":2402,"gener":2403,"{{":2404,"]$,":2405,"mit":2406,"Ġread":2407,")}}":2408,"thesis":2409,"Ġsystems":2410,"Ġrec":2411,"Ġdifferential":2412,"ju":2413,"|_":2414,"med":2415,"Ġchoice":2416,"duces":2417,"Ġsense":2418,"rela":2419,"|^{":2420,"tible":2421,"Ġstrong":2422,"Ġcover":2423,"^*$":2424,"mod":2425,"Ġbased":2426,"Ġexistence":2427,"ĊĉĊ":2428,"Ġbundle":2429,"brace":2430,"\\}\\":2431,"Ġrate":2432,"str":2433,"rop":2434,"Ġarbitrary":2435,"det":2436,"mat":2437,"ĊĊĠ":2438,"Ġprojection":2439,"Ġidentif":2440,"Ġspecial":2441,"jecture":2442,"axis":2443,"uch":2444,"reducible":2445,"Ġ9":2446,"Ġexpon":2447,"tition":2448,"Ġexplicit":2449,"hy":2450,"Ġlead":2451,"mult":2452,"Ġauto":2453,"Ġtor":2454,"onical":2455,"title":2456,"anish":2457,"Suppose":2458,"Ġsurface":2459,"{}":2460,"tail":2461,"Ġtran":2462,"]{\\":2463,"Ġalong":2464,"Ġiter":2465,")})":2466,"ross":2467,"place":2468,"Ġam":2469,"Ġinsta":2470,"action":2471,"Ġlog":2472,"Ġseries":2473,"49":2474,"spec":2475,"perp":2476,"Ġderive":2477,"\\!\\!":2478,"Ġappe":2479,"Ġnecess":2480,"ler":2481,"bolic":2482,"07":2483,"{$":2484,"appro":2485,"pos":2486,"&=\\":2487,"ket":2488,"antum":2489,"Ġthem":2490,"arch":2491,"Ġconstra":2492,"Ġ]":2493,"Ġcomponent":2494,"Ġscheme":2495,"31":2496,"Ġimage":2497,"Ġprecise":2498,"({\\":2499,"pgfplots":2500,"Ġmorphism":2501,"Ġfurther":2502,"Ġequivalence":2503,"Ġconne":2504,")--(":2505,"ording":2506,"Ġenough":2507,"tically":2508,"ĠFigure":2509,"Ġyields":2510,"then":2511,"Ġtot":2512,"erg":2513,"Ġcode":2514,"}}_{":2515,"$).":2516,"ave":2517,"Ġcalcula":2518,"Ġnumer":2519,"dag":2520,"ensor":2521,"Ġanalysis":2522,"87":2523,"Ġcheck":2524,"CT":2525,"})$,":2526,"Ġclassical":2527,"100":2528,"+(":2529,"ertain":2530,"real":2531,"Ġexpression":2532,"ify":2533,"Ġnetwork":2534,"pping":2535,"ĠLe":2536,"Ġcontradic":2537,"cd":2538,"Ġorigin":2539,"normal":2540,"Ġdynam":2541,"Ġsuppose":2542,"matic":2543,"Hence":2544,"}{(":2545,"sets":2546,"ernel":2547,"Ġmaximal":2548,"Ġparameters":2549,"Ġdiagram":2550,"ency":2551,"Ġshould":2552,"ois":2553,"Ġ$|\\":2554,"Ġdistance":2555,"Ġideal":2556,"rent":2557,"make":2558,"^*(":2559,"oti":2560,"ĠMa":2561,"lying":2562,"Ġalgebraic":2563,"wr":2564,"Ġlevel":2565,"Ġquanti":2566,"Ġconstruct":2567,"lesssim":2568,"Ġgraphs":2569,"corollary":2570,"Ġclaim":2571,"Ġchoose":2572,"Ġlocally":2573,"]}":2574,"\\}$,":2575,"oo":2576,"hift":2577,"tivity":2578,"Ġcomponents":2579,"abstract":2580,"Ġwithout":2581,"Ġinduced":2582,"sive":2583,"diate":2584,"Ġhold":2585,",\\,\\":2586,"rf":2587,"nn":2588,"Ġmod":2589,"gether":2590,"itu":2591,"ĠSuppose":2592,"ndeed":2593,"Ġpresent":2594,"Ġ[[":2595,"Ġfe":2596,"get":2597,"Ġrelations":2598,".)":2599,"}}^{":2600,"trict":2601,"Ġminimal":2602,"Ġdual":2603,"tabl":2604,"Ġthose":2605,"Ġorth":2606,"Ġ[\\":2607,"Ġvia":2608,"Ġquad":2609,"otential":2610,"42":2611,"tyle":2612,"simeq":2613,"Ġextend":2614,"bmatrix":2615,"Ġ$-":2616,"bold":2617,"Âĵ":2618,"ries":2619,"Ġdx":2620,"$:":2621,"Ġjust":2622,"lement":2623,"Ġrequi":2624,"Therefore":2625,"itten":2626,"Ġsingular":2627,"tikzpicture":2628,"tant":2629,"}/":2630,"Ġkernel":2631,"ogene":2632,"Ġagain":2633,"](":2634,"art":2635,"Ġfib":2636,")^\\":2637,"AR":2638,"city":2639,"03":2640,"binom":2641,"after":2642,"cf":2643,"Ġdecomposition":2644,"Ġflow":2645,"Ġstatement":2646,"57":2647,"Ġcomputation":2648,"Ġrecall":2649,"Ġcoun":2650,"ĠĊĠĠĠ":2651,"Ġquasi":2652,"ped":2653,"os":2654,"Ġact":2655,"Ġversion":2656,"erence":2657,"Ġview":2658,"ually":2659,"ĠĠĊ":2660,"ĠEx":2661,"Ġ{$":2662,"ĠCorollary":2663,"Ġproblems":2664,"06":2665,"alf":2666,"Ġirreducible":2667,"sidered":2668,"defin":2669,"Ġdec":2670,"Ġanalog":2671,"Ġ'":2672,"ption":2673,"ific":2674,"Ġimpor":2675,"ĠNow":2676,"rid":2677,"ey":2678,"Ġaff":2679,"Ġwhat":2680,"Ġsuper":2681,"expand":2682,"ĠĊĊ":2683,"orted":2684,"Ġstrict":2685,"Ġcs":2686,"Ġchannel":2687,"Ġclasses":2688,"Ġsepara":2689,"imilar":2690,"ĠThere":2691,"slant":2692,"Ġeasy":2693,"Ġeasi":2694,"Ġinformation":2695,"alg":2696,"ways":2697,"Ġestabl":2698,"Ġindic":2699,"omorphisms":2700,"trans":2701,"Ġdue":2702,"belian":2703,"Ġeff":2704,"dual":2705,"Ġoper":2706,"ior":2707,"ilb":2708,"Ġdivis":2709,"Ġalgebras":2710,"ĠÎ":2711,"Ġprime":2712,"local":2713,"urthermore":2714,"Ġproce":2715,"Ġ<->":2716,"ĠCC":2717,"sa":2718,"Ġquestion":2719,"Ġobject":2720,"Ġestimates":2721,"\\)":2722,"ates":2723,"Ġalmost":2724,"asic":2725,"Ġsequ":2726,"}'":2727,"Ġblock":2728,"Ġdensity":2729,"Ġodd":2730,"Ġtech":2731,"Ġinterest":2732,"Ġcertain":2733,"bx":2734,"Ġmethods":2735,"try":2736,"Ġcompute":2737,"trivial":2738,"lev":2739,"textwidth":2740,"Proposition":2741,"GL":2742,"{#":2743,"Ġ\\|\\":2744,"04":2745,"arp":2746,"rd":2747,"Ġbounds":2748,"multi":2749,"--------":2750,"Ġ-.":2751,"Ġ12":2752,"Ġpolynomials":2753,".~\\":2754,"Ġdenoted":2755,"02":2756,")(\\":2757,"ĠĠĠĠĠĠĠĠĠ":2758,"58":2759,"\\|_":2760,"Ġweight":2761,"Ġmodels":2762,"tif":2763,"Ġconsidered":2764,"})=":2765,"otopy":2766,"Ġcar":2767,"itz":2768,")}_{":2769,"page":2770,",..":2771,"From":2772,"Ġdiscrete":2773,"inv":2774,"Ġwere":2775,"Here":2776,"mes":2777,"Le":2778,"Ġyou":2779,"Ġexactly":2780,"Ġtensor":2781,"ĠRE":2782,"Ġcanonical":2783,"56":2784,"ady":2785,"lect":2786,"ern":2787,"76":2788,"Ġrelated":2789,"Ġ;":2790,"rees":2791,"auto":2792,"ogeneous":2793,"ale":2794,"Ġisomorphic":2795,"Ġ($":2796,"sible":2797,"ritical":2798,"Ġtur":2799,"loc":2800,"|_{\\":2801,"Ġasymptotic":2802,"Ġshe":2803,"Eq":2804,"iodic":2805,"Ġ\\[":2806,"Ġquantum":2807,"ĊĊĊĊĊ":2808,"Ġsingle":2809,"Ġvanish":2810,"On":2811,"Ġalways":2812,"Ġ$\\{\\":2813,"Ġpartial":2814,"inte":2815,"Ġappl":2816,"Ġappear":2817,"nts":2818,"Ġ\\(\\":2819,"Ġsquare":2820,")>":2821,"type":2822,"ĠOn":2823,"qed":2824,"Ġ$,":2825,"Ġru":2826,"ifolds":2827,"zation":2828,"iemann":2829,"Ġfound":2830,"eren":2831,"bigcup":2832,"homology":2833,"tives":2834,"=\\{":2835,"Ma":2836,"Ġintroduce":2837,"comp":2838,"92":2839,"Âİ":2840,"An":2841,"Ġmake":2842,"Ġapproximation":2843,"slash":2844,"^{(\\":2845,"}}_":2846,"Ġdirection":2847,"Ġstates":2848,"ilton":2849,"UN":2850,"Ġafter":2851,"ety":2852,"Ġbeha":2853,"Int":2854,"Ġdescribed":2855,"}{|":2856,"part":2857,"sis":2858,"base":2859,"ba":2860,"CH":2861,"Ġchain":2862,"Ġconsist":2863,"Ġcurves":2864,"chan":2865,"mptions":2866,"pdf":2867,"Ġbelong":2868,"Ġvectors":2869,"Set":2870,"ines":2871,"circle":2872,"va":2873,"cref":2874,"Ġdetail":2875,"86":2876,"Ġshall":2877,"Ġcontained":2878,"till":2879,"Ġcoordinates":2880,"jects":2881,"case":2882,"Ġpotential":2883,"otient":2884,"Ġsplit":2885,"unc":2886,"Ġsumma":2887,"Ġexamples":2888,"Ġ\"\\<":2889,"mf":2890,"})}":2891,"Ġrow":2892,"compa":2893,"LL":2894,"Âį":2895,"Ġ^{":2896,"Ġweigh":2897,"Ġusu":2898,"$&":2899,"([":2900,"Ġpartition":2901,"Ġtotal":2902,"Ġwidth":2903,"Ġequality":2904,"ier":2905,"alse":2906,"Fig":2907,"Ġgenerator":2908,"llip":2909,"Ġimportant":2910,"Ġ(\\<":2911,"aves":2912,"ress":2913,"Ġframe":2914,"Ġcannot":2915,"mental":2916,"\\}.":2917,"cument":2918,"Long":2919,"Ġfields":2920,"Ġtogether":2921,"Ġradi":2922,"such":2923,"&=&":2924,"gg":2925,"Ġuniformly":2926,"Ġcall":2927,"notag":2928,"hood":2929,"ron":2930,"Ġste":2931,"Ġdiag":2932,"/=":2933,"Ġregion":2934,"Ġconnection":2935,"Ġcharacteristic":2936,"Ġrational":2937,"{$\\":2938,"SU":2939,"ION":2940,"multline":2941,"defn":2942,"Ġinf":2943,"Ġocc":2944,"kov":2945,"OO":2946,"Ġchange":2947,"Ġrefer":2948,"/(":2949,"versal":2950,"gen":2951,"ZZ":2952,"ilbert":2953,"unda":2954,"Ġobserv":2955,"inary":2956,"stead":2957,"tely":2958,"}|\\":2959,"texts":2960,"Ġ20":2961,"74":2962,"gr":2963,"\\[\\":2964,"Ġcorre":2965,"notin":2966,"Ġeasily":2967,"Ġintersection":2968,"iver":2969,")}_":2970,"rable":2971,"Ġsto":2972,"Ġori":2973,"length":2974,"approx":2975,"Ġ\\!":2976,"Ġexce":2977,"||":2978,"Ġ$$\\":2979,"ult":2980,"clic":2981,"Ġfull":2982,"reat":2983,"ogonal":2984,"check":2985,"Consider":2986,"poly":2987,"Ġfil":2988,"Ġ..":2989,"Ġsufficiently":2990,"negative":2991,"xx":2992,"amilton":2993,"Ġpreser":2994,"Ġim":2995,"Ġintroduced":2996,"resp":2997,"Ġexpec":2998,"cho":2999,"sur":3000,"\\|^":3001,"Ġreplace":3002,"Ġcould":3003,"ĠGaus":3004,"Ġminim":3005,"Ġ=/=":3006,"AB":3007,"pts":3008,"dient":3009,"free":3010,"exists":3011,"(-\\":3012,"UE":3013,"Moreover":3014,"Ġtyp":3015,"Ġstable":3016,"Ġfour":3017,"So":3018,"ratic":3019,"pansion":3020,"Ġembedding":3021,"ev":3022,"09":3023,"Ġmom":3024,"Ġconven":3025,"hbox":3026,"Ġhypo":3027,"}[\\":3028,"ari":3029,"Ġinverse":3030,"Using":3031,"sg":3032,"know":3033,"dist":3034,"vature":3035,"ĠCom":3036,"ĠZZ":3037,"^{*":3038,"vartheta":3039,"Ġtaking":3040,"chie":3041,"Ġlattice":3042,"}$$":3043,"00000000":3044,"Ġstudi":3045,"from":3046,"Ġname":3047,"gate":3048,">\\":3049,"Ġtopological":3050,"ason":3051,"Ġproposed":3052,"undamental":3053,"Ġneighbor":3054,"cond":3055,")}.":3056,"allel":3057,"document":3058,"Ġback":3059,"PL":3060,"/.":3061,"Ġ|->":3062,"imilarly":3063,"my":3064,")}(\\":3065,"Ġprojective":3066,"Ġhol":3067,"Sp":3068,"Âĳ":3069,"ĠĠĠĠĠĠĠĠĠĠĠĠĠĠĠĠĠĠĠĠĠĠĠĠĠĠĠĠĠĠĠĠ":3070,"kk":3071,"mmediate":3072,"index":3073,"Ġnumerical":3074,"Ġstill":3075,"Ġforms":3076,"There":3077,"Ġaut":3078,"ER":3079,"Ġgeneralized":3080,"Ġtopology":3081,"orth":3082,"tended":3083,"84":3084,"Ġtree":3085,"NN":3086,"_{[":3087,"Ġinvol":3088,"ention":3089,"Ġfinitely":3090,"xt":3091,"Bbb":3092,"mpl":3093,"Ġtransi":3094,"Ġexpansion":3095,"blem":3096,"Ġimmediate":3097,"Ġ,\\":3098,"backslash":3099,"expandafter":3100,"\\;":3101,"Ġsymbol":3102,"{|":3103,"Ġachie":3104,"prec":3105,"ĠHere":3106,"Ġinstance":3107,"go":3108,"Ġsupport":3109,"ouble":3110,"Ġcontradiction":3111,"ĠĊĉ":3112,"essential":3113,"intro":3114,"can":3115,"veral":3116,"}}.":3117,"Ġprecisely":3118,"invariant":3119,"OP":3120,"ulari":3121,"Ġsem":3122,"Ġglobal":3123,"hand":3124,"Ġcell":3125,"char":3126,"Ġsubspace":3127,"ĠLi":3128,"Ġ<_":3129,"Ġpermu":3130,"Ġdescribe":3131,"}\\|":3132,"Ġconsequence":3133,"kes":3134,"Ġintegers":3135,"ctures":3136,"ined":3137,"Ġconju":3138,"faces":3139,"Ġdevelo":3140,"beq":3141,"two":3142,"9999":3143,"rat":3144,"Ġbehavi":3145,"bre":3146,"\\|_{\\":3147,"Ġroot":3148,"izing":3149,"dagger":3150,"ĠRiemann":3151,"self":3152,"seu":3153,"ĠBase":3154,"Ġspectral":3155,"Ġmat":3156,"ĠAn":3157,"ass":3158,"lp":3159,"Ġcorrespond":3160,"cing":3161,"Ġwords":3162,"Ġmaximum":3163,"odesi":3164,"coun":3165,"oding":3166,"Ġball":3167,"ision":3168,"zed":3169,"gl":3170,"ides":3171,"Ġdistin":3172,"Ġanother":3173,"tate":3174,"ring":3175,"Ġunion":3176,"ua":3177,"54":3178,"Ġsimply":3179,"Ġtimes":3180,"Ġaffine":3181,"Ġrestriction":3182,"Ġval":3183,"Ġconverges":3184,")[":3185,"Ġdetermined":3186,"titu":3187,"gather":3188,"Longrightarrow":3189,"Ġsimplic":3190,"sumption":3191,"ready":3192,"ren":3193,")=(":3194,"bib":3195,"'_{":3196,"Ġeigenvalues":3197,"Ġthesis":3198,"ik":3199,"}}$.":3200,"Ġself":3201,")|\\":3202,"Ġchosen":3203,"Ġsha":3204,"Xi":3205,"Ġpha":3206,"lfloor":3207,"Ġassumptions":3208,"Ġdesi":3209,"No":3210,"Ġclose":3211,")_{\\":3212,"chastic":3213,"53":3214,"resul":3215,"olume":3216,"Ġsimpl":3217,"known":3218,"].":3219,"Ġaver":3220,"Ġsemi":3221,"Ġsample":3222,"Finally":3223,"Ġassum":3224,"Ġpri":3225,"tern":3226,"supp":3227,"Ġloss":3228,"Ġwritten":3229,"Ġcorresponds":3230,"-(":3231,"Ġconstants":3232,"rfloor":3233,"Ġreason":3234,"63":3235,"Ġtw":3236,"ITE":3237,"tangle":3238,"Ġlink":3239,"73":3240,"Ġ${":3241,"ished":3242,"ĠMar":3243,"REAL":3244,"69":3245,"comes":3246,"Ġless":3247,"Ġinduction":3248,"Ġdiagonal":3249,"Ġcl":3250,"Ġellip":3251,"cA":3252,"Ġobserve":3253,"date":3254,"ĠIndeed":3255,"Ġsuffic":3256,"Ġconjecture":3257,"Ġquotient":3258,"Ġreduced":3259,"<_":3260,"}\\,\\":3261,"Ġ&&":3262,"Ġadj":3263,"lb":3264,"79":3265,"ema":3266,"stackrel":3267,"cC":3268,"iant":3269,"aa":3270,"Section":3271,"ĠDefinition":3272,"Ġ<.":3273,"]^":3274,"ctic":3275,"89":3276,"subsubsection":3277,"iii":3278,"Ġcurvature":3279,"eness":3280,"Ġoccur":3281,"niver":3282,"SL":3283,"MM":3284,"ropy":3285,"ild":3286,"ceil":3287,"continu":3288,"tis":3289,"\\}_{":3290,"Ġ<=":3291,"ĠHamilton":3292,"ĠSch":3293,"})^":3294,"Ġrelative":3295,"temp":3296,"Ġ$\\|":3297,"Ġ>.":3298,"plot":3299,"class":3300,"ĠNo":3301,"Ġobjects":3302,"OR":3303,"ĊĠĠĠĠĠĠĠĠĠĠĠĠĠĠĠ":3304,"ching":3305,"ategories":3306,"Ġalready":3307,"ĠBut":3308,"Ġsatisfied":3309,"Ġtest":3310,"IS":3311,"ĊĊĊĊĊĊĊĊĊĊĊĊĊĊĊĊĊĊĊĊĊĊĊĊĊĊĊĊĊĊĊĊ":3312,"ins":3313,"ori":3314,"Ġdepends":3315,",...,":3316,"Ġdistinct":3317,"}}^":3318,"Ġbefore":3319,"Ġ}{":3320,"|$":3321,"Ġ{};":3322,"code":3323,"Ġhigher":3324,"Ġexponential":3325,"WR":3326,"Ġsupported":3327,"defined":3328,"ĠSub":3329,"ĉĉĉĉ":3330,"lt":3331,"Ġrequire":3332,"âĤ":3333,"|=":3334,"Ġ&=&":3335,"ĠAssume":3336,"diag":3337,"rg":3338,"Assume":3339,"symme":3340,"Ġcycle":3341,"])":3342,"Ġtriangle":3343,"83":3344,"use":3345,"Ġeq":3346,"|}":3347,";\\;\\":3348,"ĠHilbert":3349,"valued":3350,"Ġ\\}":3351,"Ġderivative":3352,"Ġhomotopy":3353,"\\},":3354,"sol":3355,"Ġcohomology":3356,"fol":3357,"plications":3358,"br":3359,"BB":3360,"}{{\\":3361,"requ":3362,"Ġessential":3363,"csname":3364,"Ġseveral":3365,"Recall":3366,"Ġsequences":3367,"Ġmapping":3368,"rum":3369,"Ġinclude":3370,"figura":3371,"72":3372,"MR":3373,"Ġmeasures":3374,"Ġpairs":3375,"ĠFrom":3376,"reen":3377,"ngent":3378,"Ġminimum":3379,"Ġca":3380,"range":3381,"$\\{":3382,"Ġabelian":3383,"Ġevalu":3384,"sect":3385,"Tr":3386,"Ġdifference":3387,"Ġremark":3388,"Ġfundamental":3389,"variance":3390,"Ġanalytic":3391,"Ġans":3392,"Ġcritical":3393,"Ġnotion":3394,"Ġdisjoint":3395,"sharp":3396,"Ġrecon":3397,"AA":3398,"sl":3399,"ource":3400,"formance":3401,"Ġdeduce":3402,"Ġsl":3403,"psch":3404,"entary":3405,"like":3406,"num":3407,"ourier":3408,"Ġquadratic":3409,"Ġfunctional":3410,"CD":3411,")).":3412,"ying":3413,"model":3414,"thing":3415,"Ġnecessary":3416,"ison":3417,"uc":3418,":}":3419,"pschitz":3420,"'t":3421,"Ġ((":3422,"Ġdesired":3423,"Ġaccording":3424,"Ġseen":3425,"Ġplane":3426,"ird":3427,"uni":3428,"down":3429,"Ġ\\{\\":3430,"ĠThese":3431,"blue":3432,"Given":3433,"[-":3434,"Ġgeometric":3435,"ott":3436,"Ġorthogonal":3437,"ĠRemark":3438,"ĠEq":3439,"ĠElement":3440,"41":3441,"Ġproposition":3442,"Ġcard":3443,"Ġsuffices":3444,"ĠNe":3445,"mits":3446,"ĠGaussian":3447,"52":3448,"Ġinner":3449,"lay":3450,"Ġdetails":3451,"Ġnegative":3452,"ĠUsing":3453,"SP":3454,"62":3455,"seudo":3456,"lot":3457,"Ġ11":3458,"{(\\":3459,"SM":3460,"ima":3461,"Ġinver":3462,"Ġmodule":3463,"Ġlaw":3464,"ht":3465,"Ġpara":3466,"dom":3467,"Ġlines":3468,"Ġstudied":3469,"Ġdimensional":3470,"tens":3471,"inci":3472,"bil":3473,"struction":3474,"av":3475,"fil":3476,"Ġmultiple":3477,"Ġcoinc":3478,"leqslant":3479,"Ġmention":3480,"Ġtransform":3481,"Ġvariety":3482,"ysi":3483,"'$.":3484,"HH":3485,"Ġdone":3486,"linewidth":3487,"Ġmultiplic":3488,"Ġapplied":3489,"Pr":3490,"itions":3491,"WRITE":3492,"Sch":3493,"inciple":3494,"Ġinstead":3495,"})^{":3496,"write":3497,")*":3498,"Ġstrictly":3499,"ixed":3500,"Om":3501,"-$":3502,"author":3503,"uler":3504,"Ġauthor":3505,"$),":3506,"Ġ_{\\":3507,"raction":3508,"Ġrepresentations":3509,"war":3510,"vdots":3511,"Ġcontaining":3512,"Ġbasic":3513,"Ġeffec":3514,"IM":3515,"Ġempty":3516,"rank":3517,"Ġlatter":3518,")}$.":3519,"ĊĊĊĊĊĊ":3520,")!":3521,"substack":3522,"Ġgeodesi":3523,"ster":3524,"script":3525,"Ġestablish":3526,"Ġrequired":3527,"Ġ.=":3528,"subfigure":3529,"::":3530,"Ġphase":3531,"ots":3532,"Ġbecomes":3533,"mplectic":3534,"Ġ.<_":3535,"cu":3536,"Ġlabel":3537,"Ġvotes":3538,"Ġscalar":3539,"Ġ{$\\":3540,"Ġformal":3541,"varrho":3542,"fl":3543,"thick":3544,"First":3545,")|^":3546,"59":3547,"gu":3548,"Ġremains":3549,"smallskip":3550,"Ġextended":3551,"];":3552,"Intro":3553,"equently":3554,"ĠConsider":3555,"REPL":3556,"hether":3557,"One":3558,"bd":3559,"Ġsymmetry":3560,"creasing":3561,"REPLY":3562,"forward":3563,"ym":3564,"Ġtransformation":3565,"this":3566,"}}$,":3567,"Ġconsists":3568,"izes":3569,"==":3570,"Ġallows":3571,"Ġmath":3572,"Ġcollection":3573,"Ġstart":3574,"ĠOne":3575,"TIT":3576,"ĠHamiltonian":3577,"Ġderived":3578,"Ġcommon":3579,"han":3580,"Ġincreasing":3581,"Ġrule":3582,"Li":3583,"):=\\":3584,"Im":3585,"eeq":3586,"Co":3587,"))$.":3588,"DD":3589,"Ġ16":3590,"Ġconstructed":3591,"Ġlist":3592,"QUE":3593,"Ġimpro":3594,"Ġtechni":3595,"ices":3596,"Ġdiscussion":3597,"Ġlong":3598,"Ġinclusion":3599,"=(\\":3600,"^{+":3601,"usion":3602,"Ġhomomorphism":3603,"ef":3604,"modules":3605,"ud":3606,"Ġill":3607,"****":3608,"Ġhomogeneous":3609,"tw":3610,"Ġcommutative":3611,"cO":3612,"square":3613,"Ġmuch":3614,"ĠApp":3615,"Ġoriginal":3616,"pacity":3617,"Ġprim":3618,"Ġsitu":3619,"bounded":3620,"Ġapplying":3621,"condition":3622,"hol":3623,"armon":3624,"^*_":3625,"Ġbo":3626,"Ġnear":3627,"ĠUniver":3628,")$$":3629,"Ġnodes":3630,"Ġlook":3631,"ucl":3632,"ticle":3633,"arg":3634,"Ġsubsets":3635,"Ġuseful":3636,"Ġcentral":3637,"Ġcross":3638,"TITLE":3639,"cH":3640,"formal":3641,"alities":3642,"Ġusual":3643,"Ġ\\,\\":3644,"Ġsufficient":3645,"Ġinterpre":3646,"STION":3647,"votes":3648,"fr":3649,"QUESTION":3650,"Ġbegin":3651,"Ġgood":3652,"Ġperformance":3653,").$$":3654,"cF":3655,"ka":3656,"else":3657,"ometric":3658,"AN":3659,"parison":3660,"Ġupvotes":3661,"ustra":3662,"Ġag":3663,"Ġpresented":3664,"ograph":3665,"ĊĉĊĉ":3666,"king":3667,"Ġstrate":3668,"!\\":3669,"Ġholomorphic":3670,"Ġperiodic":3671,"dr":3672,"rang":3673,"Ġconfigura":3674,"oisson":3675,"Ġelliptic":3676,"hile":3677,"ĠCar":3678,"Ġmark":3679,"Ġprovided":3680,"Ġhyperbolic":3681,"\\}}":3682,"Ġcontext":3683,"Ġtr":3684,"mini":3685,"ĠFurthermore":3686,"Ġneighborhood":3687,"Ġdirectly":3688,"fect":3689,"*\\":3690,"triangle":3691,"Ġobvious":3692,"Ġwhether":3693,"Ġet":3694,"state":3695,"82":3696,"MS":3697,"Ġmanifolds":3698,"tein":3699,"Ġ|`":3700,"Ġflat":3701,"bits":3702,"otent":3703,"stable":3704,"Gr":3705,"Ġadditional":3706,"')$":3707,"dap":3708,"commu":3709,"ah":3710,"ulation":3711,"ĠFirst":3712,"Ġwave":3713,".\\\\":3714,"]^{":3715,"bigoplus":3716,"Ġstochastic":3717,"turb":3718,"Ġ14":3719,"Ġ$[\\":3720,"ification":3721,"last":3722,"Ġ.\\/":3723,"Ġ13":3724,"Ġ15":3725,"Ġvolume":3726,"]=":3727,"dv":3728,"complex":3729,"enote":3730,"Ġstructures":3731,"}}^{\\":3732,"step":3733,"tu":3734,"Ġparts":3735,"Ġprocedu":3736,"Ġhypothesis":3737,"Next":3738,"}$}":3739,"ends":3740,"uments":3741,"ĠWhen":3742,"Ġrecur":3743,"conv":3744,"Ġvalid":3745,"Ġdynamics":3746,"prob":3747,"Ġass":3748,"gorithms":3749,"app":3750,"ĠFinally":3751,"lef":3752,"hbar":3753,"})=\\":3754,"})_{":3755,"bp":3756,"Ġinves":3757,"ermi":3758,"Mo":3759,"zz":3760,"\\!\\":3761,"relax":3762,"there":3763,"$\\\\":3764,"Ġmoment":3765,"=.":3766,"Ġsui":3767,"Def":3768,"Ġinteresting":3769,"Ġfo":3770,"Ġgeometry":3771,"Ġclassif":3772,"Ġoptimization":3773,"Ġgrow":3774,"tered":3775,"Ġadmits":3776,"&&\\":3777,"_{-\\":3778,"ducts":3779,"Ob":3780,"oriz":3781,"Ġdu":3782,"dered":3783,"Ġeigenvalue":3784,"ĠCh":3785,"Ġnonlinear":3786,"Ġrecent":3787,"general":3788,"phant":3789,"Ġstraight":3790,"Ġcoefficient":3791,"ĠMathe":3792,"enerate":3793,"lm":3794,"Ġcou":3795,"Ġdense":3796,"orel":3797,"matics":3798,"Ġgradient":3799,"xymatrix":3800,"^{[":3801,"category":3802,"Ġonto":3803,"Ġspectrum":3804,"cell":3805,"125":3806,"Our":3807,"Ġinduces":3808,"Ġspan":3809,"ĠĠĠĠĠĠĠĠĠĠ":3810,"bigskip":3811,"~~~~":3812,"atives":3813,"Ġcontribu":3814,"view":3815,"armonic":3816,"missible":3817,"Ġrece":3818,"Ġotherwise":3819,"Ġsyl":3820,"Ġhaving":3821,"Ġgeneric":3822,"regular":3823,"CM":3824,"cer":3825,"Ġnamely":3826,"Ġphysi":3827,"Ġexpla":3828,"bly":3829,"endix":3830,"though":3831,"ove":3832,"Ġleads":3833,"ĠâĪ":3834,"Ġacts":3835,"}.$$":3836,"Ġ),":3837,"\",":3838,"ariant":3839,"Ġdouble":3840,"redic":3841,"ques":3842,"Ċĉĉĉĉ":3843,"incip":3844,"({":3845,"measu":3846,"Ġorbit":3847,"Ġ\\},":3848,"Ġdesign":3849,"aco":3850,"Ġabsolu":3851,"Ġentries":3852,"perim":3853,"OF":3854,"aking":3855,"list":3856,"Ġuniversal":3857,"Ġbran":3858,"ons":3859,"underset":3860,"cL":3861,"Ġcu":3862,"tionary":3863,"Ġfactors":3864,"finity":3865,",.":3866,"cles":3867,"_{+":3868,"overset":3869,"Ġ\\|_{":3870,"Ġhalf":3871,"gest":3872,"Ġcomposition":3873,"hfill":3874,"Spec":3875,"Ġdt":3876,"'$,":3877,"Ġprinciple":3878,"special":3879,"apla":3880,"Ġgen":3881,"):=":3882,"Ġinvesti":3883,"manifold":3884,"Ġrange":3885,"Ġhowever":3886,"compact":3887,"_{{\\":3888,"cM":3889,"Ġaverage":3890,"When":3891,"Ġdefines":3892,"Ġillustra":3893,"SO":3894,"ls":3895,"CP":3896,"Introduction":3897,"ĠGiven":3898,"Ġdefinitions":3899,"way":3900,"Ġcomputed":3901,"'(\\":3902,"forms":3903,"Ġcolor":3904,"cycle":3905,"ime":3906,"SI":3907,"Ġshort":3908,"stand":3909,"conver":3910,"minipage":3911,"Ġsolve":3912,"cccc":3913,"(|":3914,"chy":3915,"Ġimply":3916,"Thm":3917,"$.}":3918,"off":3919,"por":3920,"))=":3921,"ĊĠĠĠĠĠĠĠĠĠĠĠĠĠ":3922,"Ġmonot":3923,"Ġradius":3924,"rante":3925,"Ġthick":3926,"Ġcone":3927,"Ġsuc":3928,"incipal":3929,".(":3930,"arily":3931,"Ġarguments":3932,"ila":3933,"Ġasser":3934,"Ġnoise":3935,"Ġprovides":3936,"Ġemp":3937,"With":3938,"$(\\":3939,"multic":3940,"Ġturn":3941,"uarante":3942,"}>":3943,"ystem":3944,"Ġdepending":3945,"Ġsteps":3946,"Ch":3947,"CO":3948,")}$,":3949,"formations":3950,"Ġstability":3951,"ised":3952,"Bigl":3953,"izer":3954,"Ġwant":3955,"Ġproves":3956,"ĠEqu":3957,"Ġcost":3958,"maketitle":3959,"ched":3960,"Aut":3961,"Ġapplications":3962,"cS":3963,")}^":3964,"ĠLag":3965,"+|":3966,"ĠFin":3967,"Ġtable":3968,"Ġdescription":3969,"thors":3970,"chor":3971,"Ġbu":3972,"Ġdifferenti":3973,"Ġclust":3974,"displaymath":3975,"Ġtangent":3976,"impl":3977,"$}}":3978,"dash":3979,"ĠFourier":3980,"ype":3981,"Ġapplication":3982,",(":3983,"vv":3984,"Ġsaid":3985,"oin":3986,"cts":3987,"auchy":3988,"Ġalgorithms":3989,"Bigr":3990,"sm":3991,"ĊĠĊ":3992,"isted":3993,",)":3994,"Ġpaths":3995,")<":3996,"mine":3997,"flo":3998,"Ġaround":3999,"Ġgraded":4000,"olumn":4001,"Ġprocedure":4002,"formed":4003,"uclide":4004,"]_":4005,"Lo":4006,"Ġvariation":4007,"Ġstrongly":4008,"91":4009,"uclidean":4010,"jector":4011,"result":4012,"parse":4013,"/)":4014,"eff":4015,"hook":4016,"racket":4017,"Ġsymplectic":4018,"xiom":4019,"Ġresulting":4020,"Ġmodules":4021,"Ġsep":4022,"sha":4023,"]^{\\":4024,"bc":4025,"Ġthird":4026,"Ġ::":4027,"Ġbehavior":4028,"Ġangle":4029,"App":4030,"claim":4031,"Ġidea":4032,"learly":4033,"yl":4034,"Op":4035,"Ġsurfaces":4036,"Ġkey":4037,"convex":4038,"Ad":4039,"Ġwithin":4040,"ibra":4041,")),":4042,"bv":4043,"Ġfiber":4044,"Ġlarger":4045,"tiny":4046,"CL":4047,"anach":4048,"folding":4049,"Ġ(/)":4050,"Ġtrace":4051,"Un":4052,"Ġanswer":4053,"&=&\\":4054,"Ġinequalities":4055,"TT":4056,"Ġinjective":4057,"symmetric":4058,",$$":4059,"\\@":4060,"coordinate":4061,"EEE":4062,"phantom":4063,"key":4064,"}})":4065,"Ġconstraints":4066,"Ġrepresent":4067,"ĠUniversity":4068,"Ġroots":4069,"cri":4070,"Ġsuitable":4071,"Ġcolumn":4072,"Ġreduction":4073,"Ġpat":4074,"$'":4075,"Ġcomplexity":4076,"Ġdiffic":4077,"Ġvarious":4078,"CA":4079,"queness":4080,"itive":4081,"has":4082,"Ġ\\}$":4083,"ĠâĨ":4084,"ormal":4085,"multicolumn":4086,"Ġgenerators":4087,"Ġitself":4088,"Ġguarante":4089,"Ġeffici":4090,"propri":4091,"Ġ19":4092,"}(-":4093,"]_{":4094,"Ġassms":4095,"However":4096,"Ġderivatives":4097,"mil":4098,"pter":4099,"End":4100,"igroup":4101,"ids":4102,"ledge":4103,"serve":4104,"scripts":4105,"][":4106,"Ġimmediately":4107,"points":4108,"util":4109,"vskip":4110,"cluding":4111,"iting":4112,"propriate":4113,"since":4114,"raph":4115,"rant":4116,"pf":4117,"inner":4118,"gm":4119,"Ġlater":4120,"Id":4121,"}}=":4122,"sel":4123,"connected":4124,"above":4125,").$":4126,"Ġevent":4127,"Ġnor":4128,"terna":4129,"ously":4130,"}}}\\":4131,"Ġnonzero":4132,"Ġcategories":4133,"ited":4134,"proper":4135,"Ġrun":4136,"Ġtriang":4137,"berg":4138,"ki":4139,"Ġput":4140,"Ġflu":4141,"}}_{\\":4142,"@{":4143,"Ġbelongs":4144,")}=":4145,"Ġinput":4146,"algebras":4147,"Ġsmaller":4148,"tio":4149,"Ġdistributions":4150,"equival":4151,"TR":4152,"}.$":4153,"Ġpseudo":4154,"Ġschemes":4155,"^*(\\":4156,"61":4157,"Ġposition":4158,"Ġmultiplication":4159,"lated":4160,"Mod":4161,"gment":4162,"Be":4163,"ĠWith":4164,"ush":4165,"font":4166,"Ġ||":4167,"Ġdivisor":4168,"*(":4169,"...":4170,"Ġclosure":4171,"Ġsections":4172,"Ġconstraint":4173,"weak":4174,"seq":4175,"Ġfrequ":4176,"unit":4177,"ĠOur":4178,"ĠRecall":4179,"Ġax":4180,"gation":4181,"81":4182,"Ġpur":4183,"jk":4184,"Ġproofs":4185,"Ġtaken":4186,"Ġgenerality":4187,"Ġmass":4188,"'}\\":4189,"Ġgeodesic":4190,"ĠPoisson":4191,"Ġcyclic":4192,"Ġresi":4193,"Ġentropy":4194,"Ġliter":4195,"value":4196,"Ġsituation":4197,"xrightarrow":4198,"ĠSet":4199,"fg":4200,"Ġtakes":4201,"lam":4202,"sche":4203,"_{|":4204,"vari":4205,"ĠAlso":4206,"choose":4207,"Ġframework":4208,"Ġrather":4209,"MA":4210,"51":4211,"Ġds":4212,"')\\":4213,"des":4214,"',\\":4215,"Ġti":4216,"_{{":4217,"Ġful":4218,";\\;":4219,"vance":4220,"Ġmorphisms":4221,"below":4222,"smooth":4223,"Ġhomology":4224,"Ġord":4225,"Ġconveni":4226,"ourse":4227,"ĠLipschitz":4228,"Ġplan":4229,"Ġdetermine":4230,"mer":4231,"BC":4232,"Ġlift":4233,"71":4234,"ĠMarkov":4235,"ĠMore":4236,"}^+":4237,"shift":4238,"Ext":4239,"Ġdraw":4240,"Ġnecessarily":4241,"Ġtypes":4242,"ben":4243,"ĠExample":4244,"),(":4245,"cE":4246,"input":4247,"Ġloc":4248,"Ind":4249,"ski":4250,"ĠProof":4251,"ollowing":4252,"Ġunfolding":4253,"2013":4254,"van":4255,"white":4256,"closed":4257,"IC":4258,"Ġverify":4259,"Ġgreat":4260,"Ġassumes":4261,"fp":4262,"Ġregularity":4263,"Ġsug":4264,"Ġauthors":4265,"Cal":4266,"repres":4267,"Ġgenerating":4268,"=-\\":4269,"eded":4270,"Ġappropriate":4271,"Ġremo":4272,"Ġhoriz":4273,"PS":4274,"cept":4275,"number":4276,"vable":4277,"Dec":4278,"neg":4279,"Ġstarting":4280,"rangian":4281,"Ġcurrent":4282,"lie":4283,"Ġoff":4284,"cen":4285,"Ġvarian":4286,"Ġpredic":4287,"Ġassumed":4288,"pgfutil":4289,"variants":4290,"bt":4291,"ody":4292,"Ġspe":4293,"cn":4294,"bounds":4295,"Ġweights":4296,"sch":4297,"ĠEuler":4298,"Ne":4299,"nds":4300,"Bigg":4301,"Ġexpected":4302,"Res":4303,"ilib":4304,"arith":4305,"term":4306,"Ġdiscussed":4307,"inal":4308,"Ġdiscuss":4309,"gs":4310,"posite":4311,"Ġprocesses":4312,"Ġunderstand":4313,"false":4314,"fold":4315,"^{*}":4316,"functions":4317,"Ġstrategy":4318,"Ġmeasurable":4319,"Ġrectangle":4320,"Ġ\\/":4321,"subsec":4322,"product":4323,"cD":4324,"Ġpure":4325,"XX":4326,"odu":4327,"Ġinfinity":4328,"ĊĊĠĠĠ":4329,"Ġmight":4330,"Ġperturb":4331,"Ġ($\\":4332,"sep":4333,"UNCT":4334,"ilibri":4335,"Ġface":4336,"dz":4337,"Ġsignal":4338,"Ġlear":4339,"Ġarc":4340,"Ġworks":4341,"Var":4342,"tx":4343,"Ġho":4344,"Ġproducts":4345,"_{(\\":4346,"cons":4347,"alk":4348,"2014":4349,"pair":4350,"Ġ18":4351,"continuous":4352,"Corollary":4353,"bet":4354,"Ġmade":4355,"Ġrewrite":4356,"ccording":4357,"~(\\":4358,"ography":4359,"cP":4360,"port":4361,"Ġword":4362,"positions":4363,"----------------":4364,"DP":4365,"ES":4366,"Ġpermutation":4367,"Ġexplicitly":4368,"Ġindeed":4369,"Ġ{}":4370,"'=":4371,"${\\":4372,"Ġsheaf":4373,"resh":4374,"itt":4375,"Ġdimensions":4376,"Cref":4377,"triang":4378,"Ġcourse":4379,"Ġvis":4380,"ĊĊĊĊĊĊĊ":4381,"Pa":4382,"ĠIN":4383,"next":4384,"ometry":4385,"Ġcompletely":4386,"float":4387,"ditive":4388,"diam":4389,"GG":4390,"Ġplace":4391,"estima":4392,"scriptsize":4393,"tensor":4394,"Ġrig":4395,"height":4396,"iso":4397,"Ġautomorphism":4398,"Ġweakly":4399,"Ġsimilarly":4400,"Ġexperim":4401,"ĠPo":4402,"Ġtriple":4403,"mathop":4404,"Ġmonoid":4405,"}},\\":4406,"Ġfocus":4407,"Ġamong":4408,"Ġstraightforward":4409,"Ġtorus":4410,"HS":4411,"fun":4412,"Ġcr":4413,"Ġreader":4414,")\\|_{":4415,"Ġsphere":4416,"ising":4417,"pher":4418,"Ġunitary":4419,"dire":4420,"Ġ17":4421,"'}$":4422,"Ġplay":4423,"ĠBorel":4424,"})(":4425,"}\\}$":4426,"izations":4427,"Ġliterature":4428,"rown":4429,"Ġtermin":4430,"2018":4431,"nat":4432,"Ġmakes":4433,"Prop":4434,"Ġscale":4435,"Ġparallel":4436,"Ġmoreover":4437,"ĠLapla":4438,"Ġlies":4439,"simple":4440,"Ġwhenever":4441,"Upsilon":4442,"proj":4443,"2019":4444,"ieties":4445,"cB":4446,"Equ":4447,"Ġ)$":4448,"first":4449,"Ġrepresented":4450,"Ġinvertible":4451,"aries":4452,"Ġassign":4453,"Ġdown":4454,"Ġspin":4455,"Ġmentioned":4456,"deriv":4457,"textup":4458,"Ġ}}":4459,"adic":4460,"2015":4461,"Sub":4462,"Ġactually":4463,"rec":4464,"vertex":4465,"serv":4466,"hyper":4467,"Ġdomin":4468,"ĠBanach":4469,"Ġinterior":4470,"tian":4471,"plane":4472,"2016":4473,"algorithm":4474,"Ġthough":4475,"ters":4476,"Ġconclusion":4477,"Ġneeded":4478,"\\%":4479,"ĠĊĠĠ":4480,"Ġprincipal":4481,"Ġsource":4482,"IEEE":4483,"tile":4484,"Cha":4485,"grams":4486,"CF":4487,"Ġcluster":4488,"ĠOb":4489,"Ġ$\\|\\":4490,"LS":4491,"Ġelementary":4492,"ÂŁ":4493,"vp":4494,"Ġrepe":4495,"mic":4496,")\\,\\":4497,"field":4498,"Ġhome":4499,"Box":4500,"Ġgenus":4501,"ĠGal":4502,"Ġunderlying":4503,"Ġoften":4504,"^*}":4505,"Ġcontinuity":4506,"kin":4507,"herent":4508,"sequently":4509,"ĠRiemannian":4510,"ley":4511,"Ġcommun":4512,"citep":4513,"RS":4514,"*}\\":4515,"Sh":4516,"ible":4517,"Ġobservation":4518,"}<":4519,"based":4520,"Ġclearly":4521,"=>":4522,"Ġ}$":4523,"kl":4524,"Ġrecover":4525,"((\\":4526,"120":4527,"Ġfar":4528,"makebox":4529,"Ġgau":4530,"flat":4531,"Ġconsidering":4532,"Ġspecific":4533,"Ġprobab":4534,"len":4535,"dec":4536,"gn":4537,"Ġfinal":4538,"rely":4539,"ulus":4540,"iding":4541,"Ġcenter":4542,"Ġsurjective":4543,">=":4544,"cial":4545,"})-":4546,"180":4547,"ducing":4548,"lib":4549,"Ġformulas":4550,"texttt":4551,">\"":4552,"Ġhelp":4553,"]}\\":4554,"Ġdefining":4555,"2017":4556,"ĠThat":4557,"puting":4558,"bibli":4559,"ĠSimilarly":4560,"Ġiteration":4561,"))$,":4562,"Ġiff":4563,"ĊĉĉĊĉ":4564,"ottom":4565,"Ġones":4566,"lus":4567,"Ġfamil":4568,"Ġspa":4569,"global":4570,"Ġable":4571,"Ġfrac":4572,"qua":4573,"EQ":4574,"leftarrow":4575,"ĠCauchy":4576,"110":4577,"called":4578,"}))":4579,"target":4580,"Ġrest":4581,"){$":4582,"}\\|_{":4583,"Example":4584,"Ġremaining":4585,"Ġhis":4586,"2010":4587,"qq":4588,"Ġel":4589,"},\\\\":4590,"Ġ^{\\":4591,"Ġrequires":4592,"CS":4593,"Ġstated":4594,"Ġapproximate":4595,"Ġadap":4596,"levant":4597,"problem":4598,"cG":4599,"And":4600,"}({\\":4601,"bR":4602,"Ġmotiv":4603,"Ġconf":4604,"allest":4605,"^+$":4606,"Ġprac":4607,"opf":4608,"Ġformulation":4609,"Ġbetter":4610,"Ġproceed":4611,"Fix":4612,"ontal":4613,"ius":4614,"Ġadmissible":4615,"IV":4616,"Ġbest":4617,"break":4618,")--":4619,"Ġparame":4620,"varpi":4621,"uple":4622,"mission":4623,"Ġloop":4624,"smallmatrix":4625,"sym":4626,"but":4627,"vect":4628,"Ġga":4629,"Ġ\\)":4630,"Ġcarrier":4631,"Ġheight":4632,"ĠDefine":4633,"structure":4634,"Ġ!":4635,"ĠĠĠĠĠĠĠĠĠĠĠ":4636,"Ġtransmit":4637,"fe":4638,"Ġadjoint":4639,"satisf":4640,"Ġsm":4641,"Ġcovering":4642,"pd":4643,"Ġoperation":4644,"tage":4645,"Ġmotion":4646,"Ġequals":4647,"Similarly":4648,"leftrightarrow":4649,"formula":4650,"Ġ},":4651,"ĠTable":4652,"Ġslight":4653,"Ġexpressed":4654,"ĠAppendix":4655,"ĠÎ±":4656,"aux":4657,"adjoint":4658,"ĠEuclidean":4659,")_\\":4660,"uniform":4661,"Ġconfiguration":4662,"osing":4663,"_{\\{":4664,"Ġidentify":4665,"ining":4666,"ID":4667,"scal":4668,"Ġuses":4669,"KK":4670,"pmod":4671,"lower":4672,"than":4673,"IP":4674,"lue":4675,"Ġlen":4676,"Ġcompletes":4677,"}\\|\\":4678,"Ġstationary":4679,")/\\":4680,"Ġdistributed":4681,"arc":4682,"keys":4683,"bibliography":4684,"theo":4685,"hookrightarrow":4686,"acent":4687,"half":4688,"stein":4689,"mn":4690,"isation":4691,"ling":4692,"Ġperfect":4693,"Ġrole":4694,"Ġbundles":4695,"LT":4696,"BS":4697,"lbrace":4698,"uu":4699,"Ġcriter":4700,"grad":4701,"QQ":4702,"Ġgauge":4703,"Lie":4704,"ging":4705,"ili":4706,"Ġ\"(":4707,"Ġtransition":4708,"newtheorem":4709,"bot":4710,"optim":4711,"ularities":4712,"Ġintegration":4713,"ĠCla":4714,"hip":4715,"ned":4716,"Ġdiscre":4717,"]\\\\":4718,"ĠMo":4719,"Ġdiver":4720,",{\\":4721,"advance":4722,"Ġanti":4723,"parameter":4724,"Po":4725,"differen":4726,"Ġsubsection":4727,"Ġsubgroups":4728,"gray":4729,"gent":4730,"Ġcorrect":4731,"Ġessentially":4732,"anal":4733,"Ġ}{\\":4734,"Ġcomparison":4735,"Ġcut":4736,"pth":4737,"anchor":4738,"}]\\":4739,"rs":4740,"Furthermore":4741,"Ġrese":4742,"Ġfill":4743,"ret":4744,"ĠLagrangian":4745,"turns":4746,"tors":4747,"Ġuniqueness":4748,"vol":4749,"$--":4750,"any":4751,"define":4752,"SEQ":4753,"Qu":4754,"2020":4755,"}/\\":4756,"UM":4757,"Ġinteres":4758,"Ġarea":4759,"=-=-":4760,"wers":4761,"Ġtrajector":4762,"}=(":4763,"tact":4764,"Ġxs":4765,"2012":4766,"Ġcodes":4767,"Ġpull":4768,"Ġsolving":4769,"Ġestimation":4770,"|}{":4771,"Ġ-->":4772,"tran":4773,"Ġiso":4774,"gend":4775,"Ġequilibri":4776,"Ġweighted":4777,"Ġthink":4778,"Ġdiffe":4779,"Remark":4780,"Ġreplaced":4781,"implies":4782,"Ġanalogous":4783,"{.":4784,"Ġbinary":4785,"Ġreconsider":4786,"vs":4787,"-.":4788,"irich":4789,"Ġsignific":4790,"pc":4791,"radi":4792,"ĠAlgorithm":4793,"cX":4794,"stant":4795,"ĠMathematics":4796,"AP":4797,"))}":4798,"change":4799,"ope":4800,"FT":4801,"nor":4802,"ĊĠĠĊĠ":4803,"ses":4804,"Ġul":4805,"counter":4806,"vaila":4807,"irichlet":4808,"Ġexcept":4809,"FC":4810,"Ġdeal":4811,"edu":4812,"opt":4813,"car":4814,"Ġou":4815,"Ġreference":4816,"At":4817,"ilp":4818,"Ġshift":4819,"Ġcombinator":4820,"head":4821,"Ġequip":4822,"words":4823,"dor":4824,"}^{(\\":4825,"hd":4826,"ecause":4827,"Ġarrow":4828,"Ġsmallest":4829,".\\]":4830,"Ġconsisting":4831,"ĊĠĠĠĠĠĠĠĠĠĠ":4832,"Ġenti":4833,"Ġeffective":4834,"Ġmy":4835,"Ġsides":4836,"data":4837,"onic":4838,"count":4839,"ermitian":4840,"Ġappears":4841,"Ġfail":4842,"Ġsimplicial":4843,"Ġvanishes":4844,"aff":4845,"tz":4846,"Ġgenerally":4847,"TH":4848,"Ġgeneralization":4849,"IR":4850,"test":4851,"))^":4852,"footnotesize":4853,"limsup":4854,"Ġindepend":4855,"Ġmoduli":4856,"Ġinside":4857,"sube":4858,")},\\":4859,"rational":4860,"Ġexplo":4861,"ump":4862,"newline":4863,"rbrace":4864,"ending":4865,"),$":4866,"parr":4867,"uring":4868,"},$":4869,"Ġbijection":4870,"rily":4871,"Ġrestricted":4872,"eqq":4873,"erences":4874,"ground":4875,"Ġcountable":4876,"large":4877,"Ġwa":4878,"apply":4879,"Ġevolution":4880,"Ġaccount":4881,"These":4882,"Ġphysical":4883,"centra":4884,"Ġordered":4885,"}~":4886,"Or":4887,"lor":4888,"001":4889,"downarrow":4890,"domain":4891,"Ġsemigroup":4892,"Ġfew":4893,"}.\\":4894,"OM":4895,"Ġlay":4896,"Ġinterested":4897,"PE":4898,"Ġnetworks":4899,"bigcap":4900,"Ġgoal":4901,"Ġintegrable":4902,"degenerate":4903,"Ġmove":4904,"wards":4905,"})^{\\":4906,"Ġindices":4907,"istence":4908,"}}=\\":4909,"trac":4910,"tree":4911,"Ġplot":4912,"Ġobserved":4913,"bolev":4914,"Mat":4915,"Ġtechniques":4916,"ĠJaco":4917,"Ġmaxim":4918,"SET":4919,"Ġsugges":4920,"})}\\":4921,"ĠREWRITE":4922,"&-":4923,"pling":4924,"limin":4925,"mpling":4926,"ĠII":4927,"ram":4928,"Ġtheore":4929,"Define":4930,"const":4931,"CON":4932,"cknow":4933,"erm":4934,"Ġrepresents":4935,"Ġdeveloped":4936,"dia":4937,"Ġaccu":4938,"Ġproving":4939,"NR":4940,"Ġestablished":4941,"Ġtechn":4942,"Ġnonnegative":4943,"quations":4944,"py":4945,"Ġstabil":4946,"Ġtorsion":4947,"placing":4948,"Ġnotice":4949,"psline":4950,"Ġconformal":4951,"Ġmonomial":4952,"Ġvelo":4953,"Ġtoo":4954,"termin":4955,"using":4956,"}]$":4957,"image":4958,"Ġseems":4959,"Su":4960,"subequations":4961,"umns":4962,"tistic":4963,"pq":4964,"Ġextends":4965,"Ġblow":4966,"ĠSee":4967,"ĊĠĠĠĠĊĠĠĠ":4968,"ĠAt":4969,"Ġcalculation":4970,"parallel":4971,"@\\":4972,"{|\\":4973,"Ġmodulo":4974,"Ġdef":4975,"Ġscaling":4976,"ternal":4977,"paren":4978,"2011":4979,"cover":4980,"rad":4981,"Ġtemp":4982,"Ġvertical":4983,"append":4984,"ww":4985,"Ċĉĉĉĉĉ":4986,"vailable":4987,"Ġinvariants":4988,"'}(":4989,"Ġcombination":4990,"plan":4991,"ulations":4992,"land":4993,"Ġnull":4994,"Case":4995,"irt":4996,"succ":4997,"Ġalterna":4998,"Ġdecay":4999,"theory":5000,"Ġyield":5001,"tration":5002,"Ġvariance":5003,"rep":5004,"Ġorbits":5005,"arge":5006,"Ġduality":5007,"bust":5008,"monstra":5009,"Ġidentified":5010,"ided":5011,"See":5012,"tingu":5013,"ored":5014,"conj":5015,"ĠASM":5016,"Ġonce":5017,")))":5018,"Ġ$-\\":5019,"block":5020,"dg":5021,"Ġdistingu":5022,"Ġuniquely":5023,"bining":5024,"}}\\\\":5025,"endcsname":5026,"Ġlinearly":5027,"Ġpack":5028,")}=\\":5029,"titions":5030,"vered":5031,"ĠSci":5032,"ĠUn":5033,"Ġintegrals":5034,"Cor":5035,"Ġav":5036,"Ġmathema":5037,"ĠSU":5038,"Ġgap":5039,"Ġnaturally":5040,"Ġcap":5041,"))\"":5042,"ductive":5043,"underbrace":5044,"Ġps":5045,"]_{\\":5046,"_*\\":5047,"Ġcorollary":5048,"surface":5049,"VV":5050,"Ġuser":5051,"esh":5052,"}&&\\":5053,"@{-":5054,"Ġcorrespondence":5055,"DF":5056,"sn":5057,"Ġfig":5058,"Ġcompatible":5059,"cro":5060,"Sym":5061,"odic":5062,"Ġspatial":5063,">>":5064,"Ġsingularities":5065,"dorff":5066,"omin":5067,"Ġnontrivial":5068,"enc":5069,"}:=\\":5070,"Ġgrowth":5071,"address":5072,"rceil":5073,"CE":5074,"Ġvarieties":5075,"Ġbox":5076,"alance":5077,"SA":5078,"ear":5079,")}_{\\":5080,"Ġbranch":5081,"Ġear":5082,"coloneqq":5083,"cnt":5084,"Ġcoincides":5085,"Ġshowed":5086,"rp":5087,"oli":5088,"|^{\\":5089,"noteq":5090,"ĠHa":5091,"rn":5092,"Ġoriented":5093,"pherical":5094,"ĠFunction":5095,"Ġdesc":5096,"Ġtheorems":5097,"Ġ(,)":5098,"reed":5099,"âŁ":5100,"|}\\":5101,"Ġsums":5102,"Ġbig":5103,"Ġoperations":5104,"pgfkeys":5105,"ĠCo":5106,"Ġimplem":5107,"+}":5108,"paragraph":5109,"iled":5110,"Indeed":5111,"Ġextensions":5112,"Ġdevelop":5113,"spect":5114,"INSEQ":5115,"book":5116,"integral":5117,"factor":5118,"St":5119,"Ġfinally":5120,"ises":5121,"Lem":5122,"geqslant":5123,"|-":5124,"Ġresearch":5125,"Ġhorizontal":5126,"strong":5127,"Ġsignificant":5128,"hn":5129,"Ġsplitting":5130,"lceil":5131,"Ġoutput":5132,"Ġtransformations":5133,"ĠBe":5134,"})^{-":5135,"bund":5136,"lines":5137,"Ġgrid":5138,"[->":5139,"mr":5140,"^*,":5141,"ural":5142,"ght":5143,"Ġhapp":5144,"system":5145,")$;":5146,"ibration":5147,"Ġcomes":5148,"}:\\":5149,"Ġperform":5150,"Ġarticle":5151,"Ġdemonstra":5152,"sw":5153,"Ġadjacent":5154,"Ġquite":5155,"Ġconjugate":5156,"}\\;":5157,"cian":5158,"}|^":5159,"Ġcontrac":5160,"Ġtool":5161,"Ġresolution":5162,"Ġprobabil":5163,"Ġharmonic":5164,"Ġparabolic":5165,"Str":5166,"Ġtrac":5167,"dle":5168,"'-":5169,"Ġlimits":5170,"Me":5171,"PR":5172,"Ġrelevant":5173,"scope":5174,"Ġestimator":5175,"ensure":5176,"}{#":5177,"Ġcontrols":5178,"OOLE":5179,"ĠCase":5180,"roupo":5181,"ĠĊĠĠĠĠĠ":5182,"Ġcomplement":5183,"Ġdev":5184,"Ġ`'":5185,"\";":5186,"ario":5187,"Ġqed":5188,"partment":5189,"rgin":5190,"{[":5191,"pies":5192,"have":5193,"Ġwhole":5194,"ĠTop":5195,")}]":5196,"itude":5197,"}}+":5198,"ausdorff":5199,"Ġsw":5200,"positive":5201,"Ġdynamical":5202,"complete":5203,"123":5204,"imits":5205,"besg":5206,"\\,.":5207,"cT":5208,"restric":5209,"Ġeffect":5210,"Ġcomputational":5211,"Ġtransmission":5212,"AG":5213,"tributed":5214,"Ġideals":5215,"But":5216,"Ġcount":5217,"Ġabsolute":5218,".},":5219,"besgue":5220,"uv":5221,"}$)":5222,"Ġcycles":5223,"ident":5224,"Ġavailable":5225,"Ġdegrees":5226,"Of":5227,"kew":5228,"Ġ24":5229,"quares":5230,"State":5231,"625":5232,")&":5233,"ifically":5234,"olutions":5235,"Ro":5236,"cyclic":5237,"lr":5238,"ake":5239,"Ġcolumns":5240,"correspon":5241,"Ġshape":5242,"nc":5243,"mean":5244,"ased":5245,"^+(":5246,"Dis":5247,"Ġcomputing":5248,"due":5249,"ulti":5250,"),\\\\":5251,"_*(":5252,"Ġratio":5253,"degree":5254,"variable":5255,"Ġturns":5256,"well":5257,"respectively":5258,"Ġinteraction":5259,"gan":5260,"Ġcardin":5261,"Ġlargest":5262,"Ġaim":5263,"Ġkind":5264,"Ġimprove":5265,"Ġintervals":5266,"\\'{":5267,"={\\":5268,"word":5269,"Ġembedded":5270,"Ġ22":5271,",]":5272,"Ġfunctors":5273,"Ġfamilies":5274,"Ġpreserves":5275,"Ġinterpo":5276,"racy":5277,"ber":5278,"ĠâĨĴ":5279,"scil":5280,"titute":5281,"morph":5282,"TM":5283,">)":5284,"Ġclassification":5285,")\\|":5286,"}}+\\":5287,"sqcup":5288,"Ġreduce":5289,"sfer":5290,"uture":5291,"singular":5292,"Ġ)\\":5293,"Ġvanishing":5294,"AM":5295,"Ġperiod":5296,"lic":5297,"pack":5298,"ived":5299,"Ġdete":5300,"pes":5301,"Ġ({\\":5302,"3333":5303,"character":5304,"Ġdecreasing":5305,"!}":5306,"vx":5307,"bC":5308,"ya":5309,"Ġblocks":5310,")$}":5311,"ĠĊĊĊ":5312,"cting":5313,"soci":5314,"Ġequipped":5315,"shed":5316,"Ġdeformation":5317,")^*":5318,"(*":5319,"ading":5320,"mbf":5321,"Ġassertion":5322,"Ġjoint":5323,"umann":5324,"Ġtrees":5325,"Ġelse":5326,"ĠAssumption":5327,"AS":5328,"Ġdifferentiable":5329,"rmk":5330,"ropic":5331,"BG":5332,"âĢ":5333,"iden":5334,"spaces":5335,"lvert":5336,"ilpotent":5337,"Ġsimplicity":5338,"ĠDenote":5339,"ĀĀ":5340,"ensuremath":5341,"biggl":5342,"Ġorientation":5343,"Notice":5344,"DS":5345,"cp":5346,"ko":5347,"omic":5348,"ergodic":5349,"Ġequilibrium":5350,"Ġins":5351,"tot":5352,"hskip":5353,"Ġconverge":5354,"]}$":5355,"lex":5356,"descri":5357,"Ġreview":5358,"imple":5359,"Sec":5360,"_+$":5361,"Ġ23":5362,"|\\,":5363,"Ġincluding":5364,"Ġlie":5365,"Ġgreater":5366,"metic":5367,"hs":5368,"card":5369,"biggr":5370,")<\\":5371,"ĠREAL":5372,"Ġvelocity":5373,"turn":5374,"Ġcontact":5375,"Ġ\\:":5376,"Ġrings":5377,"Par":5378,"Ġdeterminant":5379,"limit":5380,"Ġbra":5381,"email":5382,"Ġcapacity":5383,"Ġmodular":5384,"ĠQu":5385,"Ġaxiom":5386,"Ġ21":5387,"Ġshowing":5388,"Ġfast":5389,"ference":5390,"Ġsubgraph":5391,"tikzcd":5392,"Ġobjective":5393,"ĠEquation":5394,"Ġjump":5395,"cN":5396,"jor":5397,"Ġslightly":5398,"Ġdifficult":5399,"roben":5400,"lap":5401,"periodic":5402,"dow":5403,"Ġleading":5404,"Ġfractional":5405,"Ġhard":5406,"BOOLE":5407,"lli":5408,"ĠHe":5409,"atures":5410,"Ġdomains":5411,"Ġmechan":5412,"Bound":5413,"textnormal":5414,"Ġmem":5415,"iece":5416,"Ġmis":5417,"rev":5418,"Ġjoin":5419,"power":5420,"Ġatta":5421,"\\,,":5422,"level":5423,"Ġ25":5424,"lations":5425,"png":5426,"radius":5427,"Ġmathematical":5428,"Ġemplo":5429,"Ġnormalized":5430,"\\|_\\":5431,"ĠDirichlet":5432,"robenius":5433,"scriptstyle":5434,"}_{(":5435,"isk":5436,"cenario":5437,"Ġcompare":5438,")]{":5439,"idence":5440,"lra":5441,"Ġtreat":5442,"Ġbit":5443,"irac":5444,"tained":5445,"Ġparticle":5446,"Ġpolic":5447,")$)":5448,"Ġcombinatorial":5449,"){$\\":5450,"Ġaxis":5451,"Ġconv":5452,"brakk":5453,"Ġequivalently":5454,"Ġ~\\":5455,"pen":5456,"Ġimplic":5457,"rief":5458,"Ġexpectation":5459,"Gal":5460,"Ġpi":5461,"ering":5462,"DM":5463,"upper":5464,"=[":5465,"ineq":5466,"Ġlearning":5467,"Ġomit":5468,"Ġdiagrams":5469,"Ġcompared":5470,"ĠAll":5471,"Ġ\\\\[":5472,"imodu":5473,"};\\":5474,"Ġ30":5475,"rvert":5476,"Ġcomplexes":5477,"Ġvol":5478,"Ġtarget":5479,"}),\\":5480,"Ġmultiplicity":5481,"Ġprimitive":5482,"Ġdiscreti":5483,"oper":5484,")`":5485,"Ġexponent":5486,"Ġreduces":5487,"Ġsubsequence":5488,"}_+":5489,"rb":5490,"2009":5491,"Ġsymbols":5492,"boundary":5493,"ĠStep":5494,"file":5495,"ĠHom":5496,"Ġgoes":5497,"citet":5498,"Ġred":5499,"Diff":5500,"dl":5501,"Ġmesh":5502,"ĠIs":5503,"Ġfinding":5504,"Ġlogarith":5505,"Ġfrequency":5506,"Ġconditional":5507,"basis":5508,"ĠHopf":5509,"true":5510,"Ġequiv":5511,"Cat":5512,"Ġnotations":5513,"Ġintersect":5514,"ittle":5515,"Ġoutside":5516,"Ġpiece":5517,"Sum":5518,"lected":5519,"tite":5520,"REWRITE":5521,"Ġexpressions":5522,"mming":5523,"6666":5524,"Ġadditive":5525,"Ġrates":5526,"ault":5527,"Step":5528,"^*$-":5529,"Ġarri":5530,"hu":5531,"Ġdig":5532,"bX":5533,"tl":5534,"when":5535,"lag":5536,"NS":5537,"Ġrows":5538,"ara":5539,"}\\!":5540,"gne":5541,"GR":5542,"bes":5543,"Ġdirected":5544,"compon":5545,"defi":5546,"Ġsec":5547,"super":5548,"105":5549,"rc":5550,"fs":5551,"Ġfully":5552,"uting":5553,"atural":5554,"ĠĊĠĠĠĠĠĠĠ":5555,"LP":5556,"commutative":5557,"********":5558,"Ġmode":5559,"cR":5560,"comment":5561,"Ġpas":5562,"ĠThey":5563,"kernel":5564,"Âĺ":5565,"Ġregar":5566,"rownian":5567,"rtimes":5568,"Ġsheaves":5569,"He":5570,"}^{+":5571,"Ġconcept":5572,"ĠâŁ":5573,"Ġmetrics":5574,"Ġblast":5575,"Ġcharacterization":5576,"Col":5577,"Ġstatements":5578,"Ġconcentra":5579,"Ġcod":5580,"Ġâī":5581,"equality":5582,"tailed":5583,"Ġcalculate":5584,"Ġactions":5585,"Mar":5586,"ournal":5587,"Ġdisk":5588,"Ġrel":5589,"gt":5590,"Ġapproaches":5591,"bZ":5592,")^{-\\":5593,"link":5594,"ccc":5595,"preser":5596,"Ġfiltration":5597,")+(":5598,"}.}":5599,"curve":5600,"Ġassoci":5601,"bk":5602,"//":5603,"equivariant":5604,"Ġdependence":5605,"Ġpref":5606,"ĊĠĊĠ":5607,"she":5608,"Ġquantity":5609,"renewcommand":5610,"\\\\\\":5611,"textcolor":5612,"Ġchoices":5613,"ED":5614,"ĠGalois":5615,"tification":5616,"Ġlan":5617,"Ġ|^":5618,"'\"":5619,"bracket":5620,"Ġoccurs":5621,"ash":5622,"veq":5623,"Pre":5624,"ĠCha":5625,"bP":5626,"adj":5627,"gments":5628,"Ġgenerate":5629,"bw":5630,"Ġinfinitely":5631,"Ġtechnical":5632,"$&$\\{":5633,"eter":5634,"vir":5635,"Ġknot":5636,"OU":5637,"^*$.":5638,"bA":5639,"ression":5640,"Is":5641,"BM":5642,"Cla":5643,"Ġband":5644,"Main":5645,"errors":5646,"yn":5647,"Ġvirt":5648,"112":5649,"sem":5650,"Ġcriterion":5651,"pgfmathfloat":5652,"Ġbook":5653,"[]":5654,")\\<":5655,"ĠNAT":5656,"ÂİÂİ":5657,"ĊĠĠĠĠĠĠĠĠĠĠĠĠĠĠĠĠĠĠĠ":5658,"ĠLebesgue":5659,"versely":5660,"Ġregulari":5661,"\\\"{":5662,"Left":5663,"Ġgoing":5664,"Ġ==>":5665,"Ġreplacing":5666,"Ġ\\},$&$\\{":5667,"sively":5668,"Ġrotation":5669,"|,":5670,"force":5671,"Ġ[,]":5672,"omen":5673,"ubic":5674,"entations":5675,"Ġarith":5676,"Ġacting":5677,"Ġassuming":5678,"}$;":5679,"+|\\":5680,"inted":5681,"Ġ(.":5682,"GS":5683,"}}\\,":5684,"}:=":5685,"Ġindiv":5686,"Ġbrief":5687,"metric":5688,"Ġscenario":5689,"Ġ$=":5690,"ĊĠĠĊĠĠ":5691,"^*_{":5692,"quasi":5693,"Ġdiffusion":5694,"Ġ}(":5695,"bz":5696,"Ġ{{\\":5697,"servation":5698,"ptional":5699,"ĠNat":5700,"CR":5701,"}}{(":5702,"Ġcontribution":5703,"&+":5704,"otropic":5705,"measure":5706,"\\!\\!\\!\\!":5707,"mmer":5708,"})+":5709,"given":5710,"mary":5711,"150":5712,"root":5713,"Cl":5714,"Ġcre":5715,"}}-":5716,"|$.":5717,"rgb":5718,"show":5719,"eep":5720,"Ġalternative":5721,"constant":5722,"Ġincreases":5723,"Ġissu":5724,"mk":5725,"Ġwhy":5726,")}^{":5727,"ji":5728,"atch":5729,"EX":5730,"Ġprimes":5731,"assumption":5732,"none":5733,"exact":5734,"Ġtranslation":5735,"BF":5736,"ories":5737,"More":5738,"tering":5739,")}}\\":5740,"],\\":5741,"~(":5742,")(-":5743,"ĠHL":5744,"Ġmultipl":5745,"Ġsemis":5746,"))=\\":5747,"Ġthank":5748,"loop":5749,"Ġsegment":5750,"lier":5751,"some":5752,"Ġstack":5753,"Ġsubspaces":5754,"Ġrelatively":5755,"\\-":5756,"asible":5757,"Ġdi":5758,"Ġsolved":5759,"Ġapplies":5760,"Ġcomputations":5761,"Ha":5762,"Ġindivi":5763,"integra":5764,"Ġsubject":5765,"Ġmonotone":5766,"rting":5767,"ourho":5768,"}$};":5769,"rence":5770,"Ġcovariance":5771,"turnstile":5772,"guage":5773,"bn":5774,"Figure":5775,"Ġsingularity":5776,"Ġchanges":5777,"Ġzeros":5778,"Map":5779,"EC":5780,"Ġcof":5781,"ĠFix":5782,"),$$":5783,"esub":5784,"posable":5785,"^{-(":5786,"Ġ$)":5787,"Ġadmit":5788,"Ġcoincide":5789,"full":5790,"135":5791,"ham":5792,"ĠRo":5793,"Also":5794,"cK":5795,"Denote":5796,"âŁ©":5797,"bsub":5798,"Ġsubalgebra":5799,"''(":5800,">(":5801,"reshold":5802,"dal":5803,"Ver":5804,"Ġpartitions":5805,"Ġcf":5806,"Ġstre":5807,"|<":5808,"Ġoscil":5809,"Ġchoosing":5810,"sures":5811,"oting":5812,"Ġ32":5813,"Ġgame":5814,"Ġneeds":5815,"Math":5816,"Ġblue":5817,"decor":5818,"Ġdefinite":5819,"manifolds":5820,"Ġmeaning":5821,"|(":5822,"union":5823,"every":5824,"decom":5825,"md":5826,"mediate":5827,"Ġcru":5828,"Ġusually":5829,"ĠClearly":5830,"aut":5831,"ford":5832,"sinh":5833,"lare":5834,"ball":5835,"Ġwor":5836,"liminf":5837,"ĠNotice":5838,"Ap":5839,"2008":5840,"reme":5841,"tably":5842,"ĠLa":5843,"incar":5844,"ational":5845,"ĠNew":5846,"Ġproven":5847,"ĠMe":5848,"gdef":5849,"td":5850,"'.":5851,"ĠYou":5852,"itch":5853,"003":5854,"chain":5855,"Ġreflection":5856,"Ġelect":5857,"Ġpresentation":5858,"second":5859,"Ġcommunication":5860,"onormal":5861,"ifts":5862,"ĠHausdorff":5863,"Ġaccuracy":5864,"ĠTheorems":5865,"Ġergodic":5866,",\\;":5867,"Ġdri":5868,"Ġisomorphisms":5869,"ĠAnd":5870,"Ġrng":5871,"'+":5872,")}\\\\":5873,"}})$":5874,"Ã©":5875,"ifx":5876,"Ġpass":5877,"Ġspeed":5878,"Ġimpo":5879,"Ġrise":5880,"Ġconcer":5881,"xa":5882,"Ġfigure":5883,"Ġtechnique":5884,"Ġouter":5885,"lab":5886,").\\":5887,"Ġiterations":5888,"Ġextra":5889,"Ġparticles":5890,"Ġreferences":5891,"ĠSobolev":5892,"âĤĤ":5893,"Ġcouple":5894,"Ġdecre":5895,"pmb":5896,"preceq":5897,"Ġconsistent":5898,"Declare":5899,"Si":5900,"'',":5901,"pped":5902,"acc":5903,"THEN":5904,"Ġadding":5905,"Ġbecome":5906,"[[":5907,"__":5908,"compu":5909,"textstyle":5910,"convergence":5911,"oc":5912,"Ġmonoidal":5913,"separa":5914,"]^-":5915,"flow":5916,"Ġrigid":5917,"SC":5918,"nother":5919,"ahler":5920,"ĠMAT":5921,"Ġsampling":5922,"Ġfuture":5923,"semb":5924,"homogeneous":5925,"Ġpattern":5926,"only":5927,"cosh":5928,"eigen":5929,"solution":5930,")-(":5931,"trol":5932,"Ġeigenvector":5933,"^*)":5934,"---":5935,"pgfmathresult":5936,"ĠRic":5937,"Car":5938,"partite":5939,"}}}}":5940,"Ġcardinality":5941,"Ar":5942,"classi":5943,"Ġblack":5944,"Ġcoupling":5945,"upsilon":5946,"Ed":5947,"Prob":5948,"textsc":5949,"ĠSome":5950,"pg":5951,"Ġsearch":5952,"comm":5953,"Ġcells":5954,",-.":5955,"span":5956,"Bo":5957,"Ġinvolving":5958,"âĤģ":5959,"Ġ*)":5960,"rput":5961,"OT":5962,"lexi":5963,"FE":5964,"Ġforce":5965,"OL":5966,"Ġwalk":5967,"ether":5968,"Ġavoid":5969,"Ġways":5970,"Ġusers":5971,"Ġknowledge":5972,"tem":5973,"\\},\\":5974,"Ġmodified":5975,"ĠType":5976,"hh":5977,"xb":5978,"nstein":5979,"Es":5980,",+":5981,"Ġseparable":5982,"cross":5983,"ÂįÂĳ":5984,"ECT":5985,"Ġmixed":5986,"All":5987,"Ġleaves":5988,"}<\\":5989,"ĠEach":5990,"Per":5991,"ai":5992,"hoose":5993,"autoref":5994,"Suc":5995,"tistics":5996,"eneral":5997,"polynomial":5998,"ĠEE":5999,"Ġ..^":6000,"Ġpurpose":6001,"rate":6002,"sig":6003,"ĠBrownian":6004,"Ġbuil":6005,"Ġstring":6006,"sys":6007,"Ġconjuga":6008,"Ġdetailed":6009,"Ge":6010,"ĠWeyl":6011,"Ġparametri":6012,"cb":6013,"Ġrelax":6014,"Ġerrors":6015,"Ġcong":6016,"}\\]":6017,"Ġmix":6018,"Ġintroduction":6019,"scheme":6020,"Ġsays":6021,"ops":6022,"OS":6023,"ithful":6024,"Ġ[-":6025,"BA":6026,"Ġground":6027,"Ġperturbation":6028,"thanks":6029,"Ġduring":6030,"``":6031,"uparrow":6032,"BP":6033,"INT":6034,"Ġcounter":6035,"fm":6036,"mail":6037,"elem":6038,"ads":6039,"128":6040,"gre":6041,"late":6042,"while":6043,"leton":6044,"process":6045,"default":6046,"kern":6047,"Ġachieve":6048,"Ġinc":6049,"Ġexpand":6050,"lVert":6051,"psfra":6052,"theses":6053,"Ġsucces":6054,"Ġexplain":6055,"$&$":6056,"optimal":6057,"}):":6058,"Ġconvenient":6059,"(\\<":6060,"Ġ100":6061,"}--\\":6062,"Ġrefine":6063,"MC":6064,"Du":6065,"Ġ{{":6066,"\\\\[":6067,"ltane":6068,"Ġsamples":6069,"Ġnilpotent":6070,"bundle":6071,"mum":6072,"linder":6073,"mem":6074,"}{$":6075,"mom":6076,"dashed":6077,"differential":6078,"Alg":6079,"gnetic":6080,"Ġtrunc":6081,"ĠLaplacian":6082,"Observe":6083,"^*$,":6084,"101":6085,"ĠRes":6086,"Ġordinary":6087,"Ġmess":6088,"Ġexpect":6089,"Ġquantities":6090,"Ġwhereas":6091,"Ġ27":6092,"Ġrestrict":6093,"random":6094,"Ġdon":6095,"even":6096,"aylor":6097,"ĠConsequently":6098,"Ġasymptotically":6099,"ets":6100,"''$":6101,"also":6102,"column":6103,"Ġask":6104,"Ġrecently":6105,"Under":6106,"tac":6107,"bec":6108,"\\).":6109,"ĠSuch":6110,"dif":6111,"ĠPa":6112,"Ġinterpretation":6113,"vent":6114,"metis":6115,"Ġadvan":6116,"AD":6117,"Ġachieved":6118,"[{\\":6119,"sequence":6120,"Ġnonempty":6121,"Ġmatching":6122,"ATE":6123,"}\"":6124,"gies":6125,"hence":6126,"@@":6127,"Ġcontrast":6128,"ĊĠĠĠĠĠĠĠĠĠĠĠĠĠĠĠĠĠ":6129,"(|\\":6130,"tituting":6131,"arse":6132,"tp":6133,"irr":6134,"Ġobservations":6135,"Ġfacts":6136,"Ġderivation":6137,"current":6138,"ĠBS":6139,"fact":6140,"ĠNeumann":6141,"high":6142,"pri":6143,"ech":6144,"ĠProblem":6145,"addplot":6146,"gp":6147,"odge":6148,"}=\\{":6149,"Ġtry":6150,"instein":6151,"uk":6152,"eck":6153,"poses":6154,"estions":6155,",~":6156,"Ġbre":6157,"ĠSubset":6158,"coder":6159,"ĠCal":6160,"estimate":6161,"Ġconvergent":6162,"Ker":6163,"00000":6164,"Ġ\\#":6165,"fn":6166,"]].":6167,"Ġregions":6168,"core":6169,"}}}{":6170,"gon":6171,"erre":6172,"plex":6173,"Ġslo":6174,"Ġplanar":6175,"Ġmultiplicative":6176,"2006":6177,"lling":6178,"})}{":6179,"Ġbilinear":6180,"simps":6181,"dotsc":6182,"2007":6183,"cone":6184,"ĠĊĉĉ":6185,"Ġpropa":6186,"tistical":6187,"Ġtheoretical":6188,"Ġinvestigate":6189,"rack":6190,"Ġgroupo":6191,"tope":6192,"Ġ+(":6193,"sma":6194,"DG":6195,"irical":6196,"Ġanalogue":6197,"bea":6198,"Ġentire":6199,"2000":6200,"Ġcrucial":6201,"Ġkeep":6202,"Ġpic":6203,"ogen":6204,"onger":6205,"140":6206,"trace":6207,"_{|\\":6208,"pn":6209,"iliary":6210,"tesian":6211,"umerical":6212,"Ġyour":6213,"]=\\":6214,"Ġarithmetic":6215,")$:":6216,"lean":6217,"ĠMath":6218,"Graph":6219,"Ġsquares":6220,"]{$":6221,"Ġdeterministic":6222,"Ġendow":6223,"Âĸ":6224,"mathds":6225,"##":6226,"Ġpick":6227,"Ġspherical":6228,"green":6229,"Ġaway":6230,"Ġarbitrarily":6231,"pb":6232,"^+\\":6233,"Ġidentities":6234,"almost":6235,"SK":6236,"Ġ(-\\":6237,"BE":6238,"equences":6239,"}})\\":6240,"ddots":6241,"ssible":6242,"Ġsummari":6243,"Ġ~~":6244,"Ġequivariant":6245,"Ġcodimension":6246,"Ġfibration":6247,"ĠMor":6248,"III":6249,"Ġefficient":6250,")&=":6251,"Ġpowers":6252,"ordan":6253,"Ġfactorization":6254,"^+_":6255,"Ġmid":6256,"orn":6257,"Ġrules":6258,"basic":6259,"007":6260,"ourhood":6261,"supset":6262,"Ġentry":6263,"ille":6264,"Ġ26":6265,":$":6266,",}":6267,"rite":6268,"addle":6269,"older":6270,"approxima":6271,"Ġlocus":6272,"&$":6273,"IST":6274,"struct":6275,"Ġorthonormal":6276,"(\\{":6277,"rVert":6278,"functor":6279,"Ġ28":6280,"'_{\\":6281,"sert":6282,"nging":6283,"ĠGe":6284,"Ġprojections":6285,"viron":6286,"Ġid":6287,"}\\)":6288,"odd":6289,"puts":6290,"Ġlon":6291,"Ġrobust":6292,"Ra":6293,"Ġtwisted":6294,"Ġpe":6295,"Ġcongru":6296,"Ġlanguage":6297,"provide":6298,"Ġimages":6299,"mono":6300,"Ġensure":6301,"Ġ&=\\":6302,"bro":6303,"Ġordering":6304,")=-":6305,"Operator":6306,"Ġtransfer":6307,"&&&&":6308,"Pic":6309,"ried":6310,"extension":6311,"})\\\\":6312,"Ġutil":6313,"otherwise":6314,"associa":6315,"rig":6316,"Real":6317,"Ġtheories":6318,"ymptotic":6319,"Ġtwist":6320,"ater":6321,"Ġpolicy":6322,"FS":6323,"diagonal":6324,"Ġsymmetri":6325,"Line":6326,"|^{-":6327,"ĠDirac":6328,"Ġsimulation":6329,"fixed":6330,"ifted":6331,"MU":6332,"Ġtotally":6333,"triangleq":6334,"beled":6335,"diamond":6336,"Ġrespec":6337,"outh":6338,"Ġreach":6339,"move":6340,"nol":6341,"Ġcommuta":6342,"Ġviewed":6343,"Ġresol":6344,"'m":6345,"bing":6346,"Ġcommutes":6347,",-\\":6348,"Ġ$(-":6349,"xs":6350,"Ġpartially":6351,"115":6352,"Ġgiving":6353,"odot":6354,"enomen":6355,"tribution":6356,"{(-":6357,")}+\\":6358,"Ġcen":6359,"Ġemploy":6360,"\\_":6361,"KL":6362,"Ġ35":6363,")}{(":6364,"graded":6365,"package":6366,"Ġ---":6367,"ĠFrobenius":6368,"Ġcus":6369,"Ġvary":6370,"Ġunknown":6371,"Ġconverse":6372,"Ġdetermines":6373,"Ġmaking":6374,"interval":6375,"ĠâĦ":6376,")\\)":6377,"psfrag":6378,"what":6379,")}+":6380,"vt":6381,"relation":6382,"amely":6383,"Ġquestions":6384,"lift":6385,"Combining":6386,"Ġscat":6387,"entable":6388,"semi":6389,"Ġforward":6390,"ĠNext":6391,"Ġpairwise":6392,"Ġimplicit":6393,"ultane":6394,"Ġpen":6395,"rtingale":6396,"orts":6397,"direct":6398,">,":6399,"Ġ<\\":6400,"ky":6401,"Ġpropose":6402,"DR":6403,"Ġaux":6404,"ytic":6405,".}\\":6406,"theore":6407,"Ġ60":6408,"terial":6409,"Clearly":6410,"ifies":6411,"Ġpullback":6412,"constra":6413,"-|":6414,"Ġ|_":6415,"Ġcoherent":6416,"gcd":6417,"string":6418,"Ġprior":6419,"Ġbottom":6420,"Ġexperiments":6421,"Ġideas":6422,"Ġ[]":6423,"Ġsyn":6424,"Ġcome":6425,"Ġexplained":6426,"Ġcorrelation":6427,"ĠOr":6428,"Ġcopies":6429,"$}\\":6430,"Ġpointwise":6431,"tention":6432,"vity":6433,"Ġestimated":6434,"BR":6435,"Ġabsolutely":6436,"viation":6437,"ymme":6438,"groups":6439,"Ġmarked":6440,"108":6441,"setlength":6442,"Ġsparse":6443,"ĠAd":6444,"because":6445,"eea":6446,"Â¹":6447,"\\),":6448,"Some":6449,"pression":6450,"Ġcomp":6451,"ano":6452,"Sim":6453,"$.\\\\":6454,"Ġearlier":6455,"Hy":6456,"Ġimmer":6457,"Ġidentical":6458,"Ġmatch":6459,"://":6460,"Ġgu":6461,"Ġexceptional":6462,")}-":6463,"geometric":6464,"therwise":6465,"Ġthreshold":6466,"teness":6467,"unique":6468,"description":6469,"antr":6470,"rv":6471,"Ġrou":6472,"{-\\":6473,"Ġ50":6474,"Ġtends":6475,"])$":6476,"representation":6477,"Ġfoli":6478,"etale":6479,"Ġdirections":6480,"Ġstronger":6481,"ÂįÂŁ":6482,"wp":6483,"LR":6484,"Ġsimplify":6485,"independent":6486,"Ġetc":6487,"Ġinvolved":6488,"critical":6489,"Ġuntil":6490,"Ġbehaviour":6491,"Ġcentered":6492,"111":6493,"Ġskew":6494,"160":6495,"},$$":6496,"Ġincrease":6497,"zing":6498,"Ġfilter":6499,"anc":6500,"oto":6501,"Ġtre":6502,"tb":6503,"Ġfinish":6504,"gated":6505,"plicated":6506,"Ġopposite":6507,"az":6508,"PT":6509,"ĠFurther":6510,"}{-":6511,"tibility":6512,"lattice":6513,"ĠFUNCT":6514,"Ġimagin":6515,"Ġcalculus":6516,"Ġunbounded":6517,"ably":6518,"amp":6519,"Ġtight":6520,"Ġnorms":6521,"initial":6522,"cI":6523,"Two":6524,"Ġphenomen":6525,"Ġmer":6526,"ĠâŁ¨":6527,"ially":6528,"Ġpermutations":6529,"Acknow":6530,"holds":6531,"ux":6532,"hyp":6533,"Ġinternal":6534,"Ġshor":6535,"boxtimes":6536,"ule":6537,"vis":6538,"determin":6539,"her":6540,"sphere":6541,"Ġisometry":6542,"mathbbm":6543,"roughout":6544,"cut":6545,"ussian":6546,"nm":6547,"iring":6548,"Ġsimultane":6549,"130":6550,"weight":6551,"|.":6552,"inverse":6553,"Ġampl":6554,")}}{":6555,"Ġpossibly":6556,"Ġfaces":6557,"Ġautoma":6558,"ĠHermitian":6559,"ĠGra":6560,"ĠReal":6561,"Ġinterpolation":6562,"ulated":6563,"ĠPar":6564,"Ġlayer":6565,"ĠMon":6566,"Ġlemmas":6567,"theless":6568,"ĠPDE":6569,"Ġfaithful":6570,"edef":6571,"yy":6572,"Ġ\\}$.":6573,"Ġcos":6574,"usepackage":6575,"ower":6576,"Ġpropor":6577,"ken":6578,"}\\{":6579,"Ġsite":6580,"Br":6581,"ĠMat":6582,"ASS":6583,"bq":6584,"ideal":6585,"standard":6586,")^{(":6587,"discrete":6588,"cave":6589,"Ġrw":6590,"Ġtext":6591,",+\\":6592,"hf":6593,")=\\{":6594,"@{\\":6595,"ĠPoincar":6596,"Ġmeet":6597,"Ġcubic":6598,"104":6599,"Ġnice":6600,"ources":6601,"Ġorgan":6602,"Ġlight":6603,"alanced":6604,"sus":6605,"Ġround":6606,"}};":6607,"Ġautomorphisms":6608,")&\\":6609,"Ġalthough":6610,"natural":6611,"!]":6612,"Ġinvolution":6613,"Ġtraining":6614,"ĠInte":6615,"Ġcance":6616,"paring":6617,"||\\":6618,"sitive":6619,"acu":6620,"Sup":6621,"layer":6622,"Ġcalculations":6623,"Ġfeasible":6624,"mode":6625,"|+":6626,"Ġaltern":6627,"foreach":6628,"solid":6629,"CG":6630,"Ġidentification":6631,"Ġexhi":6632,"Ab":6633,"calC":6634,"ridge":6635,"liminaries":6636,"====":6637,"Ġbracket":6638,"rical":6639,"remal":6640,"imit":6641,"Ġhad":6642,"}([":6643,"nothing":6644,"Ġray":6645,"oms":6646,"Ġcompletion":6647,")&=\\":6648,"pin":6649,"Ġbackground":6650,"Ġpointed":6651,"ĊĊĊĊĊĊĊĊĊĊĊĊĊĊĊĊĊĊĊĊĊĊĊĊĊĊĊĊĊĊĊĊĊĊĊĊĊĊĊĊĊĊĊĊĊĊĊĊĊĊĊĊĊĊĊĊĊĊĊĊĊĊĊĊ":6652,"Ġremainder":6653,"Ġtail":6654,"Ġregime":6655,"OD":6656,"Ġsharp":6657,"gal":6658,"vdash":6659,"}{(\\":6660,"Ġprobabilities":6661,"Ġcore":6662,"Ġproduce":6663,"cV":6664,"}$:":6665,"weigh":6666,"ĠClaim":6667,"varsigma":6668,"ĠSu":6669,"bian":6670,"Ġsurely":6671,"lov":6672,"Applying":6673,"Ġinvariance":6674,")\\}$":6675,"Ġ\\[\\":6676,"Ġ<>":6677,"cU":6678,"Ġchannels":6679,"Ġwide":6680,"}'$":6681,"eedback":6682,"Ġcopy":6683,"Ġnotions":6684,"ĊĠĠĠĠĊĠĠĠĠ":6685,"_+\\":6686,"orbit":6687,"models":6688,"Ġselection":6689,"Ġeverywhere":6690,"}^{*":6691,"odrom":6692,"enberg":6693,"Contributed":6694,"ĠAp":6695,"}{}":6696,"vanish":6697,"arr":6698,"Ġsubcategory":6699,"cou":6700,"_*$":6701,"stood":6702,"ĠSpec":6703,"light":6704,"Ġtoric":6705,"'=\\":6706,"ĠObserve":6707,".]":6708,"diagram":6709,"rl":6710,"ĠDo":6711,"good":6712,"Ġmut":6713,"300":6714,"ants":6715,"Ġmember":6716,"ĠDef":6717,"otopic":6718,"Ġexperiment":6719,"gular":6720,"imin":6721,")=-\\":6722,"Ġ\\,\\,":6723,"Top":6724,"sgn":6725,"Ġseq":6726,"YM":6727,"infinite":6728,"Ġindependently":6729,"_+(":6730,"Ġfibers":6731,"Ġabstract":6732,").\\]":6733,"series":6734,"harmonic":6735,"dependent":6736,"118":6737,"SUB":6738,"Ġevaluation":6739,"ET":6740,"...,":6741,"117":6742,"Ġextreme":6743,"results":6744,"Ġnever":6745,"Ġconfigurations":6746,"Der":6747,"Up":6748,"appendix":6749,"Ġbin":6750,"ĠInt":6751,"Ġdid":6752,"Ġreturn":6753,"Ġisolated":6754,"tract":6755,"}{|\\":6756,"SF":6757,"FUNCT":6758,"Ġlimiting":6759,"}^{[":6760,"CB":6761,"102":6762,"{-}":6763,"nb":6764,"ĠHodge":6765,"Ġheat":6766,"Ġund":6767,"hedral":6768,"2005":6769,"func":6770,"isomorphism":6771,"Ġacce":6772,"iy":6773,"STATE":6774,"Ġcontraction":6775,"three":6776,"pact":6777,"nolimits":6778,"ĊĊĊĊĊĊĊĊĊ":6779,"north":6780,"ml":6781,"Ġ\\'":6782,"Ġtil":6783,"2021":6784,"thin":6785,"Ġinstan":6786,"neighb":6787,"atz":6788,"Ġapproximations":6789,"overrightarrow":6790,"hang":6791,"Ġvariational":6792,"Ġmach":6793,"}$\\":6794,"Ġpush":6795,"ĠUnder":6796,"owski":6797,"Ġ[(":6798,"Ġtrajectory":6799,"mathtt":6800,"Space":6801,"gb":6802,"Ġappearing":6803,"@[":6804,"ĊĉĉĊĉĉ":6805,"Ġ29":6806,"LM":6807,"Ġ40":6808,"ĠBes":6809,"})_":6810,"Ġneighbourhood":6811,"element":6812,"Ġmoments":6813,"Ġ{(":6814,"Ġpassing":6815,"Ġwin":6816,"atura":6817,"Ġpresence":6818,"Ġ\\|_":6819,"Ġconvenience":6820,"setcounter":6821,"107":6822,"vc":6823,"116":6824,"{/":6825,"Ġcontradicts":6826,"Ġspecified":6827,"Ġ\\,.":6828,"onom":6829,"bibliographystyle":6830,"]+":6831,"270":6832,"Non":6833,"enum":6834,"etherian":6835,"equivalence":6836,"terior":6837,"Ġmaterial":6838,"Ġtes":6839,"Ġpreserving":6840,"ini":6841,"ĠBecause":6842,"$]":6843,"Ġhomeomorphism":6844,"corresponding":6845,"np":6846,"}^-":6847,"obs":6848,"ĠConjecture":6849,"Out":6850,"fort":6851,"Ġconnections":6852,"suming":6853,"Ġdecision":6854,"Ġperformed":6855,"})}{\\":6856,"]}(":6857,"ina":6858,"ama":6859,"into":6860,"unov":6861,"ages":6862,"':":6863,"following":6864,"Ġpapers":6865,"equivalent":6866,"Ġcomplicated":6867,"360":6868,"fication":6869,">*":6870,"Ġ$\\,":6871,"eqno":6872,"$}.":6873,"Ġpost":6874,"ators":6875,"=}":6876,")/(":6877,"esearch":6878,"imp":6879,"114":6880,"Ġinterference":6881,"Norm":6882,"Ġbelie":6883,"Ġhypotheses":6884,"Ġtriangles":6885,"According":6886,"prim":6887,"similar":6888,"Ġmajor":6889,"Ġends":6890,"equal":6891,"Ġempirical":6892,"RI":6893,"vr":6894,"Ġthanks":6895,"Ġanalyze":6896,"ĠWhat":6897,"covered":6898,"2004":6899,"timately":6900,")})\\":6901,"Ġauxiliary":6902,"Ġattention":6903,"Ġ=>":6904,"Fin":6905,"varnothing":6906,"consist":6907,"}}-\\":6908,"Ġballs":6909,"thod":6910,"Ġupon":6911,"rex":6912,"Do":6913,"ĠLo":6914,"Ġ([":6915,"Ġdiffeomorphism":6916,"()":6917,"ĠInd":6918,"onicity":6919,"Ġmomentum":6920,"asymp":6921,"Ġarcs":6922,"Ġdifficul":6923,"breve":6924,"}\\}_{":6925,"=&":6926,"sv":6927,"ames":6928,")=(\\":6929,"ours":6930,"Ġbar":6931,"Ġpopu":6932,">.":6933,"Ġstyle":6934,"bbR":6935,"vergence":6936,"Ġdependent":6937,"Exp":6938,"ĠAccording":6939,"})_{\\":6940,"Ġgets":6941,"ĠTaylor":6942,"Ġyear":6943,",[":6944,"subst":6945,"|$,":6946,"})-\\":6947,"Ġthroughout":6948,"ĠĠĊĠ":6949,"hedron":6950,"ables":6951,"Ġobtains":6952,"Ġresidue":6953,"ĠBer":6954,"graphs":6955,"Ġintu":6956,"Ġbro":6957,"ately":6958,"Ġdepth":6959,"}((":6960,"tokes":6961,"Ġconvention":6962,"Ġupdate":6963,"_*(\\":6964,"Ġint":6965,"Ġprogram":6966,"warz":6967,"Ġreferred":6968,"Ġmathe":6969,"Ġconstructions":6970,"centerline":6971,"Ġyet":6972,"herence":6973,"FM":6974,"Ġdivisors":6975,"Ġtypical":6976,"related":6977,"ĠLy":6978,"allow":6979,"124":6980,"UU":6981,"lip":6982,"0001":6983,"Ġdivergence":6984,"location":6985,"})+\\":6986,"plits":6987,"Rel":6988,"Ġstatistical":6989,"Ġsimulations":6990,"))_{":6991,"Ġsends":6992,"Ġdot":6993,"Ġmargin":6994,"106":6995,"Ġcylinder":6996,"}_{-":6997,"Ġpriori":6998,"99999999":6999,"existence":7000,"between":7001,"Leftrightarrow":7002,"nged":7003,"Ġdegenerate":7004,"ĊĉĊĉĊĉĊĉ":7005,"375":7006,"Ġensures":7007,"parent":7008,"bE":7009,"plying":7010,"Ġlinks":7011,"ĠMATCH":7012,"Ġpiecewise":7013,"conne":7014,"cv":7015,"stan":7016,"ercise":7017,"Ġunity":7018,"Ġcombining":7019,"ĊĠĠĠĠĠĠĠĠĠĠĠĠĠĠĠĠĠĠĠĠĠĠĠĠĠĠĠĠĠĠĠĠĠĠĠĠ":7020,"bg":7021,"Ġrelationship":7022,"Ġmanner":7023,"\"]":7024,"Ġ-(":7025,"145":7026,"ĊĠĠĠĠĠĠĠĠĠĠĠĠĠĠ":7027,"ensors":7028,"ĠIns":7029,"dm":7030,"tuple":7031,"Ric":7032,"}}}{\\":7033,"Inte":7034,"Ġguarantee":7035,"0000000000000000":7036,"final":7037,"Ġpicture":7038,")})$":7039,"ications":7040,"ĉĊ":7041,"Ġorders":7042,"Ġcrossing":7043,"vey":7044,"Ġdivides":7045,"ĠEn":7046,"eg":7047,"cline":7048,"vu":7049,"Ġpreviously":7050,"IMP":7051,"lari":7052,"}}^{(":7053,"bic":7054,"ĠGL":7055,"That":7056,"Dia":7057,"tability":7058,"$?":7059,"Î»":7060,"\\`":7061,"Ġhighest":7062,"notation":7063,"Ġallowed":7064,")}\\,":7065,",\\,\\,\\,\\":7066,"Ġunless":7067,"apunov":7068,"dp":7069,"och":7070,"BD":7071,"measurable":7072,"Ġrealization":7073,"Ġbases":7074,"*{\\":7075,"DeclareMath":7076,"EM":7077,"heres":7078,"Ġillustrate":7079,"zy":7080,"Ġbriefly":7081,"{}\\":7082,"Ġreceived":7083,"hose":7084,"ĠCR":7085,"}[(":7086,"ged":7087,"Ġ\\&":7088,"Ġguarantees":7089,"ans":7090,"dV":7091,"alt":7092,"ĠChern":7093,"tity":7094,"fined":7095,"250":7096,"ea":7097,"Ġdecoding":7098,"ĊĉĠ":7099,"ierarch":7100,"Ġtowards":7101,"Ġrespon":7102,"Ġarise":7103,"ĠLemmas":7104,"ĠAfter":7105,"shape":7106,"Ġcharacterized":7107,"rically":7108,"Ġincludes":7109,"ware":7110,"000000":7111,"ives":7112,"|>":7113,"Ġtrivially":7114,"TS":7115,"vf":7116,"Ġhappens":7117,"Ġunderstood":7118,"175":7119,"Ġcharacters":7120,"ĠRing":7121,"dfn":7122,"ĠĠĠĠĠĠĠĠĠĠĠĠ":7123,"Ġinvolves":7124,"\\>":7125,"New":7126,"sities":7127,"Ġappend":7128,"400":7129,"bur":7130,"127":7131,"depend":7132,"103":7133,"BV":7134,"Ġcoding":7135,"Ġvs":7136,"null":7137,"Ġsubstitu":7138,"nes":7139,"alks":7140,"DI":7141,"Ġrisk":7142,"Ġ200":7143,"Te":7144,"126":7145,"ĠĠĠĠĠĠĠĠĠĠĠĠĠĠĠĠĠĠĠĠĠĠĠĠĠĠĠĠĠĠĠĠĠĠĠĠĠĠĠĠĠĠĠĠĠĠĠĠĠĠĠĠĠĠĠĠĠĠĠĠĠĠĠĠ":7146,"ners":7147,"parame":7148,"tf":7149,")\\;":7150,"ĠRicci":7151,"Ġhypersurface":7152,"ams":7153,"Ġsubmanifold":7154,"Max":7155,"arpo":7156,"Ġaccura":7157,"jo":7158,"_{*":7159,"partition":7160,"Ġgeneralize":7161,"Ġgenerates":7162,"dynam":7163,"values":7164,"Min":7165,"Ġado":7166,"Ġidemp":7167,"ecke":7168,"KS":7169,"mathit":7170,"Ġhyperplane":7171,"Ġendowed":7172,"uples":7173,"Ġpractice":7174,"bS":7175,"algebraic":7176,"preserving":7177,"simal":7178,"izable":7179,"inger":7180,":$\\":7181,"cov":7182,"Ġfibre":7183,"ML":7184,"Ġconcerning":7185,"}.\\]":7186,"\\}}\\":7187,"net":7188,"</":7189,"195":7190,"mulation":7191,"Ġflows":7192,"ĠScience":7193,"textsf":7194,"ĠNewton":7195,"Ġevaluate":7196,"ĠĊĠĠĠĠ":7197,"follow":7198,"ĠIm":7199,"fib":7200,"Ġpolytope":7201,"tains":7202,"XY":7203,"will":7204,"minimal":7205,"}{$\\":7206,"bG":7207,"BL":7208,"lk":7209,"Ġcommute":7210,"component":7211,"ĠLaplace":7212,"Ġ\\,,":7213,">[":7214,"atop":7215,"Ġ\\<^":7216,"}\\,.":7217,"GH":7218,"Ġnature":7219,"ones":7220,"Ġgain":7221,"275":7222,"Ġexpress":7223,"written":7224,"inj":7225,"144":7226,"ĠCON":7227,"Ġcube":7228,"categories":7229,"\")":7230,"Ġ34":7231,"ults":7232,"composable":7233,"Ġlocalization":7234,"ctive":7235,"ÂİÂĳ":7236,"filldraw":7237,"}$).":7238,"ellip":7239,"Ġdescent":7240,"Ġfraction":7241,"Div":7242,"Ġexponentially":7243,"Ġfixes":7244,"Fa":7245,"Ġsix":7246,"Ġverified":7247,"tified":7248,"2003":7249,"Ġ$*":7250,"Ġmoves":7251,"vb":7252,"Ġtell":7253,"Ġspanned":7254,"Ġdistinguish":7255,"control":7256,"Type":7257,"=-=-=-=-":7258,"Ġconnecting":7259,"Ġpractical":7260,"')$.":7261,"Ġbits":7262,"Ġfeatures":7263,"Ġlonger":7264,"Ġprece":7265,"Ġaddress":7266,"Ġ$}":7267,"Ġdist":7268,"ystems":7269,"}}|":7270,"ctions":7271,"Ċĉĉĉĉĉĉĉ":7272,"Ġcli":7273,"bH":7274,"Ġprog":7275,"tick":7276,"Ġcalculated":7277,"ĠAny":7278,"Gen":7279,":(":7280,"ĊĊĊĊĊĊĊĊĊĊ":7281,"Ġjus":7282,">}[":7283,"atern":7284,"cally":7285,"Rec":7286,"Ġimaginary":7287,"^-(":7288,"Ġstage":7289,"Ġregard":7290,"fst":7291,"=&\\":7292,"lparr":7293,"/\\\"":7294,"rparr":7295,"Ġ31":7296,"Ġtrajectories":7297,"Ġindividual":7298,"sects":7299,"expan":7300,"}~\\":7301,"Department":7302,"ping":7303,"mar":7304,"las":7305,"SD":7306,"Ġsolves":7307,"Ġsq":7308,"$.\\":7309,"each":7310,"TV":7311,"Ġvalued":7312,"Ġnoted":7313,"Ġdim":7314,"kh":7315,"Ġamount":7316,"+(\\":7317,"500":7318,"bool":7319,"Ġtransport":7320,"Ã¿":7321,"ĊĠĠĠĠĠĠĠĠĠĠĠĠĠĠĠĠ":7322,"aleph":7323,"tn":7324,"DeclareMathOperator":7325,"218":7326,"Taking":7327,"smash":7328,"Ġleaf":7329,"lobally":7330,"Ġbipartite":7331,"ĠChe":7332,"Ġann":7333,"Mac":7334,"Rep":7335,"240":7336,"Ġ\\|^":7337,"embed":7338,"While":7339,"strict":7340,"ptr":7341,"keywords":7342,"Ġ36":7343,"viously":7344,"ller":7345,"CN":7346,"cW":7347,"ashed":7348,"Ġconcludes":7349,"Ġrespective":7350,"bigwedge":7351,"za":7352,"Fun":7353,"Ġfluid":7354,"Ġlittle":7355,"'_\\":7356,"En":7357,"Ġsimpler":7358,"Ġtitle":7359,"Ġanten":7360,"imath":7361,"kn":7362,"EL":7363,"gets":7364,"ĠCl":7365,"<-":7366,"Ġreads":7367,"Ġrepresenting":7368,"Ġdiscretization":7369,"Ġothers":7370,"Ġdescribes":7371,"onto":7372,"secu":7373,"Ġmatter":7374,"Ġ^{-":7375,"eval":7376,"Ġcovers":7377,"Ġchains":7378,"multiput":7379,"Ġram":7380,"generic":7381,"Ġtransitive":7382,"ĠSecond":7383,"ĠYoung":7384,"integer":7385,"run":7386,"Ġcombined":7387,"GM":7388,"icro":7389,"ĠAnal":7390,"Ġ37":7391,"Ġhierarch":7392,"(#":7393,"Ġunital":7394,"[->]":7395,"ira":7396,"ĠSchr":7397,")]\\":7398,"Ġdz":7399,"Ġtask":7400,"~~~~~~~~":7401,"Ġfeature":7402,"225":7403,"odromy":7404,"Ġadvantage":7405,"FL":7406,"IMO":7407,"Ġclosely":7408,"Ġamb":7409,"ryst":7410,"arpoon":7411,"Ġpairing":7412,"property":7413,"Ġbif":7414,"tics":7415,"filter":7416,"Ġconvolution":7417,"Ġsemic":7418,"ordered":7419,"come":7420,"Ġimproved":7421,"}^{*}":7422,"Ġacross":7423,"Ġisometric":7424,"Ġempha":7425,"190":7426,"Ġsymmetries":7427,"Ġfit":7428,"ration":7429,"Ġglu":7430,"Ġpub":7431,"Ġlabeled":7432,"ĠTheory":7433,"ÂĲ":7434,"Ġultimately":7435,"}}]":7436,"mathring":7437,"Ġpgf":7438,"Ġslow":7439,"Ġarray":7440,"Ġinfer":7441,"bQ":7442,"Ġcancel":7443,"relations":7444,"Ġneither":7445,"aternion":7446,"nots":7447,"ĠCondition":7448,"Mon":7449,"urc":7450,"ĠODE":7451,"Ġconjugacy":7452,"ĠPoly":7453,"Ġunits":7454,"morphism":7455,"sF":7456,"@#":7457,"romov":7458,"Ġlogarithmic":7459,"bis":7460,"PA":7461,"Ġlevels":7462,"cycles":7463,"ville":7464,"pecially":7465,"Ġsummation":7466,"induct":7467,"})(\\":7468,"vironment":7469,"Ġadded":7470,"RT":7471,"Poly":7472,"ĠApplying":7473,"bh":7474,"ĠSta":7475,"Ġmu":7476,"^-$":7477,"izers":7478,"dimen":7479,"Ġcounting":7480,"Because":7481,"Ġstri":7482,"Ġcontinuously":7483,"Ġgroupoid":7484,"ĠSh":7485,"137":7486,"fc":7487,"rix":7488,"Ġdv":7489,"}[!":7490,"Ġstatistics":7491,":\\,":7492,"134":7493,"tm":7494,"expon":7495,"Ġactive":7496,"Ġconnec":7497,"ĠAr":7498,"Ġalpha":7499,"Ġincluded":7500,"Ġdelay":7501,"\\/\"":7502,"Ġ.-":7503,"htt":7504,"Ġnat":7505,"bilities":7506,"raise":7507,"=\\{\\":7508,"Ġreceiver":7509,"Ġtriangular":7510,"Ġarises":7511,"Consequently":7512,"Ġissue":7513,"gi":7514,"ĠNumber":7515,"Ġinductive":7516,"Ġultra":7517,"}\\}":7518,"tempdi":7519,"jj":7520,"tocol":7521,"Ġdivisible":7522,"Ġfeedback":7523,"intersection":7524,"Ġcaus":7525,"Ġlattices":7526,"Ġchall":7527,"Ġdynamic":7528,"113":7529,"Ġreconstruction":7530,"vy":7531,"Ġconvexity":7532,"disc":7533,"Ġfails":7534,"1000":7535,"109":7536,"uss":7537,"&+\\":7538,"sions":7539,"double":7540,"Ġmemory":7541,"Ġadapted":7542,"Ġarrows":7543,"Ġrough":7544,"Ġindicates":7545,"Ġformally":7546,"longmapsto":7547,"|)":7548,"Ġrepeated":7549,"GD":7550,"tangent":7551,"Ġcomments":7552,"Ġoveq":7553,"170":7554,"ily":7555,"875":7556,"Bar":7557,"ĠResearch":7558,"Ġlogic":7559,"ALL":7560,"Ġbeginning":7561,"ĠJacobi":7562,"sterior":7563,"ayes":7564,"iint":7565,"Ġunstable":7566,"Lag":7567,"selves":7568,")\\|^":7569,"FINSEQ":7570,"Ġ&$":7571,"Ġexisting":7572,"Ġadantr":7573,"mt":7574,"Ġstreng":7575,"Ġvaluation":7576,"edges":7577,"FA":7578,"Ġalgebraically":7579,"Ġpage":7580,"$},":7581,"Ġseem":7582,"):\\":7583,"']":7584,"divis":7585,"day":7586,"Ġopacity":7587,"ĠFINSEQ":7588,"pgfq":7589,");\\":7590,"Sequence":7591,"Au":7592,"aris":7593,"($":7594,"properties":7595,"Ġkernels":7596,"Ġ33":7597,"Ġreally":7598,"ĠVer":7599,"Ġinterpreted":7600,"Multi":7601,"ĠWhile":7602,"ku":7603,"Ġpressure":7604,"crimin":7605,"ĠNamely":7606,"gine":7607,"General":7608,"ĠCol":7609,"))^{":7610,"Ġfive":7611,"Ġloops":7612,"multirow":7613,"Ġeventually":7614,"EA":7615,"insi":7616,"\\})":7617,"coding":7618,"timate":7619,"Ġdiame":7620,"ao":7621,"Ġsolid":7622,"Ġletting":7623,"erature":7624,"start":7625,"\\;\\":7626,"Ġphysics":7627,"Ġ}_{":7628,"ĠPr":7629,"]{$\\":7630,"vphi":7631,"Further":7632,"235":7633,"Ġ.+":7634,"Ġsemisimple":7635,"-\\!":7636,"Ġplus":7637,"PC":7638,"calc":7639,"Ġmeasurements":7640,"Ho":7641,"Ġcomposite":7642,"RC":7643,"Ġboundaries":7644,"Ġthin":7645,"--------------------------------":7646,"cod":7647,"Ġscattering":7648,"ĠGreen":7649,"sb":7650,"'''":7651,"Ġ[_":7652,"ashi":7653,"Ġintersects":7654,"Ġunderstanding":7655,"Ġpurely":7656,"#\\":7657,"`,":7658,"Ġimplementation":7659,"Ġnoting":7660,"Ġque":7661,"kj":7662,"Ġregression":7663,"||_{":7664,"ĠDis":7665,"Ġdivide":7666,"$[":7667,"Ġobviously":7668,"Ġ\\|_{\\":7669,"Ġrequirement":7670,")\\,.":7671,"Chapter":7672,"construction":7673,"''\\":7674,"ĠGauss":7675,"nodes":7676,"Ġstands":7677,"!}\\":7678,"},{\\":7679,"âĪ":7680,"vep":7681,"^*)$":7682,"Ġ]_":7683,"distance":7684,"MT":7685,"Ġconc":7686,"Ġtopolog":7687,"Ġdashed":7688,"147":7689,"valid":7690,"Ġcompactness":7691,"sky":7692,"variables":7693,"Ġflux":7694,"Ġdele":7695,"RN":7696,"Ġquiver":7697,"corre":7698,"Ref":7699,"Cont":7700,"Ġnormalization":7701,"Mor":7702,"Ġdemonstrate":7703,"amb":7704,"CI":7705,"2002":7706,"hanks":7707,"Ġsummand":7708,"abelian":7709,"hl":7710,"obj":7711,"avi":7712,"Ġpric":7713,"FP":7714,"family":7715,"Ġrepresentative":7716,"wf":7717,"ws":7718,"}^{-\\":7719,"155":7720,"bend":7721,"Ġpopulation":7722,"ada":7723,"Ġbody":7724,"secutive":7725,"Ġexternal":7726,"encies":7727,"pat":7728,"165":7729,"short":7730,"lihood":7731,",\\]":7732,"Ġdisc":7733,"ĠÎ»":7734,"GA":7735,"Ġdegener":7736,"forming":7737,"Ġcharacterize":7738,"Ġ>=":7739,"stability":7740,"monoid":7741,")]$":7742,"Ġlengths":7743,"*{-":7744,"surfaces":7745,"Before":7746,"conjecture":7747,"cast":7748,"256":7749,"cessing":7750,"analytic":7751,"onically":7752,"Ġexp":7753,"ditional":7754,"\\{(":7755,"article":7756,"frame":7757,"decomposition":7758,"TF":7759,"Ġextremal":7760,"ĠSubsection":7761,"conju":7762,"defeq":7763,"inty":7764,"rie":7765,"south":7766,"Ġ\\;\\;":7767,"=\\,":7768,"}=-":7769,"bT":7770,"reedom":7771,"rtin":7772,"rotate":7773,"scop":7774,"grid":7775,"ĠFalse":7776,"ĠMax":7777,"Ġindexed":7778,"Ġrigor":7779,"Ġsupre":7780,"Ġrestrictions":7781,"Ġidentically":7782,"ander":7783,"]&":7784,"hit":7785,"After":7786,"Ġsetup":7787,"bB":7788,"Ġrever":7789,"Ġsco":7790,"Ġconjugation":7791,"chron":7792,"Ġcharge":7793,"<=":7794,"rov":7795,"ddot":7796,"}))$":7797,"lll":7798,"\\(":7799,"Ġformer":7800,"dir":7801,"ĠPoint":7802,"ui":7803,"andi":7804,"ĠJacobian":7805,"Ġpotentials":7806,"Ġtherein":7807,"DC":7808,"inuous":7809,"Ġindicate":7810,"density":7811,"ato":7812,"Lipschitz":7813,"}_{+":7814,"Ġarrive":7815,"Ġwish":7816,"ariski":7817,"Lip":7818,"Vol":7819,"''.":7820,"Ġsignals":7821,"Ġselect":7822,"Ġsimultaneously":7823,"Any":7824,"Inter":7825,"holomorphic":7826,"OW":7827,"ĠLine":7828,"Ġembeddings":7829,"ĠOtherwise":7830,"}|^{":7831,"Ġincident":7832,"Ġfoliation":7833,"ĠCartan":7834,"'}{":7835,"Ġfore":7836,"ĠPart":7837,"FG":7838,"Ġassociative":7839,"COMP":7840,"ĠJordan":7841,"otients":7842,"Ġaxioms":7843,"Ġimpossible":7844,"TOP":7845,"decreasing":7846,"Ġposet":7847,"Ġseparated":7848,"005":7849,"lastic":7850,"Ġefficiency":7851,"(\\|":7852,"Ġworking":7853,"fy":7854,"Ġpt":7855,"single":7856,"affine":7857,"$_":7858,"Ġmeasurement":7859,"Ġdepic":7860,"Ġasymptotics":7861,"lator":7862,"bran":7863,"157":7864,"tru":7865,"Ġcoarse":7866,"Ġarrange":7867,"org":7868,"136":7869,"Ġpolar":7870,"ernou":7871,"ĊĠĠĠĠĠĠĠĠĠĠĠĠĠĠĠĠĠĠĠĠĠĠĠ":7872,"alignat":7873,"Ġaf":7874,"Ġtools":7875,"roth":7876,"nx":7877,"db":7878,"eto":7879,"variety":7880,"Large":7881,"theoretic":7882,"{}{":7883,"ISCH":7884,"138":7885,"Reg":7886,"119":7887,"}|_{":7888,"jectivity":7889,"Ġhandle":7890,"NE":7891,"Ġmagn":7892,">_":7893,"pgfqpoint":7894,"nr":7895,"Ġglobally":7896,"148":7897,"sided":7898,"Ġ\\;\\":7899,"tang":7900,"mx":7901,"Ġproject":7902,")}-\\":7903,"}))\\":7904,"ange":7905,"MAT":7906,"Ġregularization":7907,"Ġfunctionals":7908,"Ġstudying":7909,"''_":7910,"Ġsignificantly":7911,"ĠĊĊĊĊ":7912,"imed":7913,"oolean":7914,"idden":7915,"Ġlooking":7916,"-(\\":7917,"185":7918,"ĠTake":7919,"ĠĠĠĠĠĠĠĠĠĠĠĠĠ":7920,"Ġlifting":7921,")|^{":7922,"Ġdest":7923,"Equation":7924,"bottom":7925,"ris":7926,":[":7927,"'}(\\":7928,"Appendix":7929,"Ġradial":7930,"Ġworth":7931,"mentary":7932,"projective":7933,"terex":7934,"lates":7935,"Ġ.$$":7936,"uge":7937,"artz":7938,".\\,":7939,"Ġindependence":7940,"hr":7941,"ĠAlgebra":7942,"Âł":7943,"Ġchar":7944,"ae":7945,"BO":7946,"ali":7947,"Ġfalse":7948,"ijk":7949,"gebro":7950,"Sc":7951,"essian":7952,"Ġ45":7953,"ctors":7954,"Ġsometimes":7955,"Ġendpoints":7956,"THM":7957,"ernoulli":7958,"234":7959,"ath":7960,"terns":7961,"GP":7962,"param":7963,"Ġequivalences":7964,");;":7965,"Ġruns":7966,"Ġstudies":7967,"ank":7968,"lating":7969,"_{>":7970,"Ġcompac":7971,"bmod":7972,"init":7973,"dw":7974,"298":7975,"Go":7976,"Ġsent":7977,"Ġminimizer":7978,"tainty":7979,"'}}":7980,"Ġindecomposable":7981,"reful":7982,"Ġinfinitesimal":7983,"ĠFn":7984,"Ġbeam":7985,"Ġweaker":7986,"Ġ($(":7987,"Ġselected":7988,"Ġgeodesics":7989,"atan":7990,"Sta":7991,"Ġ\\}$,":7992,"ĠFu":7993,"Ġdiscussions":7994,"Ġsket":7995,"erent":7996,"ĠAgain":7997,"Another":7998,"Ġmodification":7999,"'|":8000,")$]":8001,"Ġwriting":8002,"ĠMathema":8003,"RU":8004,"Ġconcern":8005,"Riemann":8006,"gd":8007,"conf":8008,"Ġrelies":8009,"satisfies":8010,"Ġpoles":8011,"Ġsizes":8012,"semble":8013,"eb":8014,"corner":8015,"Ġassociate":8016,"TA":8017,"^*_{\\":8018,"},\\,":8019,"2001":8020,"Ġespecially":8021,"ĉĉĉ":8022,"Ġcircles":8023,"ppings":8024,"ĠIts":8025,"asymptotic":8026,"whose":8027,"Ġgrant":8028,"classical":8029,"tier":8030,"168":8031,"gap":8032,"Ġhull":8033,"Ġgrading":8034,"aring":8035,"Ġevaluated":8036,"print":8037,"same":8038,"vanishing":8039,"isomorphic":8040,"Ġtypically":8041,"Ġmicro":8042,"derivative":8043,"locally":8044,"Ġ\\{(":8045,"Sol":8046,"orb":8047,"follows":8048,"Ġquantization":8049,"Trans":8050,"cher":8051,"SKI":8052,")*(":8053,"Ġsolvable":8054,"}=(\\":8055,"Ġmoving":8056,"PD":8057,"bF":8058,"sumptions":8059,"total":8060,"unately":8061,">'":8062,"Ġversions":8063,"Ġcompleteness":8064,"220":8065,"ntz":8066,"Ġparticularly":8067,"*}{":8068,"Ġvon":8069,"tances":8070,"Ġpenal":8071,"Ph":8072,"Sa":8073,"Ġnumerically":8074,".~(\\":8075,"macro":8076,"acy":8077,"ĠCompu":8078,"central":8079,"ITH":8080,"!(":8081,"Ġsimplex":8082,"999":8083,"Ġorb":8084,"Ġarising":8085,"sss":8086,"spin":8087,"WW":8088,"Ġsomething":8089,"terexample":8090,"Take":8091,").}":8092,"Ġdifferences":8093,"Ġmagnetic":8094,"fit":8095,"}+(":8096,"Second":8097,"\\}^":8098,"zer":8099,"ardy":8100,"Ġapproximated":8101,"rbrakk":8102,"143":8103,"Ġdemand":8104,"ĠLegend":8105,";\\;\\;\\;\\":8106,"}\\}$.":8107,"AV":8108,"Ġfourth":8109,"abi":8110,"ĠÎ²":8111,"Ġpreceding":8112,"Ġrescal":8113,"Ġexterior":8114,"lbrakk":8115,"ARSKI":8116,"Ġwaves":8117,"ĠEvery":8118,"fix":8119,"Ġ(`":8120,"Ġdiameter":8121,"Ġdistinguished":8122,"Grp":8123,"Ġfreedom":8124,"Ġlabels":8125,"Ġtriangulation":8126,"linecolor":8127,"Spin":8128,"GF":8129,"Ġformed":8130,"inkowski":8131,"sd":8132,"maps":8133,"}\\|^":8134,")}^{\\":8135,"Ġintermediate":8136,"-.-.":8137,"oro":8138,"Ġmartingale":8139,"'})":8140,"ĠLyapunov":8141,"+{\\":8142,"255":8143,"Ġcoupled":8144,"Ġoptimality":8145,"}^*\\":8146,"Ġsuggests":8147,"plain":8148,"ih":8149,"Ġcontinue":8150,"Ġillustrated":8151,"Ġdate":8152,"122":8153,"Ġ&&\\":8154,"Ġmessage":8155,"torsion":8156,"Ġplays":8157,"Ġformulated":8158,",...":8159,"Ġprov":8160,"coded":8161,"Ġinvestigated":8162,"moment":8163,"irror":8164,"133":8165,"Ġwhite":8166,"Ġpreserve":8167,"132":8168,"129":8169,"Sm":8170,"Ġboundedness":8171,"Ġ=&":8172,"Ġpages":8173,"gel":8174,"1999":8175,"Ġpossibility":8176,"phase":8177,"TMP":8178,"reduced":8179,"MF":8180,"Ġeffects":8181,"Ġgreen":8182,"SR":8183,"Ġproperly":8184,"Ġcoming":8185,"Ġcm":8186,"symbol":8187,"ĠSTR":8188,"$|":8189,"167":8190,"Ġcovariant":8191,"pseudo":8192,"ĠKo":8193,"\".":8194,"Ġconstructing":8195,"Ġfi":8196,"aver":8197,"}'(":8198,"Ġvirtual":8199,"symm":8200,"Ġcompactly":8201,"gree":8202,"PI":8203,"Ġ\\}.":8204,"146":8205,"prote":8206,"Ġfra":8207,"enable":8208,"ĠSt":8209,"Ġreverse":8210,"Ġrad":8211,"iu":8212,"ssess":8213,"))-":8214,"generated":8215,"Ġ({":8216,"bine":8217,"ĠĠĠĊ":8218,"Ġhomomorphisms":8219,"ENT":8220,"external":8221,"Ġseparately":8222,"OC":8223,"Ġcontributions":8224,"Ġdou":8225,"$.)":8226,"pol":8227,"uit":8228,"ered":8229,"ĠHy":8230,"ĠSchur":8231,"Ġsegments":8232,"Ġcarry":8233,"Ġremove":8234,"Ġmodes":8235,"ros":8236,"Cc":8237,"oids":8238,"Ġsure":8239,"cQ":8240,"pow":8241,"imodule":8242,"nl":8243,"Ġcareful":8244,"canonical":8245,"ieck":8246,"Ġtreated":8247,"Ġdevoted":8248,"Ġterminal":8249,"boldmath":8250,"orthogonal":8251,"sr":8252,"variate":8253,"ðĿ":8254,"rick":8255,"Ġorganized":8256,"}=-\\":8257,"Ġ...,":8258,"rance":8259,"restriction":8260,"noise":8261,"supseteq":8262,"Ġdenomin":8263,"hm":8264,"Ġrecurrence":8265,"iar":8266,"Ġbifurc":8267,"projection":8268,"rink":8269,"Following":8270,"was":8271,"Ġterminology":8272,"entry":8273,"Ġsupremum":8274,"Ġtransforms":8275,"189":8276,"Ber":8277,"ĠLore":8278,"Ġslope":8279,"haps":8280,"Ġexponents":8281,"ĠSUB":8282,"body":8283,"Ġproduces":8284,"Ġlaws":8285,"215":8286,"Ġ38":8287,"177":8288,"Ġtwice":8289,"Ġtherm":8290,"=|":8291,"nf":8292,"Ġremarks":8293,"Ġcoherence":8294,"these":8295,"ymmetric":8296,"}}}$":8297,"dable":8298,"posing":8299,"lc":8300,"Ġalternating":8301,"Ko":8302,"Ġresidual":8303,"Tor":8304,"figures":8305,"Ġdominant":8306,"both":8307,"ARD":8308,"bez":8309,"}}^\\":8310,"Ġmonodromy":8311,"315":8312,"coming":8313,"Ġ47":8314,"Ġdiscrimin":8315,"CV":8316,"antor":8317,"Ġlocation":8318,"Ġconsecutive":8319,"ĠChoose":8320,"205":8321,"$$(":8322,"Ġmonotonicity":8323,"_\\<":8324,"Ġtransverse":8325,"399":8326,"prox":8327,"Ġ./\\":8328,"Ġpositions":8329,"Ġ}^{":8330,"Ġrepro":8331,"emp":8332,"'/":8333,"dB":8334,"kets":8335,"scriptscri":8336,"Ġnothing":8337,"\\:":8338,"Ġvariant":8339,"EP":8340,"division":8341,"DA":8342,"yond":8343,"lexive":8344,")~":8345,"integrable":8346,"}\\|_":8347,"XBOOLE":8348,"reals":8349,"trinsi":8350,")}|":8351,"fb":8352,"Ġdominated":8353,")\\]":8354,"flu":8355,"tv":8356,"Ax":8357,"XREAL":8358,"Sing":8359,"Ġsignature":8360,"}\\,,":8361,"Ġaccurate":8362,"Ġyears":8363,"nk":8364,"Ġattemp":8365,"Ġaverag":8366,"Ġconcrete":8367,"Ġhelpful":8368,"Ġexpansions":8369,"Ġminimizing":8370,"turbed":8371,"sample":8372,"dients":8373,"sov":8374,"Ġwall":8375,"ĠJo":8376,"Ġisotropic":8377,"}_{{\\":8378,"ĠIII":8379,"ĠĠĠĠĠĠĠĠĠĠĠĠĠĠ":8380,"Group":8381,"efined":8382,"/--":8383,"symmetry":8384,"Ġchecked":8385,"Ġitem":8386,"Ġconservation":8387,"Throughout":8388,"Ġthought":8389,"alp":8390,"increasing":8391,"Ġrealized":8392,"ĠXBOOLE":8393,"Conclusion":8394,"cosity":8395,"Ass":8396,"Ġaccess":8397,"hp":8398,"Ġminimization":8399,"Ġknots":8400,"Ġextending":8401,"km":8402,"Ġrep":8403,"vin":8404,"coprod":8405,"});":8406,"kt":8407,"depth":8408,"ctu":8409,"^-_":8410,"Ġmiddle":8411,"Ġactual":8412,"Lm":8413,"Ġmonomials":8414,"Gra":8415,",#":8416,"equent":8417,",{":8418,"topology":8419,"scalebox":8420,"stance":8421,"ĠĠĊĊ":8422,"|{\\":8423,"}&=":8424,"mv":8425,"ounts":8426,"ĠTrue":8427,"Ġparity":8428,"Ġinterface":8429,"Ġcorners":8430,"lein":8431,"induction":8432,"liminary":8433,"Ġ&:=":8434,"KM":8435,"ĠDiff":8436,"Ġdensities":8437,"@{-}[":8438,"Ġsqrt":8439,"pgfpath":8440,"Each":8441,"Ġspectra":8442,"Ġown":8443,"178":8444,"ja":8445,"continuity":8446,"ĠâĪĪ":8447,"coherent":8448,"noexpand":8449,"ÂįÂį":8450,"fd":8451,"snd":8452,"many":8453,"dotted":8454,"1998":8455,"Ġmathematics":8456,"rothend":8457,"sseq":8458,"ND":8459,"Ġ-/":8460,"Ġconce":8461,"Ġdiffer":8462,"parsity":8463,"ledgements":8464,"Ġreadily":8465,"ery":8466,"Ring":8467,"read":8468,"Ġmappings":8469,"Ġproportional":8470,"'},":8471,"Ġappendix":8472,"cube":8473,"ĠPrime":8474,"Ġneural":8475,"uff":8476,"iated":8477,")\\}_{":8478,"Ġleave":8479,"consider":8480,"Ġwire":8481,"ĠZariski":8482,"Ġ//":8483,"Ġminor":8484,"$-$":8485,"SV":8486,"possi":8487,"008":8488,"nice":8489,"bbs":8490,"rothendieck":8491,"Ġeigenvectors":8492,"Ġchanging":8493,"245":8494,"Ġ\\},$\\\\":8495,"object":8496,"Lin":8497,"&&$\\{":8498,"IL":8499,"journal":8500,"inequality":8501,"Ġlimited":8502,"haus":8503,"Ġsake":8504,"Yau":8505,"bfx":8506,"Ġclaimed":8507,"brid":8508,"btheta":8509,"230":8510,"ĠInstitute":8511,"ogon":8512,"outer":8513,"Ġwest":8514,"cot":8515,"evertheless":8516,"wd":8517,"}^*$":8518,"nihi":8519,"longleftrightarrow":8520,"decomp":8521,"Ġposterior":8522,")$).":8523,"176":8524,"lision":8525,"197":8526,"orphism":8527,"Ġtemperature":8528,"Ġĉ":8529,"Ġsin":8530,"ĠTHENL":8531,"Ġdeviation":8532,"echn":8533,"-{\\":8534,"Ġquaternion":8535,"Ġinstances":8536,"sC":8537,"ital":8538,"Ġpreserved":8539,"gradient":8540,"Ġstrategies":8541,"Ġexec":8542,"ĠCH":8543,"Ġintroducing":8544,"Ġinflu":8545,"Ġformulate":8546,"ĠEX":8547,"Ġeigenfunctions":8548,"{\\|":8549,"Ġprescri":8550,"Ġzeta":8551,"RP":8552,"Ġpolari":8553,"alth":8554,"Ġprogra":8555,"Ġperspec":8556,"ĊĊĊĊĊĊĊĊĊĊĊ":8557,"}}&\\":8558,"ĠCor":8559,"Ġregarding":8560,"igu":8561,"Ġprimary":8562,"Ba":8563,"calO":8564,"198":8565,"}]$.":8566,"Ġeqid":8567,"/(\\":8568,"Ġbuild":8569,"121":8570,"Table":8571,"Ġcandi":8572,"Ġapplic":8573,"tific":8574,"placement":8575,"ĠÃ":8576,"ĠProper":8577,"ibrations":8578,")\\|_{\\":8579,"Ġangles":8580,"Can":8581,"bord":8582,")};":8583,"Ġagree":8584,"ÂİÂ":8585,"pgfarrow":8586,"Ġendomorphism":8587,"recall":8588,"196":8589,"260":8590,"ĠModel":8591,")}}{\\":8592,"Ġ90":8593,"Ġ\\\\\\":8594,"Ġiterative":8595,"mass":8596,"dense":8597,"Part":8598,"win":8599,"Ġ[->":8600,"Ġbraid":8601,")|$":8602,"004":8603,"Ġdr":8604,"Anal":8605,"RD":8606,"tel":8607,"Ġep":8608,"Ġstress":8609,"\\/}":8610,"Ġeasier":8611,"Ġ48":8612,"Ġmixing":8613,"ung":8614,"ĠRec":8615,"NP":8616,"Ġcombinations":8617,"Ġpole":8618,"ĠTaking":8619,"Ġtensors":8620,"Ġnet":8621,"prising":8622,"Ġpossess":8623,"Ġvarying":8624,"SW":8625,"Local":8626,"139":8627,"Ġve":8628,"Ġmachine":8629,"\";\"":8630,"]},":8631,"Ġmedi":8632,"Proj":8633,"uristic":8634,"Ġpun":8635,"Ġready":8636,"ĠSum":8637,"certainty":8638,"Ġpatterns":8639,"ĠFr":8640,"174":8641,"))\\\\":8642,"Ġsteady":8643,"Ġstopping":8644,"ĠSuc":8645,"Ġconsistency":8646,"algorithmic":8647,"Ġoverall":8648,"]^\\":8649,"Ġapproximately":8650,"tational":8651,"kel":8652,"187":8653,"Ġdetection":8654,"707":8655,"Ġ42":8656,"pref":8657,"|<\\":8658,"Ġcomputer":8659,"Ġagainst":8660,"PU":8661,"Ġrewritten":8662,"ĊĉĊĉĊ":8663,"ĠDISCH":8664,"ĠWithout":8665,"ouville":8666,"Ġnone":8667,"Ġagent":8668,"Seg":8669,"},...,":8670,"345":8671,"Ġevents":8672,"satisfying":8673,"identity":8674,"|=\\":8675,"Ġsatura":8676,"ĠPer":8677,"px":8678,"iteness":8679,"216":8680,"ĠSpecifically":8681,"Ġregarded":8682,"additive":8683,")\\}":8684,"acos":8685,"margin":8686,"matrices":8687,"conditions":8688,"ssmann":8689,"|_\\":8690,"wave":8691,"}^{+\\":8692,"loss":8693,"158":8694,"})\\,":8695,"={(":8696,"Ġsequel":8697,"Edge":8698,"illing":8699,"Ġexten":8700,"Ġprotocol":8701,"Ġforcing":8702,"280":8703,")\\,,":8704,"188":8705,"Ġ++(":8706,"Ġisomet":8707,"Function":8708,"Ġtend":8709,"|^\\":8710,"pothesis":8711,"dates":8712,"Again":8713,"})^\\":8714,"ĠCan":8715,"Ġhomeomorphic":8716,"Ġhist":8717,"Ġ80":8718,"adap":8719,"Ġargue":8720,"156":8721,"Ġcontent":8722,"Ġcovered":8723,"210":8724,"Ġmatro":8725,"}{{":8726,"decorate":8727,"Ġ39":8728,")\\|_":8729,"ĠAlthough":8730,"}=\"":8731,"Ġample":8732,"sA":8733,"dR":8734,"Ġspeaking":8735,"Ġconsequently":8736,"Ġhappen":8737,"dig":8738,"ient":8739,"}}^{-":8740,"Ġrecursive":8741,"IF":8742,"Ġestimators":8743,"ellow":8744,"used":8745,"Ġenumer":8746,"SH":8747,"Ġsituations":8748,"ĠĠĠĠĠĠĠĠĠĠĠĠĠĠĠ":8749,"Ġsubf":8750,"_+^":8751,"ĊĊĠĠ":8752,"Ġalign":8753,"proclaim":8754,"ÃĮ":8755,"ĠINT":8756,"ĠSNR":8757,"9375":8758,"}'\\":8759,"closure":8760,"associated":8761,"Ġkine":8762,"Ġcongruence":8763,"Ġdoesn":8764,"ifications":8765,"Ġcontrolled":8766,"xp":8767,"ĠEinstein":8768,"Ġcarried":8769,"quotient":8770,"Ġmind":8771,"sful":8772,"947":8773,"gam":8774,"]^-{\\":8775,"Ġbic":8776,"Ġ46":8777,"bN":8778,"BH":8779,"xc":8780,"Ġtreatment":8781,"clip":8782,"ĠOf":8783,"Ġchild":8784,"Ġexchange":8785,"vo":8786,"bM":8787,"ĠStein":8788,"Ġrefor":8789,"Ġspacetime":8790,"ĊĠĉ":8791,"Ġcones":8792,"Ġflag":8793,"'')":8794,"*)":8795,"GE":8796,"Ġletters":8797,"\\}.$$":8798,"Ġdisplay":8799,"Ġdecreases":8800,"'\\<":8801,"ropical":8802,"Ġadaptive":8803,"Ġpurposes":8804,"Ve":8805,"))(":8806,"desc":8807,"mond":8808,"Ġinten":8809,"ues":8810,"Ġcocycle":8811,"sE":8812,"Ġsimplified":8813,"Ġdescribing":8814,"bstituting":8815,"Rd":8816,"154":8817,"}\\!\\":8818,"Ġreve":8819,"Ġrandomly":8820,"Ġbeyond":8821,"generalized":8822,"Ġhope":8823,"sit":8824,"Ġrecovery":8825,"Ġbroad":8826,"monot":8827,"750":8828,"Ġsmoothness":8829,"Ġmultiplier":8830,"238":8831,"Ġspheres":8832,"LV":8833,"}\\|_{\\":8834,"scopic":8835,"\\|^{":8836,"ĠâĢ":8837,"hdots":8838,"recur":8839,"teo":8840,"cY":8841,"Every":8842,"Ġrefinement":8843,"Ġspecifically":8844,"Ġtells":8845,"rian":8846,"Ġ43":8847,"mix":8848,"distribution":8849,"ĠChapter":8850,"coeffici":8851,"kp":8852,"ĊĊĊĊĊĊĊĊĊĊĊĊ":8853,"Ġperturbations":8854,"ASSUM":8855,"=\"":8856,"Ġcorner":8857,"user":8858,"Ġdg":8859,"Ġbool":8860,"columnwidth":8861,"Ġautomatically":8862,"scriptscripts":8863,"inct":8864,"ÂįÂŁā":8865,"Ġimmersion":8866,"Ġ@{":8867,"version":8868,"Ġfollowed":8869,"Ġachievable":8870,"++":8871,"admissible":8872,"Ġfr":8873,"ny":8874,"scriptscriptstyle":8875,"mesh":8876,"^+_{":8877,"induced":8878,"Ġreasonable":8879,"Ġtesting":8880,"bD":8881,"Ġintegrating":8882,"ights":8883,"Ġprofile":8884,"ales":8885,"active":8886,"Ġ[.":8887,"ĠHecke":8888,"ĠSec":8889,"CK":8890,"207":8891,"****************":8892,"Ġsubstitution":8893,"Ġsettings":8894,"veps":8895,"Ġpropagation":8896,"Ġtru":8897,"neighbor":8898,"odinger":8899,"LAT":8900,"Span":8901,"Err":8902,"isotropic":8903,"Ġoption":8904,"*>":8905,"Ġdf":8906,"origin":8907,"ĊĉĉĉĊĉĉ":8908,"Bi":8909,"Ġphenomenon":8910,"224":8911,"Ġinser":8912,"terms":8913,"Ġconstrained":8914,"law":8915,"eces":8916,"ramified":8917,"Ġspecify":8918,"Ġelim":8919,"Ġbalanced":8920,"Ġvor":8921,"jump":8922,"Ġsplits":8923,"disjoint":8924,"`;":8925,"kr":8926,"'))":8927,"nov":8928,"yshift":8929,"stop":8930,"Gaussian":8931,"Put":8932,"yb":8933,"^{{\\":8934,"ĠGroup":8935,"Ġforget":8936,"}.)":8937,":=\\{":8938,"planes":8939,"Ġobstruction":8940,"159":8941,",\"":8942,"Ġdifficulty":8943,"raisebox":8944,"tempdima":8945,"Algebra":8946,"spectral":8947,"Ġsaddle":8948,"208":8949,"Ġspanning":8950,"bbeta":8951,"ĠFo":8952,"changed":8953,"romatic":8954,"member":8955,"gineering":8956,"Ġlifts":8957,"Ca":8958,"lots":8959,"osz":8960,"_{[\\":8961,"Ġdissi":8962,"Ġreasons":8963,"uniformly":8964,"Ġ)}":8965,"^+}":8966,"Ġforces":8967,"minimum":8968,"fast":8969,"Ġmodulus":8970,"Ġcontour":8971,"stab":8972,"288":8973,"Met":8974,"Ġrepeat":8975,"differenti":8976,"194":8977,"question":8978,"Ġ64":8979,"vice":8980,"Ġintersections":8981,"Conversely":8982,"ISTS":8983,"partic":8984,"Ġcohom":8985,"ditionally":8986,"166":8987,"maximal":8988,"Ġagents":8989,"_-$":8990,"Ġdivided":8991,"ark":8992,"Although":8993,"nh":8994,"ĠTwo":8995,"ĠĊĉĊ":8996,"injective":8997,"Tri":8998,"368":8999,"cof":9000,"Fr":9001,"xshift":9002,"}[{\\":9003,"Ġinterpret":9004,"')$,":9005,"ĠHow":9006,"])\\":9007,"Supp":9008,"ney":9009,"+\\!":9010,"Ġ41":9011,"reduction":9012,"Ġgeneration":9013,"probability":9014,"iton":9015,"coord":9016,"coro":9017,"weighted":9018,"CONV":9019,"Ġ).":9020,"Ġ\"?":9021,"Ċĉĉĉĉĉĉ":9022,"Ġenvironment":9023,"Jaco":9024,"ĠMorse":9025,"bL":9026,"Ġbijective":9027,"Ġuncertainty":9028,"Ġbelieve":9029,"Ġparagraph":9030,"-}":9031,"Ġingre":9032,"&(":9033,"Ġcompres":9034,"volume":9035,"184":9036,"subfloat":9037,"667":9038,"330":9039,"Ġ\\__":9040,"ĠExt":9041,"Lu":9042,"strut":9043,"Ġmodify":9044,"Ġimplication":9045,"support":9046,"Ġtuple":9047,"Poisson":9048,"164":9049,"Ġrea":9050,"iti":9051,"rand":9052,"006":9053,"Ġhighly":9054,"237":9055,"entropy":9056,"ultra":9057,"265":9058,"Ġer":9059,"NC":9060,"[$":9061,"Ġstruct":9062,"pired":9063,"uli":9064,"203":9065,",(\\":9066,"Ġquotients":9067,"Ġremoved":9068,"Dom":9069,"swap":9070,"Ġ70":9071,"Ġdivision":9072,"Ġconj":9073,"ĠCox":9074,"ulate":9075,"Ġsomewhat":9076,"ĊĠĠĠĠĠĠĠĠĠĠĠĠĠĠĠĠĠĠĠĠĠ":9077,"([\\":9078,"Ġbuilding":9079,"ifnum":9080,"coeff":9081,"Ġsources":9082,"IB":9083,"take":9084,"Ġscales":9085,"minim":9086,"ĠWord":9087,"Ġtests":9088,"pid":9089,"Ġsimplest":9090,"Ġidempotent":9091,"Ġobtaining":9092,"FR":9093,"ĠRad":9094,"spa":9095,"assoc":9096,"tech":9097,"Ġdrop":9098,"Ġprojec":9099,"XXREAL":9100,"149":9101,"$~":9102,"Ġbounding":9103,"Ġâī¤":9104,"cZ":9105,"Ġconfir":9106,"Ġseparate":9107,"^{*}\\":9108,"Ġexhibit":9109,"Ġmagnitude":9110,"Ġdeformations":9111,"formally":9112,"sO":9113,"cJ":9114,"^+(\\":9115,"Ġformulae":9116,"without":9117,"\\}\\\\":9118,"lind":9119,"possibly":9120,"TL":9121,"^+,":9122,"Ġschedu":9123,"Model":9124,"1996":9125,"entially":9126,"')=":9127,"Ġequalities":9128,"Ġbreak":9129,"Ġinversion":9130,"Ġdrawn":9131,"ared":9132,"Ġ\"'":9133,"torus":9134,"algo":9135,"=\\!":9136,"rystal":9137,"Ġfusion":9138,"Ġ\\}_{":9139,"pare":9140,"Open":9141,"trinsic":9142,"normalized":9143,"rackets":9144,"Â±":9145,"Ġstarts":9146,"fortunately":9147,"ils":9148,"iss":9149,"zes":9150,"PH":9151,"Ġconsideration":9152,"caten":9153,"Ġinduce":9154,"vertices":9155,"ita":9156,"heaf":9157,"|\\\\":9158,"ming":9159,"ĠCO":9160,"ĠFollowing":9161,"MUL":9162,"ĠDepartment":9163,"bmu":9164,"denote":9165,"Ġpers":9166,"Ġ)^":9167,"Ġpubl":9168,"later":9169,"iral":9170,"ĠSte":9171,"elements":9172,"Ġcounterexample":9173,"fk":9174,"update":9175,"Ġdecompose":9176,"ĠNone":9177,"Ġamplitude":9178,"varkappa":9179,"Sha":9180,"taining":9181,"Ġlying":9182,"subgroup":9183,"hler":9184,"ĠLevi":9185,"Ġ[:":9186,"countable":9187,"thus":9188,"Ġmeasured":9189,"450":9190,"186":9191,"zen":9192,"+\\|":9193,"ĠYang":9194,"rectangle":9195,"Ġconcentration":9196,"quantum":9197,"Coh":9198,"236":9199,"Ġthings":9200,"Ġattrac":9201,"rot":9202,"_-(":9203,"Ġpossibilities":9204,"Ġanalytical":9205,"dn":9206,"dc":9207,"Ġcompleted":9208,"Ġassignment":9209,"quote":9210,"|}{\\":9211,"998":9212,"Log":9213,"req":9214,"rw":9215,"ayley":9216,"UT":9217,"Ġ[,)":9218,">]":9219,"]-":9220,"bbZ":9221,"DL":9222,"(.":9223,"Ġgluing":9224,"Ġ$[-":9225,"Comp":9226,"lead":9227,"Ġresp":9228,"Ġ|.":9229,"Ġ44":9230,"Ġresponse":9231,"ĠLorentz":9232,"Ġdistances":9233,"390":9234,"))}\\":9235,"295":9236,"instance":9237,"Cr":9238,"orenstein":9239,":\"":9240,"DT":9241,"Ġ(-.":9242,"Ġtropical":9243,"oots":9244,"HF":9245,"350":9246,"Gu":9247,"Ġimplemented":9248,"bezier":9249,"Bu":9250,"\\(\\":9251,"pects":9252,"ann":9253,"What":9254,"contra":9255,"Ġmarginal":9256,"\\,$":9257,",\\,\\,":9258,"mrm":9259,"fq":9260,"pted":9261,"[->,":9262,"cript":9263,"Schwarz":9264,"relative":9265,"Ġmotivated":9266,"+{":9267,"Ġmechanics":9268,"Ġcontinuation":9269,"Ġ53":9270,"ĠMulti":9271,"ĠTr":9272,"iro":9273,"ĠBayes":9274,"Problem":9275,"Ġcategor":9276,"Ġrecalling":9277,"290":9278,"Ġperspective":9279,"oszul":9280,"Ġmapped":9281,"Ġcardinal":9282,"Green":9283,"})-(\\":9284,"'^":9285,"}}[":9286,"Ġacyclic":9287,"Ġgave":9288,"ĠSections":9289,"Ġimportance":9290,"ĊĉĠĠĠ":9291,"199":9292,"actions":9293,"ination":9294,"Ġ\"(\\<":9295,"entioned":9296,"Sy":9297,"thered":9298,"pgfpoint":9299,"flalign":9300,"IJ":9301,"Ġ)$.":9302,"sL":9303,"paper":9304,"&\\\\":9305,"Ġcolors":9306,"Ġenvelo":9307,"Ġshare":9308,"Ġstand":9309,"Preliminaries":9310,"*-":9311,"ifdim":9312,"ĠSTRIP":9313,"1997":9314,"Ġquick":9315,")|_{":9316,"bered":9317,"elliptic":9318,"TC":9319,"Ġaugm":9320,"hard":9321,"1995":9322,"HM":9323,"{-.":9324,"four":9325,"cost":9326,"vw":9327,"compres":9328,"Linear":9329,"assume":9330,"Ġsubt":9331,"Ġrecor":9332,"Ġseparation":9333,"Uni":9334,"}_*":9335,"){};":9336,"join":9337,"SIMP":9338,"&-\\":9339,"ipotent":9340,"|+|":9341,"[$\\":9342,"}]$,":9343,"child":9344,"228":9345,"Ġletter":9346,"Ġhar":9347,"Ġsketch":9348,"204":9349,"})$-":9350,"newpage":9351,"curl":9352,"Ġtang":9353,"\\#":9354,"calF":9355,"248":9356,"ĠRef":9357,"Ġviscosity":9358,"Ġ:\\":9359,"Ġinvolve":9360,"BK":9361,"bK":9362,"summa":9363,"tures":9364,"Ġign":9365,"Ġcomparing":9366,"ĠAlex":9367,"Ġsuccessful":9368,"$\\,":9369,"Ġdecompositions":9370,"Ġ].":9371,"Del":9372,"calar":9373,"Ġfair":9374,"Ġvio":9375,"Ġ49":9376,"Vec":9377,"calA":9378,"apping":9379,"states":9380,"mas":9381,"pred":9382,"ĠBoth":9383,")$\\":9384,"crit":9385,"ĠHar":9386,"ĠWrite":9387,"-$\\":9388,"RM":9389,"213":9390,"Ġdividing":9391,"Ġdefinable":9392,"ĠProp":9393,")&=&":9394,"Ġguaranteed":9395,"GEN":9396,"Ġsubmodule":9397,"}^*(":9398,"ĠSim":9399,"Ġremoving":9400,"Ġys":9401,"'}$.":9402,"ĠTOP":9403,"})}$":9404,"Ġpolygon":9405,"isher":9406,"Ġfiltered":9407,"/_":9408,"Ġconcepts":9409,"Ġplaces":9410,"Ġreson":9411,",~\\":9412,"fh":9413,"direction":9414,"abc":9415,"Inv":9416,"Ġmotivation":9417,"oral":9418,"dh":9419,"](\\":9420,")\\|\\":9421,"}{.":9422,"ĠPre":9423,"Complex":9424,"ĠMinkowski":9425,"Ġorbifold":9426,"163":9427,"Ġalgebro":9428,"Hu":9429,"EV":9430,"}}_\\":9431,"Ġinteractions":9432,"ĠGr":9433,"ĠBra":9434,"lemm":9435,"267":9436,"Ġrelaxation":9437,"irreducible":9438,"ibbs":9439,"285":9440,"ĠRa":9441,"Â«":9442,"Ġmainly":9443,"Ġsending":9444,"Ġallocation":9445,"}_{[":9446,"Ġcoloring":9447,"Ġtruncated":9448,"htbp":9449,"299":9450,"Ġrecursion":9451,"Ġirre":9452,"Ġfluctu":9453,"ĠWi":9454,")|=":9455,"^*)\\":9456,"polar":9457,"rea":9458,"Ġbad":9459,"Ġsoft":9460,"247":9461,"Ġguess":9462,"vor":9463,"Color":9464,"dro":9465,"Ġmeta":9466,"));":9467,"ĠGromov":9468,"andom":9469,"ĠMathematical":9470,"Ġgeneralizes":9471,"trunc":9472,"Ġsuccess":9473,"RULE":9474,"Ġreasoning":9475,"LC":9476,"Ġlikely":9477,"ING":9478,"^-\\":9479,"}\\}\\":9480,"Hamilton":9481,"together":9482,"bol":9483,"eries":9484,"strongly":9485,"coh":9486,"Ġimpose":9487,"calD":9488,"ired":9489,"ĠConversely":9490,"sT":9491,"chool":9492,"combin":9493,"ĠInter":9494,"Ġestablishes":9495,"definecolor":9496,"Ġdecoder":9497,"exist":9498,"FI":9499,"Ġnovel":9500,"grow":9501,"Ġindicated":9502,"/[":9503,"vm":9504,"Ġcompatibility":9505,"Ġsubsequent":9506,"ĠPic":9507,"potential":9508,"hysi":9509,"may":9510,"posedness":9511,"Ġannihi":9512,"Ġsigns":9513,"BT":9514,"GN":9515,"twisted":9516,"[(\\":9517,"169":9518,"335":9519,"compare":9520,"ĠHessian":9521,"Ġfol":9522,"Ġfaster":9523,"Ã¶":9524,"tatives":9525,"Ġconcave":9526,"topes":9527,"post":9528,"match":9529,"vn":9530,"})|":9531,"Ġ}}\\":9532,"Point":9533,"]$-":9534,"Ġdelta":9535,"AF":9536,"^*=":9537,"insert":9538,"otic":9539,"Ġprogramming":9540,"Ġinputs":9541,"Rem":9542,"Ġrequirements":9543,"HP":9544,"Ġscaled":9545,"trap":9546,"179":9547,"ĊĠĠĠĠĠĠĠĠĠĠĠĠĠĠĠĠĠĠ":9548,"Ġadjunction":9549,"bal":9550,"Hilbert":9551,"Ġpast":9552,"\\,(":9553,"Ġattached":9554,"}\\}$,":9555,"Ġcontrary":9556,"decay":9557,"expansion":9558,"scalar":9559,"oi":9560,"405":9561,"^+$.":9562,"Ġ^\\":9563,"4375":9564,"channel":9565,"wall":9566,"ustom":9567,"rob":9568,"333":9569,"Ġprediction":9570,"near":9571,"ESON":9572,"subsetneq":9573,"ogonality":9574,"^+$,":9575,"Ġslice":9576,"Ġrelay":9577,"IEEEeqnarray":9578,"Ġmoder":9579,"Ġemployed":9580,"Seq":9581,"topological":9582,"Ġcommutator":9583,"Ġneighbors":9584,"dge":9585,"807":9586,"Ġcapa":9587,"Ġmutually":9588,"My":9589,"hic":9590,"ĠGrothendieck":9591,"oundation":9592,"bigvee":9593,"toff":9594,"cision":9595,"mbb":9596,"reedy":9597,"Ġ_\\":9598,"ĠBo":9599,"ested":9600,"eu":9601,"Node":9602,"segment":9603,"dk":9604,"blems":9605,"ĠMIMO":9606,"conformal":9607,"igne":9608,"method":9609,"Ġdenominator":9610,"images":9611,"holm":9612,"ME":9613,"Ġcollision":9614,"nas":9615,"Ġ$<":9616,"Ġtheta":9617,"iesz":9618,"ilde":9619,"served":9620,"irth":9621,"fan":9622,"rar":9623,"stu":9624,"hev":9625,"PEAT":9626,"325":9627,"trd":9628,"Ġbackward":9629,").(":9630,"explicit":9631,"Ġ(`!":9632,"ĠTechn":9633,"cx":9634,"{.}":9635,"Ġda":9636,"morphisms":9637,"Ġbinomial":9638,")!}":9639,"Ġhierarchy":9640,"Ġfermi":9641,"Ġlisted":9642,"'ve":9643,"Ġdeep":9644,"227":9645,"Ġcomputable":9646,"+)":9647,"Ġri":9648,"Ka":9649,".}}":9650,"Ġfine":9651,"!\\!":9652,"ĠDue":9653,"itching":9654,"Ġdevelopment":9655,"Ġ$+":9656,"tify":9657,"Ġcapture":9658,"})/":9659,"Ġconverging":9660,":=(":9661,"Des":9662,"isenberg":9663,"univ":9664,"Ġsummarize":9665,"Numerical":9666,"Jo":9667,"}-(":9668,"305":9669,".|":9670,"Ġchart":9671,"212":9672,"Ġdiscriminant":9673,"Pe":9674,"}&=\\":9675,"705":9676,"287":9677,"Ġdistor":9678,"bU":9679,"har":9680,"Ġensemble":9681,"276":9682,"etti":9683,"midt":9684,"Ġreducible":9685,"Ġwireless":9686,"Ġmembers":9687,"Ġstrength":9688,"Ġdeca":9689,"Ġprobabilistic":9690,"cells":9691,"gery":9692,"lder":9693,"Lapla":9694,"SG":9695,"isy":9696,"^*,\\":9697,"Ġscenarios":9698,"Ġelimin":9699,"))+":9700,"Ġrigorous":9701,"rh":9702,"')}":9703,"Ġwon":9704,"Ġvisual":9705,"SNR":9706,"ĠSL":9707,"Choose":9708,"Ġ$\\{(":9709,"})]":9710,"274":9711,"quanti":9712,"OUP":9713,"192":9714,"TY":9715,"ĠAP":9716,"Ġrely":9717,"compl":9718,"ĠBernoulli":9719,"homomorphism":9720,"Ġlikelihood":9721,"Ġcontractible":9722,"277":9723,"206":9724,"Ġrunning":9725,"Ġbul":9726,"Ġbene":9727,"approximation":9728,"Ġconsequences":9729,"995":9730,"ĠBoolean":9731,"^*_\\":9732,"Ġload":9733,"Ġjournal":9734,"Ġbirational":9735,"ODE":9736,"comparison":9737,"Ġresidu":9738,"plied":9739,"Ġchapter":9740,"band":9741,"MN":9742,"simpl":9743,"leg":9744,"ratio":9745,"Ġmeromorphic":9746,"Ji":9747,"264":9748,"urst":9749,"Red":9750,"BZ":9751,"expec":9752,"246":9753,"types":9754,"456":9755,"Ġ:=\\":9756,"hg":9757,"]_\\":9758,"ĠPut":9759,"Ġproviding":9760,"Ġcombine":9761,"Ġconsiderations":9762,"goth":9763,":]":9764,"Ġcommuting":9765,"_+,":9766,"}(-\\":9767,"ĠĊĠĊ":9768,")>\\":9769,"setup":9770,"tc":9771,"Ġ65":9772,"ions":9773,"Fil":9774,"Ġgrows":9775,"Ġcat":9776,"ĠGrassmann":9777,"bV":9778,"244":9779,"goal":9780,"eld":9781,"transform":9782,"]|":9783,"iers":9784,"going":9785,"Val":9786,"gtr":9787,"Such":9788,"Eqn":9789,"ĠCohen":9790,"Univer":9791,"Ġdepicted":9792,"succeq":9793,"Ġobe":9794,"173":9795,"Rn":9796,"mA":9797,"Ġconcerned":9798,"=#":9799,"ĠSUBSET":9800,"eqdef":9801,"Write":9802,"rey":9803,"tabularnewline":9804,"Ġ$\\,\\":9805,"appe":9806,"ags":9807,"Ġ55":9808,"Stokes":9809,"Ġminus":9810,"Ġassigned":9811,"ious":9812,"~~~":9813,"_{\\{\\":9814,"Ġcolored":9815,"Proper":9816,"Ġdecrease":9817,"Cur":9818,"ected":9819,"Order":9820,"Ġinfluence":9821,"sts":9822,"Ġplayer":9823,"wartz":9824,"Ac":9825,"regularity":9826,"Ġprefer":9827,"hoff":9828,"Ġdetermining":9829,"chime":9830,"Ġ\">":9831,"Ġisotopy":9832,"Ġorig":9833,"PDE":9834,"\"/\\\"":9835,"nmid":9836,"ino":9837,"examples":9838,"onomy":9839,"PSL":9840,"undefined":9841,"}=[":9842,"homotopy":9843,"Ġcusp":9844,"}\\{\\":9845,"266":9846,"coe":9847,"Ġsummary":9848,"Ġpieces":9849,"teful":9850,"+(-":9851,"endgroup":9852,"ĠFlo":9853,"embedding":9854,"Ġts":9855,"pass":9856,"!:":9857,"ogn":9858,"fu":9859,"\\,\\,":9860,"Ġ<\"":9861,"Ġbranching":9862,";\\\\":9863,"pst":9864,"226":9865,"lineto":9866,"decla":9867,"ĠMP":9868,"ifford":9869,"ĠSpace":9870,"equations":9871,"Ġpositivity":9872,"211":9873,"Ġ('":9874,"Ġformalism":9875,"Due":9876,"Ġangular":9877,"olla":9878,"997":9879,"Ġimprovement":9880,"actor":9881,"384":9882,"Ġlot":9883,"Ġdrift":9884,"FD":9885,"Ġordinal":9886,"intersect":9887,"Ġoptions":9888,"ĠArtin":9889,"],[":9890,"west":9891,"Ġcolour":9892,"Ġiterated":9893,"asser":9894,"Ġendpoint":9895,"Ġ75":9896,"components":9897,"beging":9898,"Ġrelate":9899,"Ġstabilizer":9900,",&":9901,"Cons":9902,"begingroup":9903,"hor":9904,"mation":9905,"gers":9906,"acuum":9907,"TP":9908,"990":9909,"vectors":9910,"TD":9911,"parameters":9912,"classes":9913,"455":9914,"{}^":9915,"corpor":9916,"arabic":9917,")}_\\":9918,"lec":9919,"Ġfveq":9920,"ĠCombining":9921,"Ġgover":9922,"[-\\":9923,"ĠCM":9924,"Ġagrees":9925,"153":9926,"ĠDu":9927,"ĠSeg":9928,"lliptic":9929,"sS":9930,"igible":9931,"855":9932,"^{*}(":9933,"Ġstructural":9934,"nth":9935,"Ġ}(\\":9936,"solutions":9937,"193":9938,";\\;\\;":9939,"pure":9940,"Ġfun":9941,"355":9942,"yp":9943,"ĠAnother":9944,"divide":9945,"Ġgcd":9946,"Che":9947,"[$(":9948,"mR":9949,"ĠCalabi":9950,"Ġ(*":9951,"Ġheuristic":9952,"retch":9953,"Ġomitted":9954,"Ġclique":9955,"gathered":9956,"acle":9957,"Ġemphasize":9958,"ective":9959,"afe":9960,"Euler":9961,"1994":9962,"307":9963,"}.\\\\":9964,"dean":9965,"weakly":9966,"suffici":9967,"304":9968,"Ġexceed":9969,"Ġmeets":9970,"ontinuous":9971,"\\})$":9972,"Ġ&-":9973,"800":9974,">)\"":9975,"contents":9976,"Ġcriteria":9977,"ĠLagrange":9978,"aaa":9979,"HC":9980,"257":9981,"1875":9982,"acting":9983,"prove":9984,"223":9985,"RG":9986,"ĠMin":9987,"254":9988,"dri":9989,"parametric":9990,"Ku":9991,"Man":9992,"Ġvariations":9993,"Ġmult":9994,")^+":9995,"Ġ(|":9996,"asure":9997,"Ġgeometrically":9998,"987":9999,"duality":10000,"805":10001,"Ġlowest":10002,"necess":10003,"Ġbifurcation":10004,"Ġdoing":10005,"Ġcontroller":10006,"AGE":10007,"connection":10008,"Ġfading":10009,"cg":10010,"witz":10011,"(\\|\\":10012,"ĠTrans":10013,"lbrack":10014,"ĠSciences":10015,"Ġantic":10016,"ĠState":10017,"bY":10018,"Ġlabelled":10019,"Ġunramified":10020,"367":10021,"Ġwalks":10022,"utr":10023,"Ġ=(":10024,"278":10025,"605":10026,"verses":10027,"Ġindicator":10028,"urent":10029,"slo":10030,"Ġsuggested":10031,"ental":10032,"Ġalphabet":10033,"Ġdigraph":10034,"Ġreductive":10035,"Ġbelonging":10036,"ĠâĪĢ":10037,"Ġbuilt":10038,"hfil":10039,"Ġcharacteristics":10040,"ĠGer":10041,"387":10042,"Ġcellular":10043,"yz":10044,"}''":10045,"Ġgrateful":10046,"bW":10047,"Ġsemin":10048,"Ġ66":10049,"Ġapplicable":10050,"Ġke":10051,"209":10052,"ement":10053,"Index":10054,"sheaf":10055,"Ġfront":10056,"Ġeast":10057,")$.}":10058,"Ġprocessing":10059,"Ġpor":10060,"imes":10061,"308":10062,"normalsize":10063,"ala":10064,"\\,,\\":10065,"tty":10066,"crcr":10067,"HA":10068,"268":10069,"Iso":10070,"Ġ}.":10071,"fld":10072,"Â²":10073,"Ġfla":10074,"ister":10075,"ĠBound":10076,"ĠCoxeter":10077,"){.":10078,"rrbracket":10079,"lied":10080,"Ġspre":10081,"llbracket":10082,"')^":10083,"Ġaspects":10084,"ĠNon":10085,"trim":10086,"ĠREPEAT":10087,"patch":10088,"aulay":10089,"ĠFoundation":10090,"Ġdotted":10091,"]{.":10092,"Ġworst":10093,"Ġrepresentatives":10094,"258":10095,"Ġcircular":10096,"kind":10097,"CW":10098,"Den":10099,"$-\\":10100,"Ġexplan":10101,"968":10102,"988":10103,"Ġquadra":10104,"sP":10105,"MSE":10106,"Ġfinds":10107,"zo":10108,"Algorithm":10109,"crossing":10110,"&$\\":10111,"Ġexclude":10112,"latex":10113,"Notation":10114,"bou":10115,"217":10116,"Âĸă":10117,"Ġidentifying":10118,"Ġtriples":10119,"}$.}":10120,"counta":10121,"HL":10122,"Ġrooted":10123,"operators":10124,"Time":10125,"Ġconstitu":10126,"Ġsubstituting":10127,"yc":10128,"Union":10129,"Ġsector":10130,"obtained":10131,"enter":10132,"Ġcontinuum":10133,"Ġparametrized":10134,"Ġaffect":10135,"Ġ54":10136,"ĠNoetherian":10137,"Bes":10138,"Ġelastic":10139,"Ġ};":10140,"hind":10141,"âŁ©,":10142,"{,":10143,"sitivity":10144,"Ġwhence":10145,"Ġamounts":10146,"batim":10147,"jan":10148,"ltimes":10149,"Ġ''":10150,"ream":10151,"sho":10152,"Ġ57":10153,"ivalently":10154,"aly":10155,"ĠUN":10156,"ĠDG":10157,"via":10158,"Ġhypersurfaces":10159,"labor":10160,"Ġradical":10161,"Di":10162,"chimedean":10163,"857":10164,"\\}=":10165,"Ġachieves":10166,"quadratic":10167,"compatible":10168,"Ġsuggest":10169,"LEX":10170,"mC":10171,"mor":10172,"Ġimpact":10173,"Ġestimating":10174,"calS":10175,"versality":10176,"isom":10177,"}$),":10178,"sparse":10179,"Ġintuition":10180,"^{|":10181,"Ġhomotopic":10182,"357":10183,"Ġfixing":10184,"cker":10185,"486":10186,"<*":10187,"cipro":10188,"Ġsummands":10189,"avier":10190,"hou":10191,"}}}(":10192,"suit":10193,"Ġlack":10194,"correct":10195,"Acknowledgements":10196,"Ġcarries":10197,"hb":10198,"Ġmirror":10199,"365":10200,"Ġfile":10201,"ibn":10202,"Ġtransformed":10203,"Lp":10204,"214":10205,"righth":10206,"Ġsparsity":10207,"Ġconject":10208,"Ġ&+":10209,"Ġsurvey":10210,"hance":10211,"Tra":10212,"<^":10213,"tum":10214,"Ġnoncommutative":10215,"Ġprod":10216,"oring":10217,"))}{":10218,"977":10219,"Ġ$({\\":10220,"Ġprice":10221,"ctually":10222,"colim":10223,"KP":10224,"hyperbolic":10225,"Ġoperad":10226,"}$}}":10227,"604":10228,"AND":10229,"TE":10230,"Ġ}^{\\":10231,"stationary":10232,"filled":10233,"ĠPropositions":10234,"\\!-\\!":10235,"ĠâĬ":10236,"ĠGEN":10237,"ĠChina":10238,"redholm":10239,"Sig":10240,"Label":10241,"'),":10242,"408":10243,"Ġexam":10244,"Ġencoding":10245,"parts":10246,"ialgebra":10247,"Ġabu":10248,"structed":10249,"OG":10250,"ĠBa":10251,"+\\|\\":10252,"Ġinjection":10253,"Ġonline":10254,"Ġmissing":10255,"Ġconjectured":10256,"Ġcircuit":10257,"Ġappeared":10258,"Ġentirely":10259,"_*}":10260,"Ġtrig":10261,"_{*}":10262,"Ġ<*":10263,"rents":10264,"Ġtetra":10265,"LG":10266,"Ġintegrability":10267,"284":10268,"*#":10269,"ĠÏ":10270,"PG":10271,"286":10272,"),\\,":10273,"Ġcomment":10274,"different":10275,"codes":10276,"Ġepim":10277,")[\\":10278,"},{":10279,"Ġnondegenerate":10280,"does":10281,"Ġattract":10282,"atum":10283,"Ġimplement":10284,"servative":10285,"UL":10286,"Ġ{#":10287,"multiplic":10288,"-|\\":10289,"bbC":10290,"lq":10291,"bj":10292,"ew":10293,"sey":10294,"pages":10295,"twist":10296,"rhd":10297,"drop":10298,"Ġcorrection":10299,"dama":10300,"407":10301,"708":10302,"Ġallowing":10303,"Ġconsiders":10304,"differentiable":10305,"Ġminimize":10306,"Ġprox":10307,"calX":10308,"mcal":10309,"Ġbias":10310,")),\\":10311,"ĠInstead":10312,"607":10313,"ances":10314,"]_-":10315,"Ġjumps":10316,"calH":10317,"ople":10318,"tanh":10319,"Ġinclusions":10320,"Ãł":10321,"Ġevol":10322,"FFFF":10323,"Ġtan":10324,"}$\\\\":10325,"ynam":10326,"Examples":10327,"Ġrfl":10328,"pz":10329,"keleton":10330,"ssive":10331,"Ġgames":10332,"}).$$":10333,"347":10334,"ĠVar":10335,"Ġsmoothing":10336,"ĠSO":10337,"ductively":10338,"950":10339,"ivers":10340,"rmd":10341,"anel":10342,"Mu":10343,"Ġanalogy":10344,"Ġ$\\#":10345,"bys":10346,"axiom":10347,"Ġdenoting":10348,"oriented":10349,"ĠIV":10350,"996":10351,"804":10352,"358":10353,"You":10354,"Font":10355,"floor":10356,"Ġlayers":10357,"uer":10358,"ĠOp":10359,"ĠFun":10360,"NL":10361,"Ġprecision":10362,"976":10363,"permu":10364,"}],":10365,"Ġ56":10366,"Ġclusters":10367,"ians":10368,"rcl":10369,"944":10370,"ĠCho":10371,"ek":10372,"lects":10373,",*":10374,"xv":10375,"Star":10376,"inates":10377,"Ġlogarithm":10378,"Rad":10379,"choice":10380,"simplex":10381,"simplic":10382,"Ġ52":10383,"Ġpreliminary":10384,"Ġconcaten":10385,"Ġacceler":10386,"))^{-":10387,"erential":10388,"oler":10389,"488":10390,"955":10391,"183":10392,"ssec":10393,"magnetic":10394,"Ġqueue":10395,"Ġpay":10396,"icz":10397,"Ġ\\).":10398,"Ġrefined":10399,"indic":10400,"Ġinfimum":10401,"verb":10402,"ĠNevertheless":10403,"ĠTARSKI":10404,"NF":10405,"corr":10406,"^{'":10407,"}}},":10408,"Ġcomplementary":10409,"erve":10410,")\\}$.":10411,"meas":10412,"MI":10413,"Ġannulus":10414,"_-\\":10415,"Ġresolvent":10416,"ologies":10417,"http":10418,"Ġquality":10419,"rich":10420,"area":10421,"Ġ<=>":10422,"Ġ{-":10423,"subs":10424,"Ġshrink":10425,"sso":10426,"ĠHardy":10427,"std":10428,"Ġagg":10429,"========":10430,"Ġmacro":10431,"Ġdro":10432,"dens":10433,"Ġmodeling":10434,"Ġsimpr":10435,"Ġcrossings":10436,"Ġthing":10437,"source":10438,"Ġmultiplying":10439,"Ġintrinsic":10440,"KT":10441,"337":10442,"010":10443,"ening":10444,"subj":10445,"994":10446,"ĠFinSequence":10447,"Ġquar":10448,"cluster":10449,"354":10450,"Ġshifted":10451,".-":10452,"dund":10453,"Ġrestricts":10454,"ĠScalar":10455,"Ġdeduced":10456,"output":10457,"Ima":10458,"Similar":10459,"487":10460,"Ġcollect":10461,"Ġissues":10462,"LB":10463,"Ġisometries":10464,"ceed":10465,"Ġdecor":10466,"Ġplanes":10467,"constrained":10468,"Ġ$*$-":10469,"Ġpop":10470,"Ġpacket":10471,"808":10472,"Stab":10473,"acency":10474,"Ġfrequencies":10475,"sD":10476,"JJ":10477,"universal":10478,"proxima":10479,"cohomology":10480,"]}{":10481,"gligible":10482,"Ġpresents":10483,"Ġincorpor":10484,"tuples":10485,"Ġmp":10486,"Ġtopic":10487,"modular":10488,"Ġfurthermore":10489,"dies":10490,"Ġcomposed":10491,"269":10492,"ards":10493,"Ġcompactification":10494,"\\^":10495,"IMAGE":10496,"cz":10497,"306":10498,"cocycle":10499,"txt":10500,"pmf":10501,"356":10502,"Tx":10503,"ĊĠĠĠĠĠĠĠĠĠĠĠĠĠĠĠĠĠĠĠĠĠĠĠĠĠĠĠĠĠĠĠĠĠĠĠĠĠĠĠĠĠĠĠĠĠĠĠĠĠĠĠĠ":10504,"348":10505,"Ġfinishes":10506,"}|_{\\":10507,"Ġefficiently":10508,"HD":10509,"orbits":10510,"vich":10511,"ecker":10512,"Ġ\\!\\!":10513,"ARITH":10514,"ancel":10515,"middle":10516,"Ġplu":10517,"ĠAbelian":10518,"Ġcoprime":10519,"854":10520,"Ġtransmitted":10521,"Ġadopt":10522,"Ġgsum":10523,"378":10524,"Ġinference":10525,"stro":10526,"ĠUp":10527,"Ġsigned":10528,"ĠNational":10529,"oul":10530,"[#":10531,"201":10532,"905":10533,"stochastic":10534,"oll":10535,"SUBSET":10536,"-)":10537,"Ġdecomposed":10538,"Ġcandidate":10539,"974":10540,"bxi":10541,"}}|\\":10542,"Key":10543,"967":10544,"]],":10545,"Without":10546,"nz":10547,"oidal":10548,",\\{":10549,"_+$,":10550,"ĠXREAL":10551,"Ġprescribed":10552,"urn":10553,"Ġversus":10554,"ĊĊĊĠ":10555,"provided":10556,"Ġnearly":10557,"iggs":10558,"608":10559,"958":10560,"0007":10561,"xz":10562,"Ġfall":10563,"aka":10564,"bigotimes":10565,"\\\\&\\":10566,"ĠDes":10567,"Ss":10568,"Ġperturbed":10569,"Ġstrip":10570,"RF":10571,"Ġlocated":10572,"$\\{\\":10573,"'}^":10574,"pidal":10575,"Ġdisper":10576,"BI":10577,"Ġfreely":10578,"lease":10579,"hoods":10580,"particle":10581,"Ġsquared":10582,"MD":10583,"Ġamenable":10584,"Ġreflexive":10585,"344":10586,"Condition":10587,"calP":10588,"ĠPh":10589,"Ġmechanism":10590,"131":10591,"structures":10592,"Ġintegrand":10593,"[-]":10594,"products":10595,"Ġadant":10596,"457":10597,"984":10598,"Ġ&=&\\":10599,"858":10600,"Ġ51":10601,"Tilde":10602,"argmin":10603,"Hopf":10604,"ĠId":10605,"336":10606,"Inf":10607,"!}{":10608,"ced":10609,"nergy":10610,"975":10611,"ĠPe":10612,"certain":10613,"850":10614,"âĢĵ":10615,"ĠðĿ":10616,"606":10617,"Ġsci":10618,"INR":10619,"GT":10620,"mS":10621,"Ġdisks":10622,"tg":10623,"Aff":10624,"Ġinher":10625,"338":10626,"ĊĊĊĊĊĊĊĊĊĊĊĊĊ":10627,"$|\\":10628,"itness":10629,"957":10630,"sson":10631,"Ġsolver":10632,"))^{\\":10633,"ĠSimilar":10634,"Ġef":10635,"bling":10636,"_+}":10637,"ĠdB":10638,"jl":10639,"clear":10640,"gives":10641,"Ġabuse":10642,"Ġ\"...":10643,"Ġcreate":10644,"Ġcountably":10645,"ĠCartesian":10646,"233":10647,"Ġ58":10648,"CMP":10649,"enumi":10650,"`.":10651,"Ġsurjection":10652,"zs":10653,"ashion":10654,"Ġsort":10655,"avy":10656,"668":10657,"UNC":10658,"^*-":10659,"subjclass":10660,"Ġorientable":10661,"907":10662,"urity":10663,"aq":10664,"distinct":10665,"Ġvehic":10666,"Ġroughly":10667,"Ġdesigned":10668,"iving":10669,"ledgments":10670,"symplectic":10671,"Ġcoset":10672,"gtrsim":10673,"Ġintegrate":10674,"Â¬":10675,"Ġhorizon":10676,"Ġsubdivision":10677,"Ġantennas":10678,"sH":10679,"^*}\\":10680,"Thanks":10681,"Ġinsert":10682,"Ġflip":10683,"lineskip":10684,"243":10685,"decoration":10686,"Ġperhaps":10687,"Ã£":10688,"\\|$":10689,"tableau":10690,"eref":10691,"bad":10692,"'$-":10693,"|\\,\\":10694,"ibniz":10695,")}{|":10696,"388":10697,"Ġmild":10698,"Ġheter":10699,">>>":10700,"ĠDel":10701,"fint":10702,"Ġphi":10703,"Claim":10704,"Ġoccup":10705,"\\%$":10706,")$};":10707,"Ġsupports":10708,"ariate":10709,"GW":10710,"142":10711,"279":10712,"ermite":10713,"Ġsurprising":10714,"Ġsummarized":10715,"{\\'":10716,"Ġisot":10717,"ĠPol":10718,"nonlinear":10719,"239":10720,"964":10721,"404":10722,"Ġexpanding":10723,"|+\\":10724,"Loc":10725,"sibility":10726,"Ġdic":10727,"ĊĊĊĊĊĊĊĊĊĊĊĊĊĊ":10728,"Ġexamine":10729,"Jacobi":10730,"Ġtori":10731,"Fo":10732,"tails":10733,"249":10734,"ssical":10735,"\\}_":10736,"Ġbrackets":10737,"HK":10738,"damard":10739,"ĠReg":10740,"ĠAR":10741,"tization":10742,"ĠCayley":10743,"zable":10744,"providecommand":10745,"ĀĀĀĀ":10746,"Ġtriangulated":10747,"ĠProperty":10748,"shows":10749,"IZ":10750,"ĠRel":10751,"hedra":10752,"inver":10753,"477":10754,"thand":10755,"Ġsynchron":10756,"458":10757,"Ġatoms":10758,"fer":10759,"rrrr":10760,"htb":10761,"ĠLat":10762,"ĠHaar":10763,",...,\\":10764,"788":10765,"Ġ)$,":10766,"ĠAu":10767,"typ":10768,"ISC":10769,"eller":10770,"703":10771,"Ġproduced":10772,"calL":10773,"\\},\\{":10774,"kx":10775,"Ġspecies":10776,"particular":10777,"484":10778,"Ġmultivariate":10779,"ĠoF":10780,"787":10781,"}_{\\{":10782,"-'":10783,"ĠIntro":10784,"''}":10785,"Ġanalyzed":10786,"ota":10787,"ola":10788,"ĠĊĠĠĠĠĠĠĠĠĠĠĠ":10789,"men":10790,"Ġchallen":10791,"Ġhyperplanes":10792,"\\}}$":10793,"lg":10794,"uzz":10795,"commute":10796,"334":10797,"454":10798,"Ġ||\\":10799,"Ġexper":10800,"Ġswitch":10801,"_+(\\":10802,"Ġeigenfunction":10803,"Irr":10804,"idis":10805,"002":10806,"Ġindividu":10807,"Ġcertainly":10808,"ĠTe":10809,"www":10810,"sest":10811,"Ġbis":10812,"Ġboxes":10813,"itting":10814,"HE":10815,"arest":10816,"Ġconventional":10817,"Ġ\\),":10818,"wi":10819,"229":10820,"idefinite":10821,"1993":10822,"374":10823,"AE":10824,"brary":10825,"semigroup":10826,"Ġwidely":10827,"ĠPhysi":10828,"Ġrecursively":10829,"'d":10830,"difference":10831,"stri":10832,"Ġrecovered":10833,"Ġcounterpart":10834,"baseline":10835,"brac":10836,"ects":10837,"377":10838,"Ġrapid":10839,"ube":10840,"Ġlinearized":10841,"proved":10842,"Ġdealing":10843,"Ġbranches":10844,"Ġinductively":10845,"Ġpeak":10846,"resi":10847,"Ġtravel":10848,"dated":10849,"Ġtruncation":10850,"Ġrear":10851,"arpoonup":10852,"push":10853,"]^-{":10854,"ĠCa":10855,"laps":10856,"Ġtrying":10857,"Ġdel":10858,"traction":10859,"conditional":10860,"Data":10861,"`]":10862,"Ġdifferentials":10863,"Ġdistortion":10864,"Ġprecondition":10865,"665":10866,"946":10867,"ogeneity":10868,"476":10869,"Ġ$(-\\":10870,"704":10871,"Ġ_,":10872,"chen":10873,"hase":10874,"ĠPR":10875,"Ġatom":10876,"}}:":10877,"quet":10878,"ĠDen":10879,"qbezier":10880,"655":10881,"rigid":10882,"Na":10883,"Ġcubes":10884,"\\)-":10885,")*{":10886,"Ġtopologically":10887,"through":10888,"INTER":10889,"364":10890,"Ġcobord":10891,"Ġhype":10892,"geodesi":10893,"IEEEproof":10894,"ĠBessel":10895,"UR":10896,"demo":10897,"schild":10898,"{}_":10899,"954":10900,"eyn":10901,"Ġimposed":10902,",|":10903,"Ġabsor":10904,"refl":10905,"ensen":10906,"mg":10907,"sX":10908,"664":10909,"Ġshortest":10910,"They":10911,"Ġfunctorial":10912,"SES":10913,"}|$":10914,"home":10915,"289":10916,"283":10917,"^{(-":10918,"Ġunipotent":10919,"376":10920,"|/":10921,"Ġtransmitter":10922,"meta":10923,"Ġperforming":10924,"NT":10925,"ressed":10926,")&=&\\":10927,"Ġparametric":10928,"assu":10929,"intros":10930,"iods":10931,"concave":10932,"Ġlooks":10933,"Ġna":10934,"nj":10935,"{+":10936,"Ġprimal":10937,"ctured":10938,"Ġ)^{":10939,"Figures":10940,"calG":10941,"Ġinspired":10942,"Ġapproximating":10943,"803":10944,"Lam":10945,"Ġpolytopes":10946,"hk":10947,"Ġgeneralizations":10948,"755":10949,"ife":10950,"906":10951,"Macaulay":10952,"Ġframes":10953,"rossed":10954,"@<":10955,"bbP":10956,"Ġlt":10957,"Ġvalidity":10958,"Ġ\\!\\":10959,"ches":10960,"representations":10961,"perturb":10962,"Convergence":10963,"806":10964,"Ġsylan":10965,"irected":10966,"ĠCn":10967,"Ste":10968,"gging":10969,"ĠSV":10970,"curves":10971,"Ġce":10972,"Lat":10973,"een":10974,"Ġpolyg":10975,"ĠAut":10976,"within":10977,"Ġnodal":10978,"Ġmatroid":10979,"Ġshifts":10980,"Ġvacuum":10981,"Ġconclusions":10982,"safe":10983,"ĠGibbs":10984,"Ġbehind":10985,"Ġpenalty":10986,"Cov":10987,"986":10988,"wood":10989,"Ġtrade":10990,"sz":10991,"Ġabb":10992,"_+$.":10993,".(\\":10994,"Form":10995,"mcl":10996,"Â¸":10997,"ĉĉĉĉĉĉĉĉ":10998,"Ġtun":10999,"Ġentangle":11000,"}'_":11001,"ĠMac":11002,"))\\,":11003,"}}}^{":11004,"dS":11005,"},~\\":11006,"orage":11007,"protect":11008,"LA":11009,"Ġsubmanifolds":11010,"tivation":11011,"Ġ.$":11012,"Ġmutual":11013,"312":11014,"Ġrefers":11015,")--(-":11016,"Ġmm":11017,"Clo":11018,"gating":11019,"Ġjoining":11020,"=\\;":11021,"Ġhybrid":11022,"259":11023,"Stru":11024,")'":11025,"Ġintersecting":11026,"Ġchord":11027,".:":11028,"386":11029,"pv":11030,"rids":11031,"346":11032,"Ġsubstan":11033,"Ġfan":11034,"Optim":11035,"QC":11036,"cks":11037,"ĠKilling":11038,"Ġproj":11039,"Ġcontinued":11040,"definite":11041,"HT":11042,"Pri":11043,"Ġobsta":11044,"Ġ67":11045,"xu":11046,"ĊĊĉ":11047,"âĢĻ":11048,"Ġtame":11049,"Df":11050,"Ġdataset":11051,"knot":11052,"Ġ\"\\":11053,"period":11054,"ORM":11055,"Ġrays":11056,"Ġbulk":11057,"suc":11058,"Ġdatum":11059,"ivariate":11060,"dinger":11061,"Ġsigma":11062,"Ġattained":11063,"ĠAnalysis":11064,"Ġflexi":11065,"Ġatomic":11066,"arity":11067,"Ġswitching":11068,"assum":11069,"ĠPicard":11070,"Ġfashion":11071,"llll":11072,"^{**":11073,"Ġcosts":11074,"pk":11075,"triangler":11076,"ĠLT":11077,"33333333":11078,"ĠResults":11079,"Ġconcentrated":11080,"look":11081,"}={\\":11082,"329":11083,"}{\\|":11084,"alan":11085,"physi":11086,"cld":11087,"CAT":11088,"front":11089,"Ġmessages":11090,"ider":11091,"ierstra":11092,"Opt":11093,"carrier":11094,"Ġmultiply":11095,"Ġhel":11096,"ĠHeisenberg":11097,"PF":11098,"gls":11099,"Substituting":11100,"ĠGR":11101,"Ġarrangement":11102,"]{}":11103,")={\\":11104,"Ġslot":11105,"ĠGo":11106,"arctan":11107,"mpt":11108,"Hol":11109,"OV":11110,"Ġrecogn":11111,"222":11112,"BW":11113,"plothand":11114,"PM":11115,"Ġwf":11116,"Ġeval":11117,"Ġprefix":11118,"intercal":11119,"'ll":11120,"Ġ255":11121,"406":11122,"856":11123,"imodular":11124,"ssification":11125,"657":11126,"erkin":11127,"say":11128,"zi":11129,"Ġxy":11130,"PGL":11131,"triv":11132,"ffer":11133,"ĠDec":11134,"Ġ}^":11135,"Modu":11136,"DB":11137,"Bl":11138,"LX":11139,"irs":11140,"exponential":11141,"784":11142,"fv":11143,"ane":11144,"consistent":11145,"ĠOF":11146,"Ġenables":11147,"ĠSti":11148,"option":11149,"Cho":11150,"Witten":11151,"cq":11152,"Ġareas":11153,"ĠBar":11154,"}{}{":11155,"Riemannian":11156,"valueof":11157,"66666666":11158,"Ġgeneralised":11159,"Assumption":11160,"principal":11161,"pole":11162,"Bbbk":11163,"Ġreading":11164,"))-\\":11165,"}}\\|":11166,"Ġdevi":11167,"Pf":11168,"),\\]":11169,"Ġlex":11170,"Longleftrightarrow":11171,"Ġger":11172,"'}$,":11173,"})}(":11174,"Ġintertw":11175,"Ġsuccessive":11176,"mixed":11177,"ĠRiesz":11178,"pull":11179,"Ġcomputes":11180,"illem":11181,"rightharpoonup":11182,"chet":11183,"Ġdiffeomorphisms":11184,"Ġfamiliar":11185,"tikzstyle":11186,"^{\\#":11187,"Ġcooper":11188,"Ġtrack":11189,"Ġpp":11190,"Fourier":11191,"Ġranges":11192,"@{}":11193,"chite":11194,"859":11195,"ckwise":11196,"}).$":11197,"Based":11198,"reement":11199,"Ġwindow":11200,"WF":11201,"omb":11202,"ĠKoszul":11203,"triple":11204,"}}\\,\\":11205,"Ġoutline":11206,"requency":11207,"ptions":11208,"fam":11209,"Ġada":11210,"Ġadvance":11211,"ĠSDE":11212,"nex":11213,"{-}\\":11214,"ĠMain":11215,"}*{":11216,"NAT":11217,"904":11218,"Ġlocations":11219,"Ġlocalized":11220,"/{\\":11221,"namely":11222,"1992":11223,"Gm":11224,"boxed":11225,"plothandler":11226,"roman":11227,"Ġkinetic":11228,"908":11229,"\"\\/\"":11230,"GK":11231,"orementioned":11232,"nicefrac":11233,"prp":11234,"enti":11235,"}})$.":11236,"($\\":11237,")\\!":11238,"009":11239,"ĠĊĠĠĠĠĠĠĠĠĠ":11240,"ĠCantor":11241,"Ġsites":11242,"Weyl":11243,"ĠEven":11244,"Ġoutputs":11245,"Ġreducing":11246,"-{":11247,"Ġcausal":11248,"ĠKey":11249,"Ġsees":11250,"amin":11251,"Ġrealizations":11252,"ĠStokes":11253,"Ġtransversal":11254,"GO":11255,"ABLE":11256,"Ġobservables":11257,"lhd":11258,"453":11259,"RIX":11260,"}(|":11261,"Ġinstant":11262,"ĠSup":11263,"calE":11264,"Ġsampled":11265,"Comparison":11266,"_{_":11267,"ronecker":11268,"orting":11269,"956":11270,"lined":11271,"Compu":11272,"012":11273,"polation":11274,"composition":11275,"CY":11276,"aving":11277,"Ġcanonically":11278,"Ġsensing":11279,"Hamiltonian":11280,"ORD":11281,"irk":11282,"triangleright":11283,"cessible":11284,"seness":11285,"ĠGorenstein":11286,"447":11287,"Ġsaying":11288,"Class":11289,"]+\\":11290,")}$$":11291,"ĠGraph":11292,"Fl":11293,"\\}^{":11294,"chapter":11295,"hx":11296,"zations":11297,"Ġfibrations":11298,"Ġeffectively":11299,"706":11300,"ternatively":11301,"Ġparametrization":11302,"covering":11303,"vars":11304,"Ġelectro":11305,"Sem":11306,"Ġcompression":11307,"bell":11308,"Ġunlike":11309,"025":11310,"conclusion":11311,"cities":11312,"Ġimplied":11313,"Ġnd":11314,"network":11315,"Ġreaction":11316,"bas":11317,"}]=":11318,"SQ":11319,"bla":11320,"odynam":11321,"Ġcrystal":11322,"they":11323,"interior":11324,"ĠFloer":11325,"296":11326,"Ġanalogously":11327,"spe":11328,"sition":11329,"ĠGu":11330,"sG":11331,"noalign":11332,"^{*}$":11333,"rx":11334,"midrule":11335,")}}$":11336,"Ġmini":11337,"Ġstarted":11338,"Ġmultiplicities":11339,"Ġnonlocal":11340,"bbon":11341,"369":11342,"mtx":11343,"Ġcomparable":11344,"~$(":11345,"Ġ.\\":11346,"converges":11347,"789":11348,"666":11349,"Ġquadrature":11350,"wb":11351,"ĠStr":11352,"ĠâĨĲ":11353,"diffusion":11354,"Ġorthogonality":11355,"sM":11356,"enspace":11357,"eda":11358,"Gener":11359,"Ã¼":11360,"TX":11361,"bbE":11362,"vability":11363,"Abs":11364,"ivalent":11365,"ĠUSA":11366,"Ġvaries":11367,"309":11368,"AX":11369,"Ġcrossed":11370,"Ġservice":11371,"syn":11372,"leadsto":11373,"})}.":11374,"^{*}_{":11375,"}}&":11376,"bow":11377,"fier":11378,"Ġsubvariety":11379,"Ġintensity":11380,"Rm":11381,"Ġhomological":11382,"Ġmodeled":11383,"Ġattempt":11384,"presentation":11385,"aki":11386,"tane":11387,"ĠAssumptions":11388,"byshev":11389,"Tur":11390,"Ru":11391,"inds":11392,"/^":11393,"stat":11394,"ĠLevel":11395,"Ġdiffers":11396,"758":11397,"Error":11398,"Ġthemselves":11399,"Matrix":11400,"Pol":11401,"Ġcare":11402,"cellcolor":11403,"vised":11404,"Ġobservable":11405,"tangular":11406,"Ġprobably":11407,"^{|\\":11408,"oses":11409,"Hz":11410,"Ġaforementioned":11411,"cccccccc":11412,"paths":11413,"neighborhood":11414,"evy":11415,"colation":11416,"numerical":11417,"263":11418,"Ġadjacency":11419,"))))":11420,"Ġ63":11421,"Ġii":11422,"ÂİÂ¡":11423,"ĠMany":11424,"encil":11425,"illen":11426,"757":11427,"simplicial":11428,"transitive":11429,"Ġbandwidth":11430,"gorov":11431,"horiz":11432,"650":11433,"658":11434,"ĠâĦĿ":11435,"})).":11436,"786":11437,"Ġhistory":11438,"Ġnoisy":11439,"Wh":11440,"Ġtranslations":11441,"spectrum":11442,"RV":11443,"etal":11444,"scaling":11445,"Ġevidence":11446,"Ġnonsingular":11447,"Hyp":11448,"0003":11449,"contains":11450,"Ġexperimental":11451,"Ġreformula":11452,"ĠEs":11453,"NUM":11454,"characteristic":11455,"Ġhidden":11456,"before":11457,"756":11458,"Ġelectric":11459,"))}{\\":11460,"Ġpanel":11461,"ald":11462,"949":11463,"ĠLinear":11464,"RL":11465,"Xiv":11466,"TMPa":11467,"]}}":11468,"east":11469,"ĠMan":11470,"plitz":11471,"|(\\":11472,"$^":11473,"Har":11474,"Ġfulfill":11475,"Ġantenna":11476,"Ġexplanation":11477,"dian":11478,"utral":11479,"Markov":11480,"ĠRadon":11481,"Ġ)=":11482,"ACE":11483,"DN":11484,"pspicture":11485,"ynkin":11486,"primitive":11487,"RA":11488,"catcode":11489,"normalization":11490,"Ġexecu":11491,"ras":11492,"801":11493,"ĠClifford":11494,"Sur":11495,"interpre":11496,"Func":11497,"Tags":11498,"ĠMonte":11499,"Ġtheoretic":11500,"ĠGeneral":11501,"459":11502,"scend":11503,"ĠSerre":11504,"cas":11505,"Ġanalytically":11506,"677":11507,"SSS":11508,"Ġshadow":11509,"analysis":11510,"ĠâĦķ":11511,"mainthm":11512,"perfect":11513,"{\\{":11514,"')\"":11515,"Ġnn":11516,"ĠBol":11517,"Ġreported":11518,"UV":11519,"Conjecture":11520,"divisor":11521,"Âµ":11522,"Ġrequiring":11523,"Ġphases":11524,"yer":11525,"\\}$$":11526,"Ġ(?":11527,"schemes":11528,"Ta":11529,"Ġsubstantial":11530,"152":11531,"Ġcontradicting":11532,"162":11533,"enta":11534,"Ġhypergraph":11535,"]]:":11536,"Ġpreimage":11537,"Ġdisconnected":11538,"Ġdemonstrated":11539,"ĠGa":11540,"Ãħ":11541,"Ġplots":11542,"higher":11543,"Wang":11544,"Ps":11545,"Ġreplacement":11546,"Finite":11547,"coefficients":11548,"Ġadditionally":11549,"Ġaveraging":11550,"degener":11551,"Ġrc":11552,")^*\\":11553,"coordinates":11554,"ĠBayesian":11555,"xag":11556,"\\,{":11557,"ĠĊĉĉĉ":11558,"href":11559,"1111":11560,"$}};":11561,"ĠSol":11562,"eplitz":11563,"Fq":11564,"Ġled":11565,"PAR":11566,"ĠGrant":11567,"Ġsti":11568,"itudes":11569,"Ġmonic":11570,"Ġsemigroups":11571,"Ġstorage":11572,"dq":11573,"ills":11574,"Ġspinor":11575,"Ġmassive":11576,"Ġambient":11577,"ierstrass":11578,"calM":11579,"RW":11580,"subject":11581,"List":11582,"]);;":11583,"pectral":11584,"Ġanswers":11585,"squ":11586,"ship":11587,"Ġstatic":11588,"141":11589,"versally":11590,"Ġspir":11591,"orita":11592,"assign":11593,"rings":11594,"Cs":11595,"usu":11596,"${":11597,"Ġsimilarity":11598,"Chen":11599,"'>":11600,"Ġenhance":11601,"Ġ&\\\\":11602,"VI":11603,"Ġgravity":11604,":\\\\":11605,"Ġstrings":11606,"FMISC":11607,"TU":11608,"]\\,":11609,"addto":11610,"ominus":11611,"Ġreturns":11612,"Ġestablishing":11613,"contrac":11614,"Ġcondu":11615,"ographic":11616,"DIFF":11617,"409":11618,"Ġsho":11619,"=-=-=-=-=-=-=-=-":11620,"1990":11621,"ĊĠĠĊĠĠĊĠĠĊĠĠ":11622,"Both":11623,"lable":11624,"EG":11625,"Ġsend":11626,"Ġdyadic":11627,"flush":11628,"Ġapparent":11629,"olmo":11630,"Ġcolimits":11631,"349":11632,"MO":11633,"Ġnested":11634,"Ġ[->]":11635,"Î±":11636,"Ġprogress":11637,"Ġillustrates":11638,"Ġbalance":11639,"})},":11640,"Ġmana":11641,"PO":11642,"489":11643,"associative":11644,"LU":11645,"||^":11646,"cancel":11647,"Ġ59":11648,"Ġresource":11649,")^{|":11650,"Nat":11651,"015":11652,"Ġboson":11653,"Ġ62":11654,"Ġcircum":11655,"pinlabel":11656,"Ġclari":11657,"Ġexploit":11658,"pw":11659,"acts":11660,"ĠCCfld":11661,"istration":11662,"comb":11663,"extended":11664,"Ġss":11665,"ootstrap":11666,"AK":11667,"chable":11668,"Ġsemidefinite":11669,"EF":11670,"Ġinvestigation":11671,"444":11672,"determined":11673,"Ġworld":11674,"Ġabsence":11675,"Ġconnect":11676,"bI":11677,"Results":11678,"Ġoriginally":11679,"Ġreflect":11680,"Over":11681,"Ġinitially":11682,"]}(\\":11683,"ups":11684,"doteq":11685,"atively":11686,"rq":11687,"Ġ61":11688,"vate":11689,"Ġrm":11690,"Ġwonder":11691,"pot":11692,"Ġarchite":11693,"Fu":11694,"Ġ((\\":11695,"bor":11696,"depending":11697,"Ġhx":11698,"enging":11699,"dev":11700,"tated":11701,"^{\\,":11702,"Path":11703,"Ġtiling":11704,"constraint":11705,"propto":11706,"hop":11707,"Hil":11708,"atest":11709,"tems":11710,"273":11711,"Ġexplore":11712,"border":11713,"Ġimplying":11714,"Ġsurgery":11715,"Ġphenomena":11716,"979":11717,"Fe":11718,"Ġholonomy":11719,"unitlength":11720,"select":11721,"dlem":11722,"ĠLaurent":11723,"verbatim":11724,";\\,":11725,"^*)^":11726,"ĠTheir":11727,"exa":11728,"Ġconic":11729,"969":11730,"~\\(":11731,"ĠNM":11732,"incare":11733,"mE":11734,"Ġourselves":11735,"ĠWh":11736,"ĠFano":11737,"Ġfulfilled":11738,"yu":11739,"Ġvariants":11740,"YY":11741,"Av":11742,"TW":11743,"]^{-":11744,"973":11745,"Ġthroughput":11746,"Ġsoon":11747,"ĊĊĠĠĠĠĠ":11748,"Ġmodifications":11749,"\\}=\\":11750,"valuation":11751,"\\!\\!\\":11752,"ĠĊĊĊĊĊ":11753,"_{_{":11754,"Ġgas":11755,"Ġrestricting":11756,"||_":11757,"Ann":11758,"303":11759,"Oo":11760,"ahn":11761,"thods":11762,"ingu":11763,"qedhere":11764,"!$":11765,"lefteq":11766,"Ġjo":11767,"inst":11768,"ĠLiouville":11769,"Ġpeople":11770,"Ġimplicitly":11771,"otal":11772,"stabil":11773,"Ġsaturated":11774,"ade":11775,"Ġsubscheme":11776,"^\\#":11777,"splitting":11778,"gc":11779,"cussion":11780,"ĠVe":11781,"varieties":11782,"tivistic":11783,"skew":11784,"therefore":11785,"MV":11786,"ĠSy":11787,"centric":11788,"compressible":11789,"Ã¤":11790,"ito":11791,"ĠCS":11792,"Ġclassified":11793,"mun":11794,"Ġverifies":11795,"gk":11796,"Ġstatistic":11797,"Ġ}\\\\":11798,"ĊĠĠĠĠĠĠĠĠĊĠĠĠĠĠĠĠ":11799,"|=|":11800,"SetFig":11801,"SetFigFont":11802,")$);":11803,"Ġpopular":11804,"}\\,\\,":11805,"AAA":11806,"aw":11807,"Ġirrational":11808,"tL":11809,"event":11810,"twohead":11811,"load":11812,"lv":11813,"ĠTM":11814,"Ġhomogen":11815,"hole":11816,"Ġarrival":11817,"Am":11818,"sB":11819,"ĠBV":11820,"ĠNavier":11821,"multiple":11822,"Ġutility":11823,"2857":11824,"Ġiterate":11825,"numer":11826,"609":11827,"Gam":11828,"ĠAb":11829,"iser":11830,"....":11831,"Ġfst":11832,"Ġassertions":11833,"}$'":11834,"Ġextract":11835,"<>":11836,"dbar":11837,"Ġstacks":11838,"Ġneighborhoods":11839,"yi":11840,"wor":11841,"219":11842,"invariants":11843,"TIN":11844,"ĠSp":11845,"schetz":11846,"Ġalgebroid":11847,"Ġchamber":11848,"Ġseparating":11849,"ĠCarlo":11850,"Ġramified":11851,"Ġconcerns":11852,":.":11853,"Ġener":11854,"robust":11855,"\\{-":11856,"]-\\":11857,"809":11858,"pation":11859,"El":11860,"{$(":11861,"Ġclustering":11862,"tre":11863,"Ġhypergeometric":11864,")_+":11865,"elim":11866,"martingale":11867,"}}]\\":11868,"Ġmono":11869,"Bra":11870,"sections":11871,"ĠKlein":11872,"Ġobserving":11873,"389":11874,"ez":11875,"domin":11876,"Ġdefect":11877,"Ġambigu":11878,"midway":11879,"Ġyielding":11880,"Ġclaims":11881,"Ġquickly":11882,"Ġearly":11883,"}^+$":11884,"along":11885,"jn":11886,"Ġhead":11887,"098":11888,"ccur":11889,"eynman":11890,"ana":11891,"files":11892,"ĠObviously":11893,"}\\;\\":11894,":-":11895,"}|=":11896,"Ġdisplacement":11897,"ĠTechnology":11898,"Normal":11899,"ĠRHS":11900,"semis":11901,"Ġconserved":11902,"00001":11903,"ars":11904,"expression":11905,"Ġnegligible":11906,"Ġ$||":11907,"320":11908,"ĠCont":11909,"959":11910,"Ġmultipliers":11911,"Ġargu":11912,"handle":11913,"design":11914,"';":11915,"Ġpos":11916,"Ġacknow":11917,"Ġillustration":11918,"kb":11919,"conjugate":11920,"curvature":11921,"654":11922,"BN":11923,"restrict":11924,"Conv":11925,")}:":11926,"Ġepimorphism":11927,"}}.$$":11928,"ĠFredholm":11929,"growth":11930,"Ġshorten":11931,"Ġsubalgebras":11932,"nik":11933,"bimodule":11934,"Ġ1000":11935,"igner":11936,"fundamental":11937,"Ġ72":11938,"Ġexercise":11939,"359":11940,"andau":11941,"matically":11942,"Ġrecipro":11943,"ĠEngineering":11944,"_{<":11945,"Ġcategorical":11946,"Ġconjectures":11947,"System":11948,"Ġchallenging":11949,"vd":11950,"Ġrepresentable":11951,"Ġ,\\\\":11952,"searrow":11953,"whene":11954,"Ġgenerically":11955,"balanced":11956,"axter":11957,"norms":11958,"MESON":11959,"burg":11960,"NA":11961,"IRST":11962,"SY":11963,"Ġ&&&":11964,"Ġeverything":11965,"ducibility":11966,"ĊĊĠĠĠĠĠĠĠ":11967,"\\\\&":11968,"Ġvirtue":11969,"Ġcloser":11970,"Ġtraditional":11971,"ĠRham":11972,"greek":11973,"yx":11974,"separated":11975,"[]{":11976,"Ġtower":11977,"resol":11978,"LD":11979,"olmogorov":11980,"pattern":11981,"{\\|\\":11982,"textsl":11983,"011":11984,"whenever":11985,"Ġjointly":11986,"+[":11987,"Vect":11988,"Ġstratum":11989,"binary":11990,"688":11991,"Ġrescaling":11992,"iance":11993,"BER":11994,"Ġcontribute":11995,"Integra":11996,"alue":11997,"Field":11998,"Ġstation":11999,"Subset":12000,"Ġcolimit":12001,"Ġquantitative":12002,"tzmann":12003,"909":12004,"})$$":12005,"pur":12006,"Ġregularized":12007,"Â·":12008,"tig":12009,")}},":12010,"ĠWeil":12011,"ĠHan":12012,"Partial":12013,"tages":12014,".\\<":12015,"Cond":12016,"|~":12017,"ĠEXISTS":12018,"Ġiner":12019,"^{{":12020,"*}[":12021,"Mathe":12022,"ĠCOMP":12023,"Sect":12024,"\\!\\!\\!":12025,"Ġfibres":12026,"ĠNP":12027,"including":12028,"odule":12029,"atom":12030,"idel":12031,"rose":12032,"lators":12033,"rinf":12034,"754":12035,"ĠMet":12036,"Jac":12037,"Ġcodeword":12038,"}||":12039,"dynamics":12040,"ĠAlexander":12041,"isot":12042,"339":12043,"00000000000000000000000000000000":12044,"^-_{":12045,"Ġscore":12046,"Ġsumming":12047,"Ġdigits":12048,"Sobolev":12049,"fields":12050,"letter":12051,"bundles":12052,"pgfkeysvalueof":12053,"stretch":12054,"Ġtableau":12055,"calT":12056,"Ġrigidity":12057,"ĠAss":12058,"Ġpointing":12059,"ĠĊĠĠĠĠĠĠ":12060,")]^":12061,"1988":12062,"ĠSa":12063,"Ġencoded":12064,"fschetz":12065,"CX":12066,"Eu":12067,"953":12068,"}]_{":12069,"Ġthereby":12070,"twoheadrightarrow":12071,"},\\]":12072,"Ġautomorphic":12073,"ĠCONJ":12074,"Ġsn":12075,"subspace":12076,"ĠExamples":12077,"Existence":12078,"ĠLegendre":12079,"Ġvan":12080,"nextchar":12081,"inuity":12082,"groupo":12083,"Ġfailure":12084,"HI":12085,"}((\\":12086,"669":12087,"989":12088,"$''":12089,"mD":12090,"remain":12091,"setting":12092,"Symbol":12093,"ĠCP":12094,"resolution":12095,"Ġanchor":12096,"Sq":12097,")|_":12098,"_-,":12099,"again":12100,"vct":12101,"ĠBob":12102,"Ġtemporal":12103,"toks":12104,"Ġswap":12105,"ĠGrp":12106,"coloring":12107,"Ġaugmented":12108,"446":12109,"])$.":12110,"hc":12111,"Ġtoler":12112,"Grad":12113,"Ġtransitions":12114,"ĠPDEs":12115,"ĠAD":12116,"iang":12117,"dP":12118,"ĠOrd":12119,"smallsetminus":12120,"ĊĊĊĊĊĊĊĊĊĊĊĊĊĊĊ":12121,"vz":12122,"defs":12123,"Ġ68":12124,"TFUN":12125,"Bun":12126,"tikzset":12127,"Ġcumula":12128,"fz":12129,"polynomials":12130,"}|_":12131,"cli":12132,"Ġwater":12133,"legend":12134,"Ġquadric":12135,"guillem":12136,"inn":12137,"709":12138,"Ġsingleton":12139,"perm":12140,"}({":12141,"bdd":12142,"smul":12143,"GC":12144,"Obviously":12145,"Ġdifferentiation":12146,"Va":12147,"Ġtruth":12148,"Ġiterates":12149,"Ġderivations":12150,"LO":12151,"014":12152,"idx":12153,"=\\{(":12154,")}.$$":12155,"[{":12156,"ĠWhit":12157,"doi":12158,"ifnextchar":12159,"Ġextremely":12160,"Ġ,$":12161,"Ġmostly":12162,"Ġdevices":12163,"tA":12164,"enstein":12165,"beha":12166,"dA":12167,"ordering":12168,"systems":12169,"ĠLin":12170,"Ġintroduces":12171,"Ġfiniteness":12172,"Ġ74":12173,"Ġcounts":12174,"))+\\":12175,"Nn":12176,"lands":12177,"ĠHu":12178,"AU":12179,"ĠEquations":12180,"region":12181,"acute":12182,"endaligned":12183,"ĊĠĠĠĠĠĠĠĠĠĠĠĠĠĠĠĠĠĠĠĠĠĠ":12184,"OMA":12185,"bigsqcup":12186,"379":12187,"find":12188,"Ġsequential":12189,"Tw":12190,"Ġcommutation":12191,"Question":12192,"sat":12193,"1991":12194,"656":12195,"ubert":12196,"Ġcustom":12197,"Ġold":12198,"Ġfastforce":12199,"Ġperiods":12200,"unitary":12201,"Ġsubgraphs":12202,"ftarrow":12203,"Ġanom":12204,"arcs":12205,"coura":12206,"Ġcofib":12207,"scat":12208,"tableof":12209,"Ins":12210,")}}(":12211,"LVECT":12212,"Ġtraces":12213,"Cauchy":12214,"ĠNSF":12215,"Ġadantl":12216,"Ġthermodynam":12217,"Ġconfidence":12218,"Zhang":12219,"Ġconservative":12220,"introduction":12221,"acci":12222,"Ġ++":12223,"Not":12224,"Ġ%":12225,"vacy":12226,"submodule":12227,"obtain":12228,"ogously":12229,"Ġbigger":12230,"Ġasserts":12231,"dX":12232,"\\})\\":12233,"tivated":12234,"functional":12235,"Ġpackets":12236,"tableofcontents":12237,"^*=\\":12238,"$\\|":12239,"Ġdiffeomorphic":12240,"average":12241,"Ġcompe":12242,"xdef":12243,"Schmidt":12244,"grading":12245,"Ġadjust":12246,"Ġoracle":12247,"fbox":12248,"Ġind":12249,"bini":12250,"293":12251,"](-":12252,"Ġremin":12253,"963":12254,"OUS":12255,"Ġcartesian":12256,"Ġcorrelations":12257,"Ġbasi":12258,"ĠEqs":12259,"lindrical":12260,"Ġ}_":12261,"extend":12262,"ittlewood":12263,"env":12264,"sx":12265,"Ġredund":12266,"nikov":12267,"Ġsubstitute":12268,"Ġspirit":12269,"Ġlin":12270,"QR":12271,"Ġpowerful":12272,"hel":12273,"Ġrich":12274,"addlegend":12275,"problems":12276,"complexity":12277,"ĠĠĊĠĠĠ":12278,"Ġscalars":12279,"Ġevident":12280,"Ġbridge":12281,"pled":12282,"~~\\":12283,"{+}":12284,"âĨ":12285,"Ġdiscontinuous":12286,"DEF":12287,"blow":12288,"ĊĠĠĠĠĠĠĠĠĠĠĠĠĠĠĠĠĠĠĠĠĠĠĠĠ":12289,"}}$-":12290,"ĠBased":12291,"biased":12292,"guillemot":12293,"thetic":12294,"perime":12295,"ingly":12296,"ench":12297,"_{\\!":12298,"ĠLegendrian":12299,"ĠCSI":12300,"Ġaxi":12301,"lapse":12302,"383":12303,"Ġsoliton":12304,"Ġsimplifies":12305,"qp":12306,"ollaries":12307,"Ġ(#":12308,"ĠVol":12309,"uph":12310,"ĠCW":12311,"illi":12312,"Ġnearest":12313,"]}{\\":12314,"Ġprojector":12315,"}>\\":12316,"Ġcomputationally":12317,"disk":12318,"INAL":12319,"textqu":12320,")}[":12321,"denoted":12322,"Ġconnectivity":12323,"SUM":12324,"Ġitems":12325,"]$}":12326,"stage":12327,"restricted":12328,"geo":12329,"603":12330,"dW":12331,"Ġagreement":12332,"294":12333,"contained":12334,"Ġtranslate":12335,"'-\\":12336,"Ġparent":12337,"Tree":12338,"1989":12339,"Ġtranspose":12340,")}|\\":12341,"either":12342,"{,}":12343,"Vertex":12344,"mapping":12345,"âĤĢ":12346,"ĠOnce":12347,"Ġcohomological":12348,"efficient":12349,"ĠDiv":12350,"}\\,(":12351,"ĠVECT":12352,"Ġcommutativity":12353,"Scal":12354,"tmp":12355,"'}{\\":12356,"353":12357,"url":12358,"setbox":12359,"Ġoutper":12360,"687":12361,"Biggl":12362,"ĠAssuming":12363,"ĠST":12364,"rema":12365,"rup":12366,"Ġseman":12367,"ĠBur":12368,"Tate":12369,"unif":12370,"trop":12371,"Ġvice":12372,"Ġfluctuations":12373,"Ġoverlap":12374,"Ġidentifies":12375,"cade":12376,"distribu":12377,"Ġreached":12378,"Ġpolyhedral":12379,"uniqueness":12380,"tight":12381,"939":12382,"Ġellipse":12383,"wan":12384,"1987":12385,"Ġgamma":12386,"684":12387,"jpg":12388,"ovl":12389,"777":12390,"}$&":12391,"ĠComplex":12392,"ĠFormula":12393,"NM":12394,"Ġunchanged":12395,"ĠLSeg":12396,"}_{(\\":12397,"urwitz":12398,"ĠKu":12399,"Ġversa":12400,"ĠSha":12401,"Ġsmoothly":12402,"invariance":12403,"}}{|":12404,"ĠALL":12405,"iterion":12406,"]}$.":12407,"Assuming":12408,"textgreek":12409,"bbb":12410,"resize":12411,"Ġpc":12412,"baselineskip":12413,"zu":12414,"Ġcotangent":12415,"Â´":12416,"kewise":12417,"ilnor":12418,"planar":12419,"Ġlearn":12420,"Arg":12421,"}(\\{":12422,"Ġremarkable":12423,"ĠHypothesis":12424,"oking":12425,"Et":12426,"Ġcoe":12427,"ĠAlice":12428,"$-$\\":12429,")}),":12430,"Ġwrong":12431,"context":12432,"Ġnu":12433,"Ġclassify":12434,"Ġstream":12435,"TINU":12436,"pgfplotsplothandler":12437,"monotone":12438,"Ġparameterized":12439,"Ġplayers":12440,"clot":12441,"Ġopp":12442,"gauge":12443,"BQ":12444,"deq":12445,"Ġclar":12446,"~}":12447,"Ġreals":12448,"253":12449,")))\"":12450,"Ġ$-$":12451,"Ġreveal":12452,"nion":12453,"Ġoverview":12454,"Ġpacking":12455,"-.-.-.-.":12456,"Ġkeeping":12457,"Ġoutcome":12458,"recy":12459,"ĠWiener":12460,"found":12461,"opn":12462,"Ġclassifying":12463,"impor":12464,"lective":12465,"Ġmixture":12466,"Deriv":12467,"'[":12468,"ĠLeibniz":12469,"Ġevaluating":12470,"pairs":12471,"Ġpolarization":12472,"Ġhole":12473,"Ġadapt":12474,"ÂĴ":12475,"Ġpercolation":12476,"013":12477,"Circ":12478,"Ġrev":12479,"tia":12480,"Ġmanip":12481,"Ġingredient":12482,"img":12483,"297":12484,"DU":12485,"Ġpossesses":12486,"Ġsc":12487,"Ġdet":12488,"474":12489,"pdfstring":12490,"changing":12491,"Einstein":12492,")\\}\\":12493,"mP":12494,"_*,":12495,"Ġfac":12496,"Ġconditioned":12497,"Ġwitness":12498,"0000000":12499,"separable":12500,"Right":12501,"Net":12502,"_*^":12503,"estimates":12504,"FK":12505,"isa":12506,"\\}_{\\":12507,"texor":12508,"}/{":12509,"Ġexamin":12510,"Dist":12511,"onomous":12512,"151":12513,"Wi":12514,"own":12515,"texorpdfstring":12516,"Ġ_)":12517,"Ġcurved":12518,"Ġtrick":12519,"Ġpseu":12520,"forth":12521,"Ġequally":12522,"TINUOUS":12523,"refine":12524,"Ġminimizers":12525,"}}$$":12526,"Ġcommonly":12527,"'+\\":12528,"Estima":12529,"elementary":12530,"Ide":12531,"]\"":12532,"Ġ95":12533,">{":12534,"lema":12535,"INITE":12536,"}\\\\[":12537,"050":12538,"Ġfractions":12539,"Ġsnd":12540,"Ġgradients":12541,"effective":12542,"erc":12543,"Ġ}}{":12544,"ĠMario":12545,"')=\\":12546,"Ġ===":12547,"Ġwar":12548,"231":12549,"Ġramification":12550,"inic":12551,"correspond":12552,"512":12553,"Ġunimodular":12554,"Ġ99":12555,"hal":12556,"^-,":12557,"343":12558,"pative":12559,"Ġpotentially":12560,"]).":12561,"onds":12562,"ĠOptim":12563,"ĠAm":12564,"Ġ76":12565,"ĠThm":12566,"vphantom":12567,"uf":12568,"=$":12569,"Ġsimplices":12570,"xiv":12571,"Ġrotate":12572,"Biggr":12573,"zb":12574,"Ġconfusion":12575,"Ġseed":12576,"abor":12577,"Ġbootstrap":12578,"SN":12579,"Ġmpb":12580,"frequency":12581,"finitions":12582,"clotomic":12583,"Ġll":12584,"sks":12585,"resizebox":12586,"Ġdifficulties":12587,"Ġdamp":12588,"^-(\\":12589,"Ġ$((":12590,"Ġthm":12591,"ifert":12592,"Ġ^{(":12593,"veness":12594,"PV":12595,"INE":12596,"infinity":12597,"|^{-\\":12598,"folds":12599,"]=[":12600,"Ev":12601,"\\!+\\!":12602,"$,}":12603,"registration":12604,"arbitra":12605,"Even":12606,"ĠâĨĶ":12607,"Ġ81":12608,"heat":12609,"Ġtried":12610,"ADD":12611,"Back":12612,"Ġhermitian":12613,"301":12614,"Diamond":12615,"RB":12616,"verage":12617,"Ġrelaxed":12618,"done":12619,"Ġrecurrent":12620,"mM":12621,"neiro":12622,"Ġrectangular":12623,"\\}.$":12624,"ĠTar":12625,"Ġgroupoids":12626,"Ġperforms":12627,"Ã¨":12628,"Ġfract":12629,"nil":12630,"FFF":12631,"Ġlinked":12632,"ĠBetti":12633,"Ġcurrents":12634,"signal":12635,"Ġorientations":12636,"KR":12637,"dyn":12638,"Theorems":12639,"ĠRF":12640,"ctible":12641,"ĠML":12642,"ĊĠĠĠĠĠĠĠĠĠĠĠĠĠĠĠĠĠĠĠĠĠĠĠĠĠ":12643,"sfrac":12644,"Ġbranched":12645,"oughly":12646,"Ord":12647,"403":12648,"Ġcancellation":12649,"aching":12650,"Ġincreased":12651,"903":12652,"avg":12653,"Ġattractor":12654,"otents":12655,"psset":12656,"Ġfam":12657,"686":12658,"ifundefined":12659,"Ġproportion":12660,"''(\\":12661,"ALUE":12662,"ĠLu":12663,"tracting":12664,"Ly":12665,"ĠCarneiro":12666,"fully":12667,"Ġtranscend":12668,"}^*(\\":12669,"iner":12670,"Ġinsight":12671,"immediate":12672,"dynamic":12673,"363":12674,"Ġabbre":12675,"information":12676,"Ġdoubly":12677,"conn":12678,"Ġpolicies":12679,"Setting":12680,"$}{":12681,"moveto":12682,"Ġexposition":12683,"Char":12684,"Ġinfe":12685,"}{*}{":12686,"Book":12687,"Ts":12688,"\\,{\\":12689,"}'(\\":12690,"Ġ=-":12691,"ĠAdditionally":12692,"loch":12693,"ĠMatrix":12694,"Number":12695,"contro":12696,"Ġ78":12697,"qt":12698,"202":12699,"AW":12700,"]]$":12701,"ĠThroughout":12702,"Ġnormed":12703,"^!":12704,"roots":12705,"extra":12706,"lfand":12707,"Ġdeli":12708,"ACT":12709,"semic":12710,"Ġoscillator":12711,"Ġasked":12712,"Cu":12713,"minor":12714,"*,":12715,"GSYM":12716,"Ent":12717,"complement":12718,"js":12719,"}',":12720,"663":12721,"Ġintegrated":12722,"fM":12723,">$":12724,"imura":12725,"ĠSchwarz":12726,"compute":12727,"^*}$":12728,"Ġrotations":12729,"Ġ85":12730,"ĊĠĠĠĠĠĠĠĠĠĠĠĠĠĠĠĠĠĠĠĠĠĠĠĠĠĠĠ":12731,"transformation":12732,"Ġcorrectly":12733,"})=(":12734,"beds":12735,"strictly":12736,"colored":12737,"ĠUniversit":12738,"ĠHel":12739,")\\<^":12740,"tios":12741,"Formula":12742,"arrows":12743,"Ġfrequently":12744,"Ġsuitably":12745,"otedbl":12746,">}":12747,"lecu":12748,"Ġ(!":12749,"tk":12750,"}&=&":12751,"xxx":12752,"imod":12753,"bfu":12754,"noi":12755,"=[\\":12756,"Pb":12757,"Ġexhibits":12758,"&.":12759,"ĠStar":12760,"rrr":12761,"reff":12762,"Free":12763,"Lower":12764,"figs":12765,"Ġpositively":12766,"weights":12767,"upharpoon":12768,"MAP":12769,"ĠRELAT":12770,"ĠCARD":12771,"Construction":12772,"Db":12773,"cyc":12774,"Ġreceive":12775,"lative":12776,"equals":12777,"Ġkinds":12778,"UCL":12779,"Ġgre":12780,"OA":12781,"qs":12782,"Once":12783,"alph":12784,"401":12785,"Ġrescaled":12786,"RH":12787,"Ġindividuals":12788,"ĠThanks":12789,"mset":12790,"Ġtraffic":12791,"anov":12792,"ĠDeligne":12793,"172":12794,"Ġenergies":12795,"ticity":12796,"trees":12797,"$}\\\\":12798,"Ġ\\((":12799,"Ġstructured":12800,"Obj":12801,"pgfset":12802,"ĠHamiltonians":12803,"elt":12804,"ĠÎ¹":12805,"Pp":12806,"ĠRay":12807,"textquotedbl":12808,"gx":12809,"Ġextensively":12810,"Ġsubtle":12811,"161":12812,"jmath":12813,"^+_{\\":12814,"erring":12815,"]/(":12816,"ĠDynkin":12817,"ĠIntroduction":12818,"6875":12819,"Ġnonlinearity":12820,"Ġequilibria":12821,"ĠChebyshev":12822,"Ġimproves":12823,"Cone":12824,"uw":12825,"geodesic":12826,"directed":12827,"Ff":12828,"squares":12829,"Ġmerely":12830,"Ġrecord":12831,"\\,|\\,":12832,"EGR":12833,"Ġchecks":12834,"pringer":12835,"heap":12836,"asibility":12837,"Ġmedium":12838,"riting":12839,"SB":12840,"983":12841,"eig":12842,"Ham":12843,"ĠFq":12844,"993":12845,"Ġenjo":12846,"|)\\":12847,"belong":12848,"restr":12849,"<<":12850,"jp":12851,"addlegendentry":12852,"MB":12853,"Ġdevice":12854,"\\!\\!\\!\\!\\!\\!\\!\\!":12855,"ĠProb":12856,"onometric":12857,"centerpoint":12858,"^{-(\\":12859,"Ġnef":12860,"Lagrange":12861,"Weak":12862,"host":12863,"Ġ73":12864,"Acknowledgments":12865,"FUNC":12866,"Ag":12867,"pgfplotstable":12868,"Add":12869,"\\{|":12870,"Ġdeformed":12871,"ĠProf":12872,"Ġcuspidal":12873,")$),":12874,"derived":12875,"Banach":12876,"Ġupdates":12877,"finitely":12878,"pared":12879,"rewrite":12880,"CCC":12881,"Ġpasses":12882,"Ġrs":12883,"Ġlinearity":12884,"Ġ@>>>":12885,"Cy":12886,"ience":12887,"[];":12888,"ĠSm":12889,"Ġcau":12890,"isenstein":12891,"Tf":12892,"pers":12893,"Dual":12894,"Ġaddressed":12895,"Plan":12896,"except":12897,"tX":12898,"repe":12899,">-":12900,"Ġ69":12901,"stealth":12902,"Ġoc":12903,".}.":12904,"Sk":12905,"Â¨":12906,"''_{":12907,"Ġrelating":12908,"^{+\\":12909,"stream":12910,"Zero":12911,"parametri":12912,"Ġuncountable":12913,"Stein":12914,"Ġtranslates":12915,"Ġansatz":12916,"449":12917,"respect":12918,"tax":12919,"Ġ``$":12920,"transfer":12921,"Basic":12922,"ĠDoes":12923,"ĠHadamard":12924,"FOR":12925,"Ġstrata":12926,"Ġrelates":12927,"659":12928,"prog":12929,"Hilb":12930,"Ãª":12931,"lateral":12932,"MW":12933,"Ġputting":12934,"pde":12935,":{\\":12936,"Ġrealize":12937,"Sn":12938,"endproof":12939,"Iter":12940,"Prod":12941,"Bx":12942,"asserstein":12943,"declare":12944,"$$|":12945,"ibility":12946,"enn":12947,"parabolic":12948,"Ġhexag":12949,"Ġeleq":12950,"}\\\\\\":12951,"]{{\\":12952,"ĠBru":12953,"bnd":12954,"..<":12955,"Ġelectron":12956,"press":12957,"prelim":12958,"Ġ==":12959,"Ġ71":12960,"gly":12961,"Ġentanglement":12962,"Ġsubscript":12963,"Ġbehaves":12964,"Ġfacets":12965,"Ġincidence":12966,"lefteqn":12967,"Ġ96":12968,"ĠDMS":12969,"Ġbeamforming":12970,"Ġconventions":12971,"ols":12972,"Ġmetri":12973,"EB":12974,"arding":12975,"Ġcalculating":12976,"Âļ":12977,"Ġinjectivity":12978,"atory":12979,"geometry":12980,"%%":12981,"bfv":12982,"ĠKronecker":12983,"Ġcuts":12984,"ocl":12985,"uffle":12986,"ĠCat":12987,"leigh":12988,"aba":12989,"Ġcenters":12990,"Ran":12991,"Ġprocedures":12992,"tok":12993,"ditivity":12994,"pretty":12995,"Ġplaced":12996,"ĠLog":12997,"ĠPhysics":12998,"Mc":12999,"sides":13000,"ķľ":13001,"IE":13002,"Ġ\"('":13003,"}})$,":13004,"ĠKac":13005,"predic":13006,"Ġ],":13007,"Ġtangle":13008,"Ġnumerator":13009,"^*}(":13010,"ĠLang":13011,"ĠSIMP":13012,"Upper":13013,"Ġfairly":13014,"Initial":13015,"Redu":13016,"objects":13017,"Ġseek":13018,")_{(":13019,"hannel":13020,"Ġimplications":13021,"publ":13022,"mag":13023,"writing":13024,"ĠUAV":13025,"Ġcompositions":13026,"cep":13027,"Gauss":13028,"fiber":13029,"discre":13030,"Ġadvers":13031,"(\\()":13032,"invertible":13033,"least":13034,"qr":13035,"ĠCons":13036,"erule":13037,"Comple":13038,"Ġchanged":13039,"Ġlabeling":13040,"Vertices":13041,"JS":13042,"Ġformulations":13043,"Ġland":13044,"icular":13045,"Ġfilling":13046,"https":13047,"Ġ~(":13048,"232":13049,"Ġconsumption":13050,"221":13051,"slashed":13052,"Ġ.&":13053,"analog":13054,"Ġhu":13055,"ĠBernstein":13056,"Ġdeviations":13057,"ĠClass":13058,"853":13059,"today":13060,"nv":13061,"}|}":13062,"Ġ77":13063,"cisely":13064,"Ġ})":13065,"ĠAB":13066,"ĠSing":13067,"674":13068,"Ġmaximize":13069,"Ġ\\>":13070,"Ġcoverage":13071,"Ġflo":13072,"atorial":13073,"riched":13074,"ĠFI":13075,"satisfy":13076,"mented":13077,"logarith":13078,"Ġ&$\\":13079,"ditary":13080,"Ġregret":13081,"UB":13082,"'}^{":13083,"[|":13084,"Hausdorff":13085,"scan":13086,"Ġneur":13087,"hold":13088,"Ġformat":13089,"Ġcobordism":13090,"Ġappropriately":13091,"_!":13092,"lax":13093,"Ġhf":13094,"Ġsectional":13095,"tal":13096,"182":13097,"ÂİÂŁ":13098,"hannon":13099,"mkern":13100,"Stra":13101,"Ã»":13102,"shor":13103,"omy":13104,"imodules":13105,"Ġrefere":13106,"Ġcentre":13107,"Ġnoetherian":13108,"Ã¡":13109,"pendicular":13110,"ABC":13111,"PY":13112,"mination":13113,"ĠLm":13114,"]&\\":13115,"Ġwedge":13116,"quot":13117,"Mi":13118,"High":13119,"mut":13120,"uses":13121,"QP":13122,"Ġpolyhedron":13123,"nw":13124,"ĠON":13125,"Ġsubst":13126,"How":13127,"Ġdra":13128,"thinspace":13129,"convexity":13130,"$${\\":13131,"necessary":13132,"gaard":13133,"FB":13134,"1986":13135,"^*+":13136,")})$.":13137,"pancy":13138,"Ġ||.":13139,"MATCH":13140,"Tan":13141,"Ġ&(":13142,"Ġ\\{-":13143,"Ġuniverse":13144,"AY":13145,"').":13146,")})^":13147,"Vector":13148,"ilibrium":13149,"Imp":13150,"balpha":13151,"yd":13152,"Ġfamous":13153,"Borel":13154,"bid":13155,"ĠFigures":13156,"Ġmodern":13157,"Ġanisotropic":13158,"gw":13159,"/-":13160,"steps":13161,"ccccc":13162,"Ġovercome":13163,"prf":13164,"tating":13165,"&&+\\":13166,"Ġ`(":13167,"Ġdiagon":13168,"umford":13169,"479":13170,"ĠRam":13171,"Ġgeometrical":13172,"rling":13173,"Ġoccurrence":13174,"Ġdes":13175,"ivalence":13176,"Ġ=:":13177,"splits":13178,"Ġanything":13179,"mical":13180,"Ġ}$.":13181,"Ġscheduling":13182,"Ġresources":13183,"759":13184,"Ġlifted":13185,"poin":13186,"arraystretch":13187,"disp":13188,"sR":13189,"possible":13190,"Otherwise":13191,"enchmark":13192,"646":13193,"701":13194,"ilson":13195,"Ġcorrelated":13196,"uller":13197,"dou":13198,"Ġ84":13199,"ĠQuestion":13200,"ĠChen":13201,"Ġrandomized":13202,"Ġeight":13203,"genus":13204,"blacksquare":13205,"Ġfewer":13206,"abbr":13207,"ĠFk":13208,"\\|=":13209,"Ġtaut":13210,"eh":13211,"Ġpredicted":13212,"xvec":13213,"ĠBefore":13214,"ĠNa":13215,"Ġclosest":13216,"Ġhtt":13217,"$[\\":13218,"Ġgreedy":13219,"373":13220,"Ġnaive":13221,"Sto":13222,"ĠPolish":13223,"Tu":13224,"mF":13225,"Ġstud":13226,"mersion":13227,"rim":13228,"Ġ|(":13229,"ĊĉĊĉĊĉĊĉĊĉĊĉĊĉĊĉ":13230,"Ġconcatenation":13231,"hips":13232,"))_":13233,"Ġchecking":13234,"factors":13235,"vection":13236,"Ġforest":13237,"'re":13238,")^*$":13239,"Ġcombinatorics":13240,"Ġrobustness":13241,"plays":13242,"Ġgraphical":13243,"taneous":13244,"Da":13245,"conc":13246,"mX":13247,"ĠFIRST":13248,"parbox":13249,"DH":13250,"@/^":13251,"ĠSCM":13252,"Ġreflections":13253,"Ġ\\;.":13254,"mH":13255,"Ġcarefully":13256,"Ġtangential":13257,"qc":13258,"ĠSchwartz":13259,"Ġinhomogeneous":13260,"Ġserve":13261,"Ġcurrently":13262,"ibon":13263,"]{./":13264,"&'":13265,"676":13266,"&=-\\":13267,"urston":13268,")|_{\\":13269,"ĠMaxwell":13270,"ĠNash":13271,"/{":13272,"University":13273,"fS":13274,"Ġapart":13275,"obius":13276,"Ġ)(":13277,"ĠEnd":13278,"IA":13279,"Ġexpl":13280,"triangleleft":13281,"Ġadmitting":13282,",[\\":13283,"ĠAcknow":13284,"CZ":13285,"Ġisotopic":13286,",'":13287,"])=":13288,"ĠFl":13289,"ĠDav":13290,"ĠIH":13291,"Bin":13292,"rever":13293,"rows":13294,"fC":13295,"Ġhd":13296,"Arr":13297,"Ġshared":13298,"Ġenable":13299,"pun":13300,"ĠXXREAL":13301,"Fn":13302,"]}$,":13303,"|\\;":13304,"ĊĉĉĉĊĉĉĉ":13305,"Rr":13306,"})),":13307,"Ġstating":13308,"tT":13309,"Ġfacet":13310,"nom":13311,"ĠClassification":13312,"SSN":13313,"varying":13314,"1347":13315,"major":13316,"Ġenumeration":13317,"1985":13318,"Ġport":13319,"Ġ94":13320,"ĠClo":13321,"Ġndx":13322,")\\}$,":13323,"Diag":13324,"Ġdominating":13325,"epsi":13326,"Ġexhaus":13327,"Estimate":13328,"Ġlimi":13329,"9045":13330,"=(-":13331,"Ġfs":13332,"rinfeld":13333,"hv":13334,"Ġstabilization":13335,"kg":13336,")$\\\\":13337,"})>":13338,"their":13339,"\\|(":13340,"Ġtuples":13341,"Rb":13342,"Ġnotes":13343,"opp":13344,"}]}":13345,"Ġexception":13346,"Ġlinearization":13347,"site":13348,"Ġdiscovered":13349,"ĠMas":13350,"Ġacqu":13351,"023":13352,"Ġ=-\\":13353,"Ġgains":13354,"Ġmodulation":13355,"Cartan":13356,"Ġunita":13357,"'}_{":13358,"dotsb":13359,"OAL":13360,"nrm":13361,"Aa":13362,"exam":13363,"ĠSche":13364,"ĠLam":13365,"ĠMap":13366,"asse":13367,"vk":13368,"))|":13369,"distingu":13370,"fx":13371,"Ġribbon":13372,"ĠHermite":13373,"171":13374,"Ġmultic":13375,";$":13376,"_|_":13377,"Ġ\\,$":13378,"ona":13379,"els":13380,"ĠVtx":13381,"Ġextrac":13382,"sort":13383,"Ġral":13384,"},(":13385,"ĠTate":13386,"888":13387,"|}$":13388,"Lc":13389,"Ġbimodule":13390,")).$$":13391,"ordon":13392,"orphisms":13393,"eno":13394,"Proofs":13395,"Ġmarket":13396,"Ġ79":13397,"Ġher":13398,"(\"":13399,"Ġundirected":13400,"return":13401,"ĠĊĊĠ":13402,"Ġsuffice":13403,"ochschild":13404,"unfold":13405,"Ġdriven":13406,"ĠLE":13407,"Frobenius":13408,"Ġ|_{":13409,"gaussian":13410,"het":13411,"}))$.":13412,"ĠChow":13413,"uro":13414,"ĠDar":13415,"Ġquali":13416,"Ġpul":13417,"usz":13418,"]/":13419,"&{\\":13420,"ancy":13421,"Ġverification":13422,"ĠMay":13423,"timum":13424,"Âĳă":13425,"ĠWang":13426,"US":13427,"Namely":13428,"Ġresolutions":13429,"Ġadopted":13430,"Ġ'&'":13431,"observation":13432,"Ġsimulated":13433,"ĠSET":13434,"matter":13435,"folded":13436,"Ġcongruent":13437,"Ġsaw":13438,"Ġminimax":13439,"Ġexplains":13440,"Ġfv":13441,"ĊĊĠĠĠĠ":13442,"uclear":13443,"ELL":13444,"Ġtableaux":13445,"Cap":13446,"euler":13447,"subalgebra":13448,"Ġgot":13449,"Character":13450,"Ġspread":13451,"ĠUni":13452,"Ġdissipation":13453,"Dt":13454,"Ġmonotonically":13455,"paration":13456,")}^\\":13457,")]$.":13458,"Ġaxes":13459,"prefix":13460,"181":13461,"Ġproximal":13462,")],":13463,"awa":13464,"hrule":13465,"assump":13466,"fillcolor":13467,"xyz":13468,"Ġdecide":13469,"equalities":13470,"ĠPet":13471,"tiy":13472,"Ġdecomposes":13473,"$$(\\":13474,"lone":13475,"Ġgaps":13476,"}=\\{\\":13477,"Ġaveraged":13478,"loo":13479,"rme":13480,"Ġnil":13481,"Ġlexic":13482,"Ġprojected":13483,"Ġsecondary":13484,"lle":13485,"onomic":13486,"ĠFind":13487,"--(\\":13488,")\\).":13489,"ĠHiggs":13490,"Ġcreated":13491,"Ġsemistable":13492,"calB":13493,"Ġ83":13494,"geom":13495,"Ġtrain":13496,"483":13497,"Decom":13498,"FSA":13499,"ĠâĪ§":13500,"Ġcoproduct":13501,"jm":13502,"943":13503,"slice":13504,")|$.":13505,"^{+}":13506,"opacity":13507,"ĠCA":13508,"600":13509,"ĠFubini":13510,"`)":13511,"Ġexpen":13512,"phantine":13513,"Ret":13514,"ĠPlan":13515,"Hess":13516,"Ġreaches":13517,"Iden":13518,"Ġoutage":13519,"ĠSetting":13520,"505":13521,"}}),":13522,"Ġserver":13523,"inclusion":13524,"ĠLax":13525,"...\\":13526,"Ġincompressible":13527,"Ġpm":13528,"proc":13529,"Ġsystematic":13530,"ĠHee":13531,"nstile":13532,"Ġminimality":13533,"Dim":13534,"Ġgate":13535,"Ġ._|_":13536,"Ġobstacle":13537,"ĠGS":13538,"ologically":13539,"QG":13540,"$\"":13541,"Ġtriangulations":13542,"relliptic":13543,"Ġrapidly":13544,"ĠGalerkin":13545,"IH":13546,"concentra":13547,"Ġsuperalgebra":13548,"ĠBi":13549,"}{[":13550,"braket":13551,"Ġsafe":13552,"ĠGrassmannian":13553,"coinc":13554,"...,\\":13555,"ĠFer":13556,"Ġcycl":13557,"Ġgreatest":13558,"Bel":13559,"rights":13560,"Ġ\\@":13561,"mos":13562,"Ġanalogues":13563,"Ġgrowing":13564,"Ġ[-\\":13565,"pullback":13566,"distributed":13567,")*{\\":13568,"Ġ``$\\":13569,"<+\\":13570,"VS":13571,"lightgray":13572,"matica":13573,"ĠSpaces":13574,"Ġspi":13575,"conven":13576,"kd":13577,"fillstyle":13578,"Num":13579,"Kh":13580,"vrule":13581,"irch":13582,"ĠHall":13583,"tH":13584,"bff":13585,"Yang":13586,"singleton":13587,"Ġfunc":13588,"Asymptotic":13589,"Ġsharing":13590,"oz":13591,"Ġaspect":13592,"Ġchiral":13593,"Ġbenef":13594,"ĠToeplitz":13595,"ĠSolution":13596,"Sz":13597,"circled":13598,"Ġdeals":13599,"Ġconformally":13600,"PB":13601,"Ġminimizes":13602,"Ġending":13603,"Ġembeds":13604,"ĠĊĠĠĠĠĠĠĠĠ":13605,"ponential":13606,"cerning":13607,"ico":13608,"latory":13609,"KN":13610,"ĠMorita":13611,"ĠÎ¼":13612,"Ġnamed":13613,"olute":13614,"Ġ+(-":13615,"}),$":13616,"{\\\"":13617,"}^{{\\":13618,"Ġdecou":13619,"ĠEquivalently":13620,"degeneracy":13621,"ei":13622,"Fc":13623,"Dirac":13624,"Energy":13625,"Ġ120":13626,"OB":13627,"Ġsensor":13628,"^+)":13629,"Ġendomorphisms":13630,"ĠFeynman":13631,"abil":13632,"mel":13633,"osc":13634,"Ġinstability":13635,"bibitem":13636,"une":13637,"Ġrectangles":13638,"Ġpin":13639,"AH":13640,"ĠCur":13641,"Ġcharts":13642,"Ġcommunications":13643,")~\\":13644,"CMPLX":13645,"})--(\\":13646,"Pet":13647,"ytableau":13648,"ĠAN":13649,"normalfont":13650,"codim":13651,"Mean":13652,"token":13653,"ĠMean":13654,"Summa":13655,"]})":13656,"Ġgerm":13657,"Ġmatches":13658,"statement":13659,"Ġplotted":13660,"Ġ**":13661,"Ġwavelet":13662,"glob":13663,"ĠĠĠĠĠĠĠĠĠĠĠĠĠĠĠĠĠĠ":13664,"commuta":13665,"imeter":13666,"Ġmonoids":13667,"keyword":13668,"Ġsubcomplex":13669,"Ġpublished":13670,"Mills":13671,"uits":13672,"Ġtasks":13673,"Ġeliminate":13674,"Ġfold":13675,"}^{*}\\":13676,"pageref":13677,"Ġtopologies":13678,"=|\\":13679,"rect":13680,"iry":13681,"chains":13682,"Ġ(\"":13683,"QU":13684,"zt":13685,"hyperref":13686,"Ġappeal":13687,"Ri":13688,"lemmas":13689,"Liu":13690,"1153":13691,"Ġbraided":13692,"SPACE":13693,"sV":13694,".||":13695,"Ġpropositions":13696,"ĠBesides":13697,"alga":13698,"surf":13699,"191":13700,"contradic":13701,"Ġrepeatedly":13702,"\\{-\\":13703,"^+}\\":13704,"6033":13705,"Ġrestrictive":13706,"('":13707,"svg":13708,"spr":13709,"{}_{":13710,"Ġmutation":13711,"Ġforth":13712,"324":13713,"pie":13714,"~{\\":13715,"},\\,\\":13716,"Properties":13717,"PW":13718,"adaptive":13719,"Est":13720,"strate":13721,"'}_":13722,"eeb":13723,"asym":13724,"Ai":13725,"ĠFil":13726,"ĠData":13727,"trib":13728,"Ġaccep":13729,"Ġportion":13730,"ĠORD":13731,"(\\{\\":13732,"ĠOrder":13733,"names":13734,"orig":13735,"utine":13736,"Ġreport":13737,"Ġ82":13738,"Ġchildren":13739,"}}}(\\":13740,"Ġprofiles":13741,"shadow":13742,"nson":13743,"Ġusage":13744,"$$\\|":13745,"boux":13746,"isometry":13747,"colsep":13748,"WT":13749,"Ġencoder":13750,"Newton":13751,"Ġ\\,\\,\\":13752,"Ġquartic":13753,"endproclaim":13754,"ĠForm":13755,"irkhoff":13756,"Ã«":13757,"Conf":13758,")$.\\\\":13759,"expect":13760,"Ġextensive":13761,"}}{{\\":13762,"Ġmotions":13763,"ĠâŁ¶":13764,"contraction":13765,"rmi":13766,"Phase":13767,"oron":13768,"Ġupdated":13769,"configura":13770,"$]{":13771,"dder":13772,"Its":13773,"1983":13774,"Ġsentence":13775,"ĠTra":13776,"Em":13777,"ĠTri":13778,"sqsubseteq":13779,"perimetric":13780,"&=(":13781,"fault":13782,"Ġposed":13783,"Ġcharges":13784,"erenti":13785,"Ġfoliations":13786,"Ġdisplayed":13787,"omorphically":13788,"Ġpl":13789,"ART":13790,")`,":13791,"|+|\\":13792,"cfrac":13793,"lapping":13794,"^{[\\":13795,"Ġrandomness":13796,"Ġsound":13797,"HJ":13798,"Ġslowly":13799,"ĠMR":13800,"ĠSeifert":13801,"ulating":13802,"ĠLefschetz":13803,"Ġest":13804,"Ġvirtually":13805,"diver":13806,"Ġisogen":13807,"Fi":13808,"nosov":13809,"flip":13810,"),(\\":13811,"Ġeffort":13812,"Ġcylindrical":13813,"ĠBoltzmann":13814,"Ġstop":13815,"},\\;":13816,"Last":13817,"776":13818,"Ġ}=":13819,"ouse":13820,"CU":13821,"amalg":13822,"Hi":13823,"Ġplayed":13824,"Ġreveals":13825,"LI":13826,"Ġsink":13827,"ĠQuillen":13828,"SDE":13829,"Ġintuitive":13830,"Lim":13831,"ddd":13832,"Baxter":13833,"ĠORDINAL":13834,"Det":13835,"Power":13836,"Ġdecays":13837,"Ġfont":13838,"tie":13839,"kf":13840,"rH":13841,"Ġbrev":13842,"tiveness":13843,"rounded":13844,"mddefault":13845,"asm":13846,"Ġdispersion":13847,"Ġ()":13848,"090":13849,"_{\\,":13850,"ĊĠĠĠĠĊĠĠĠĠĊĠĠĠĠĊĠĠĠĠ":13851,"ĠRIS":13852,"Ġbrevity":13853,"Ġ|^|":13854,"Ġprinciples":13855,"proofs":13856,"Ġframed":13857,"Ġdoubling":13858,"sufficient":13859,"469":13860,"))$$":13861,"Ġstrengthen":13862,"áµ":13863,"ĠStra":13864,"Ġtwists":13865,"bfseries":13866,"pars":13867,"Bre":13868,"rap":13869,"ĊĉĠĠ":13870,"exec":13871,"static":13872,"Ġmeshes":13873,"Ġidempotents":13874,"$,$":13875,"Ġcontracting":13876,"iophantine":13877,"Ġsimultaneous":13878,"601":13879,"ĠWeierstrass":13880,"439":13881,"ovich":13882,"ĠUnfortunately":13883,"Ġbenchmark":13884,"ÂİÂ¡ÂįÂĳ":13885,"Ġ97":13886,"Wave":13887,")!}\\":13888,"Ġignore":13889,"-\\{":13890,"Ġ.\\]":13891,"ened":13892,"flux":13893,"defines":13894,"Ġsuccessfully":13895,"ĊĠĠĠĠĠĠĊĠĠĠĠĠ":13896,"Ġprivacy":13897,"316":13898,"mB":13899,"Ġ92":13900,"TRAN":13901,"zag":13902,"Ġstay":13903,"means":13904,"ĊĊĊĊĊĊĊĊĊĊĊĊĊĊĊĊĊĊĊĊĊĊĊĊĊĊĊĊĊĊĊĊĊĊĊĊĊĊĊĊĊĊĊĊĊĊĊĊĊĊĊĊĊĊĊĊĊĊĊĊĊĊĊĊĊĊĊĊĊĊĊĊĊĊĊĊĊĊĊĊĊĊĊĊĊĊĊĊĊĊĊĊĊĊĊĊĊĊĊĊĊĊĊĊĊĊĊĊĊĊĊĊĊĊĊĊĊĊĊĊĊĊĊĊĊĊĊĊ":13905,"Ġbroken":13906,"&&+":13907,"Ġ'''":13908,"Cn":13909,"beck":13910,"preserves":13911,"calV":13912,"075":13913,"ÂĽ":13914,"rTo":13915,"DK":13916,"Tran":13917,"ĠHo":13918,"}].":13919,"774":13920,"ighted":13921,"snr":13922,"Hc":13923,"replace":13924,"088":13925,"dest":13926,"itary":13927,"Ġattack":13928,"Ġfigures":13929,"Term":13930,"Laplace":13931,"Ġexpanded":13932,"Ġnum":13933,"sN":13934,"satura":13935,"newif":13936,"nq":13937,"}*":13938,"import":13939,"ĠFock":13940,"emb":13941,"Ġreflected":13942,",&\\":13943,"ĠTR":13944,"ĊĉĉĊĉĉĊĉĉĊĉĉ":13945,"Ġelimination":13946,"Rank":13947,"ĠPick":13948,"IG":13949,"Ġblowup":13950,"ĠBrauer":13951,"Ġformation":13952,"Ġ=\\{":13953,"oured":13954,"ĠAC":13955,"'<":13956,"$_{":13957,"background":13958,"capacity":13959,"EO":13960,"}}}.":13961,"istent":13962,"}).\\":13963,"RES":13964,"Bor":13965,"ril":13966,"Ġpartitioned":13967,"Ġreversed":13968,"frk":13969,"oration":13970,"ĠAxiom":13971,"May":13972,"makeat":13973,"Ġfilters":13974,"vg":13975,"Ġhydro":13976,"indices":13977,"squnion":13978,"Ġpackage":13979,"dep":13980,"ĠCN":13981,"Ġ93":13982,"}\\).":13983,"(#)":13984,"ict":13985,"Ġcoded":13986,"isations":13987,"Ġalloc":13988,"mal":13989,"679":13990,"iegel":13991,"Ġattains":13992,"gacy":13993,"Ġchromatic":13994,"Ee":13995,"nbig":13996,"uclid":13997,"leqno":13998,"ĠQed":13999,"Bs":14000,"zel":14001,"689":14002,"ticing":14003,"$&$\\":14004,"\"};":14005,"Ġ}_{\\":14006,"braid":14007,"EMP":14008,"Sg":14009,"yields":14010,"Ġ128":14011,"tagon":14012,"Ġscope":14013,"},-":14014,"bbN":14015,"vatures":14016,"Ġtau":14017,"|}{|":14018,"Ġ>\\":14019,"'}=":14020,"ĠRelation":14021,"Ġstratification":14022,"Ġlists":14023,"^*)$.":14024,")$--":14025,"))/":14026,"1984":14027,"ĠSystems":14028,"Ġoccurring":14029,"pgfpathlineto":14030,"Ġinteracting":14031,"{[\\":14032,"ĠDehn":14033,"LW":14034,"=}[":14035,"Kr":14036,"Ġcofibrant":14037,"}]{":14038,"})|\\":14039,"uh":14040,"Hermitian":14041,"=}\\":14042,"must":14043,"ĠFa":14044,"649":14045,"Ġconnects":14046,"ĠĊĠĠĠĠĠĠĠĠĠĠĠĠĠĠĠ":14047,"555":14048,"constr":14049,"transpose":14050,"wang":14051,"}}).":14052,"spherical":14053,"Ġmolecu":14054,"ounce":14055,"Ġzeroes":14056,"just":14057,"}')":14058,"cavity":14059,"ĠGeometry":14060,"brk":14061,"erson":14062,"definable":14063,"Ġ91":14064,",\\<":14065,"Ġdistributional":14066,"Ġisotropy":14067,"coef":14068,"being":14069,"Ġglue":14070,"ĠFact":14071,"783":14072,"Ġdrawing":14073,"Ġcoalgebra":14074,"Yu":14075,"lability":14076,"Ġshapes":14077,"Ġsecrecy":14078,"arance":14079,"Ġbehave":14080,"Kn":14081,"plink":14082,"computation":14083,"Ġaverages":14084,"Ġ(_":14085,"ĠOut":14086,"Combin":14087,"isha":14088,"Ġcokernel":14089,"ĠMSE":14090,")}\\,\\":14091,"Ġsemicontinuous":14092,"Ġtables":14093,"}}}_{":14094,"oclinic":14095,"tikzexternal":14096,"Ġalone":14097,"Tt":14098,"dex":14099,"fX":14100,"Ġfibered":14101,"Ġcharacterizes":14102,"dele":14103,"TI":14104,"Ke":14105,"Sign":14106,"regulari":14107,"ifying":14108,"Letting":14109,"pgfmathset":14110,"Ġ86":14111,"Ġ~<_":14112,"leave":14113,"eee":14114,"dxdy":14115,"primal":14116,"Ġbodies":14117,"ichot":14118,"Âª":14119,"Ġ~~>":14120,"twn":14121,"insler":14122,"ĠMethod":14123,"ici":14124,"DO":14125,"Ġnf":14126,"responding":14127,"OLY":14128,"vbox":14129,"yg":14130,"Ġcodewords":14131,"ĠSP":14132,"abbre":14133,"iller":14134,"CLO":14135,"Ġlogical":14136,"ymmetry":14137,"pagestyle":14138,"triangular":14139,"Ġdiscretized":14140,"Ġarchitecture":14141,"oma":14142,"Ġ87":14143,"Ġfits":14144,"tale":14145,"divergence":14146,"Ġnotational":14147,"ĠLP":14148,"ĠRLVECT":14149,"Ġpunctured":14150,"Ġtrigonometric":14151,"{~":14152,"_{+}":14153,"Ġ98":14154,"}^+(":14155,"jb":14156,"oni":14157,"Ġcosets":14158,"ĠBethe":14159,"tiyah":14160,"ĠKan":14161,"@}":14162,",\\,\\,\\,\\,\\,\\,\\,\\":14163,"you":14164,"xf":14165,"blocks":14166,"Fp":14167,"spension":14168,"rences":14169,"\\},\\\\":14170,"displaybreak":14171,"consistency":14172,"'|\\":14173,"ĠActually":14174,"Ġ[`":14175,"}}\\|\\":14176,"ban":14177,"manu":14178,"Ġsuggestions":14179,"approximate":14180,".[":14181,"Ġtilting":14182,"uscript":14183,"Ġ_|_":14184,"Bb":14185,"Ġmultiplied":14186,"locale":14187,"Ġ},\\":14188,"ancial":14189,"ĠJensen":14190,"ĠCartier":14191,"numbers":14192,"Ġbreq":14193,">-\\":14194,"exce":14195,"Ġpsi":14196,"Ġcause":14197,"ĠTY":14198,"^{\\{":14199,"Ġthermal":14200,"icode":14201,"}+{\\":14202,"Ty":14203,"))^\\":14204,"Ġ88":14205,"fractional":14206,"entific":14207,"Ġaccordingly":14208,"Ġperpendicular":14209,"@{=}[":14210,"Hyper":14211,"dint":14212,"nega":14213,"Ġjustified":14214,"Ġpolygons":14215,"Ġmet":14216,"Ġ\\,\\,\\,":14217,"format":14218,"changes":14219,"atou":14220,"Ġretri":14221,"Chap":14222,"-/":14223,"argument":14224,"Ġgetting":14225,">;":14226,"bdy":14227,"Ġheavy":14228,"Ġexpectations":14229,"correlation":14230,"Ġcollections":14231,"HN":14232,"ALUED":14233,"LF":14234,"ĠCompute":14235,"Bur":14236,"242":14237,"Ġpatch":14238,"Ġmonomorphism":14239,"ibonacci":14240,"3574":14241,"nearrow":14242,"ivity":14243,";)":14244,"Ġseven":14245,"ĊĠĠĠĊĠĠĠ":14246,"unital":14247,"016":14248,"GB":14249,"ulia":14250,"Product":14251,"(\\))":14252,"ZF":14253,"Ġcutoff":14254,"Ġsupposed":14255,"Hat":14256,"Ġdesirable":14257,"Ġambiguity":14258,"Sche":14259,"Ġingredients":14260,"modulo":14261,")=[":14262,"Ġration":14263,"fon":14264,"Ġ\\}}":14265,"proximation":14266,"poch":14267,"mycolor":14268,"adjacent":14269,"tifying":14270,"ÂĳĄ":14271,"ĠJi":14272,"}\\},":14273,"fac":14274,"according":14275,"Sums":14276,"Test":14277,"comma":14278,")=|":14279,"Ġ89":14280,"multiply":14281,"atter":14282,"Ãĩ":14283,"Schur":14284,")|}":14285,"Neumann":14286,"Ġmaximization":14287,"limited":14288,"Ġdihedral":14289,"Pu":14290,"wz":14291,"Ġexploiting":14292,"Ġcumulative":14293,"Ġminima":14294,"erci":14295,"Ġten":14296,"ĠLMod":14297,"rants":14298,"save":14299,"033":14300,"iq":14301,"030":14302,"Ġpencil":14303,"$=":14304,"RK":14305,"(\\,":14306,"Ġoptimized":14307,"Ġprogression":14308,"Ġ105":14309,"lass":14310,"prt":14311,"homas":14312,"ordin":14313,"=\\|":14314,"=~":14315,"xspace":14316,"ĊĠĠĠĠĠĠĠĠĠĠĠĠĠĠĠĠĠĠĠĠĠĠĠĠĠĠ":14317,"dra":14318,"ats":14319,"),\\;":14320,"enko":14321,"ĠOther":14322,"ica":14323,"Ġevaluations":14324,"game":14325,"linebreak":14326,">|":14327,"dekind":14328,"ATION":14329,"ĠSchubert":14330,"Ġinverses":14331,"ĠPolynomial":14332,")_*":14333,"$^{":14334,"psize":14335,"bus":14336,"calR":14337,"Input":14338,"ĠCent":14339,"constru":14340,"Ġantipo":14341,"heaves":14342,"pert":14343,"Ġnowhere":14344,"ĠRecently":14345,"Ġclassic":14346,"ĠIntegral":14347,")}^{(":14348,"protected":14349,"Ġforgetful":14350,"{}&":14351,"titude":14352,"Ġenvelope":14353,"Ġdesigns":14354,"Ġreaders":14355,"dj":14356,"completion":14357,"dF":14358,"ÃĻ":14359,"Ġleaving":14360,"sK":14361,"independ":14362,"Output":14363,"pscircle":14364,"Ġgeometries":14365,"generator":14366,"sse":14367,"Ġconduc":14368,"pgflinewidth":14369,"fied":14370,"Random":14371,"pht":14372,"ubble":14373,"ĠNetwork":14374,"_{#":14375,"Ġanalyzing":14376,"Ġmaster":14377,"Ġ\\|_\\":14378,"}})=":14379,"jectives":14380,"Elem":14381,"kv":14382,"653":14383,"diffe":14384,"Ġcentralizer":14385,"learning":14386,"/.(":14387,"ĠNotation":14388,"Element":14389,"_{,":14390,"common":14391,"âī":14392,"prems":14393,"PQ":14394,"wu":14395,"ĠInformation":14396,"Zp":14397,"]}_{":14398,"ĊĊĊĊĊĊĊĊĊĊĊĊĊĊĊĊĊĊĊĊĊĊĊĊĊĊĊĊĊĊĊĊĊĊĊĊĊĊĊĊĊĊĊĊĊĊĊĊ":14399,"Ġ-(\\":14400,"ĠErd":14401,"Oh":14402,"241":14403,"])$,":14404,"eel":14405,"Ġsuff":14406,"lang":14407,"bfy":14408,"uine":14409,"Ġratios":14410,"ober":14411,"eigenvalues":14412,"Ġbs":14413,"}$.\\\\":14414,"(+)":14415,"third":14416,"tribute":14417,"443":14418,"classification":14419,"262":14420,"bbr":14421,"cyl":14422,"Ġminors":14423,"ĠĠĠĠĠĠĠĠĠĠĠĠĠĠĠĠĠ":14424,"^+)$":14425,"Ġhomeomorphisms":14426,"don":14427,"Ġmathematic":14428,"Ġdeleting":14429,"pson":14430,"Ġ}$,":14431,"$}}}":14432,"Other":14433,"{}$":14434,"irect":14435,"dem":14436,"oneda":14437,"need":14438,"cidable":14439,"rak":14440,"Ġelabor":14441,"ĠMate":14442,"din":14443,"factorization":14444,"Vi":14445,"wing":14446,"Ġdots":14447,"UCLID":14448,"Ġasymmetric":14449,"Ġreser":14450,"TN":14451,"Ġbeta":14452,"UNIV":14453,"Edges":14454,"~~~~~~~~~~~~~~~~":14455,"Ġdura":14456,"safemath":14457,"ĠZhang":14458,"Ġdominates":14459,"shaped":14460,"vcenter":14461,"Kw":14462,"Tau":14463,"los":14464,"Ġreward":14465,"ĠMost":14466,"ĠOP":14467,"Ġaware":14468,"'})$":14469,"cedu":14470,"Ġderiving":14471,"Ġsoftware":14472,"087":14473,"78125":14474,"Pc":14475,"tonumber":14476,"}/(":14477,"gged":14478,"ĠDer":14479,"})/\\":14480,"ĠBC":14481,"pzc":14482,"ĠQQ":14483,"<|":14484,"HOM":14485,"Ġcub":14486,",\\;\\":14487,"Ġproceeds":14488,"].$$":14489,"IVE":14490,"olicy":14491,"BGOAL":14492,"integers":14493,"Ġrearrange":14494,"ifth":14495,"pressed":14496,"ĊĉĉĊĉĉĊĉ":14497,"*#*#":14498,"HR":14499,"Ġequidis":14500,"gauss":14501,"Dav":14502,"Ġreli":14503,"Ġalgorithmic":14504,"Ġexit":14505,"Ġlinking":14506,"}-{\\":14507,"|,|":14508,"glue":14509,"itons":14510,"âŁ¨":14511,"Grid":14512,"variation":14513,"pop":14514,"aker":14515,")]=":14516,"saved":14517,"esp":14518,"Ġvortex":14519,"pgfmathsetmacro":14520,"ĠKolmogorov":14521,"Ġmotivic":14522,"Ġimmersed":14523,"intr":14524,"original":14525,"Ġbialgebra":14526,"}}$}":14527,"Conclusions":14528,"Ġ{}\"":14529,"ĠMy":14530,"Ġconstructive":14531,"projlim":14532,"Ġ\\,=\\,":14533,"jected":14534,"Ġdeterminants":14535,"Laplacian":14536,"Ġ]$":14537,"Ġtalk":14538,"ĠNormal":14539,")=(-":14540,"aug":14541,"ĠTopOn":14542,"gro":14543,"generate":14544,",|\\":14545,"etermin":14546,"ĠSubject":14547,"Ġoscillations":14548,"fre":14549,"Ġdistributive":14550,"Ġpayoff":14551,".{":14552,"inher":14553,"Ġchose":14554,"Ġiniti":14555,"bedding":14556,"internal":14557,"Recently":14558,"++(":14559,"Ġ\\;,":14560,"Ġoutgoing":14561,"Ġdisj":14562,"scaled":14563,"info":14564,"toprule":14565,"Ġmultiset":14566,"{*":14567,"spc":14568,"SURE":14569,"eigenvalue":14570,"ĠBerg":14571,"Ġff":14572,"Ġchallenge":14573,"ury":14574,"Ġelsewhere":14575,"uz":14576,"fining":14577,"ivita":14578,"^{+}_{":14579,"dup":14580,"Ġmetis":14581,"Ġpersistence":14582,"Ġ,$$":14583,"*}{\\":14584,"ĠWill":14585,"Ġpropag":14586,"illiard":14587,"ĠStru":14588,"ĠBor":14589,"arbitrary":14590,"holtz":14591,"Turnstile":14592,"Ġmechanical":14593,"Ġnuclear":14594,"000001":14595,"ĠReeb":14596,"ubar":14597,"DV":14598,"Ġoptimum":14599,"asso":14600,"Ġextent":14601,"dxdt":14602,"}(|\\":14603,"ĠvH":14604,":=(\\":14605,"Jan":14606,"valent":14607,"monomial":14608,"jx":14609,")=\\{\\":14610,"Ġ}\\,":14611,"convergent":14612,"ĠAda":14613,"Ġemer":14614,"Ġoutlined":14615,"Ġstratified":14616,"Recalling":14617,"----------------------------------------------------------------":14618,"@{--":14619,"ĠThom":14620,"mathpzc":14621,"Ġtransitively":14622,"sI":14623,"017":14624,"Ġpiv":14625,"+\\,":14626,"]{-":14627,"ttt":14628,")))\\":14629,"CASES":14630,"soft":14631,"Ġ;\\":14632,"ĠBtwn":14633,"holder":14634,"Ġtrivialization":14635,"adapted":14636,"permutation":14637,"arXiv":14638,"ĠInitial":14639,"){{\\":14640,"28125":14641,"Ġbirth":14642,"skeleton":14643,"Ġindetermin":14644,"Ġâī«":14645,"ĠCalc":14646,"mh":14647,"multiplication":14648,"ĠGamma":14649,"groupoid":14650,"ĠInequality":14651,"Ġregardless":14652,"Ġpow":14653,"localization":14654,"1980":14655,"504":14656,"ĠMilnor":14657,"1234":14658,"Ġregimes":14659,"Ġhim":14660,"Dirichlet":14661,"Ġmaximizing":14662,
[...]
